#version: 0.2
ï ¼
ä ¸
ï¼ Į
ç ļ
çļ Ħ
ã Ģ
æ ľ
ä ½
ä º
ãĢ Ĥ
ä »
è ¿
å ı
æ Ī
å Ī
å ħ
å ¤
å ľ
å Ĭ
å Ĳ
æľ ī
å ®
ĥ ½
åľ ¨
ä ¹
è §
æ ĸ
è ĥ½
ç Ķ
å Ń
æ Ħ
ï¼ Ł
è ¯
æ ĺ
ä ¼
è ®
é Ģ
æ Ģ
ç Ĳ
æ ķ
ä¸ İ
äº º
æ Ĺ
ç »
æĪ ĳ
çĲ Ĩ
ä½ ł
æ ĥ
å Ĵ
¦ Ĥ
å Į
ãĢ ģ
åĴ Į
æĺ ¯
å ¦Ĥ
è¿ ĩ
åı ¯
ä¸ Ģ
æ Ŀ
å º
ä ¿
å ¯
é Ĺ
æ ³
åĮ ĸ
è ĩ
å ¼
é ĩ
* *
æ Ĭ
æĹ ¶
å °
å ·
å ¾
è Ģ
æľ Ģ
ç İ
ä¸ į
æ ŀ
æ ²
è ¡
æĢ §
æĦ ı
èĩ ª
æĦ Ł
Ġ t
çĶ ¨
å ½
å ¹
å Ĩ
å ¿
å Ľ
ç §
ä¸ ª
æķ °
ï¼ ļ
ä½ ľ
æľ ¯
å¤ ©
â Ģ
æ ł
æĬ Ģ
æ İ
ä» ¥
æ Į
æĥ ħ
ä¸ º
å ĵ
è¿ ĳ
ç ľ
ç ®
ç ±
Ġ a
å ĩ
å ¸
æľĢ è¿ĳ
i n
äº İ
åŃ ¦
ä½ ĵ
é ¢
æ³ ķ
ä¸ Ń
ç ī
å į
éĢ ļ
ç Ľ
åĬ ¨
é ľ
æ Ļ
è ¾
æĸ ĩ
ç± »
æ Ľ
h e
æ ı
æ ī
è§ £
ä¼ ļ
éľ Ģ
è¯ Ĩ
åĲ Į
æ Ń
å¯ ¹
ä¹ Ī
ä ¾
æ² ¡
Ġ Ġ
çĶ Ł
ç Ń
æı Ĳ
é Ŀ
æĬĢ æľ¯
å® ŀ
æ²¡ æľī
A I
äº Ĩ
æ į
åĬ Ľ
åĪ °
ç Ł
çİ °
å· ¥
è µ
ä¿ Ŀ
äºº ç±»
æĽ ´
è¿ Ļ
éĹ ´
åĪ Ľ
ä½ Ĩ
é ģ
éĢļ è¿ĩ
æĸ ¹
èĢ Į
æĪ ĸ
ä½ ķ
æĸĩ åĮĸ
æį ®
æĥ ³
å ±
åı ĳ
ç ķ
æĿ ¥
å ¥
ç® Ĺ
åħ ³
æĪ Ĳ
åŃ ĺ
è ¦
åĪ Ĩ
ç ¡
è¦ ģ
åı¯ èĥ½
çŁ ¥
æ ĭ
å¦Ĥ ä½ķ
è ¶
åĲ Ī
åº ¦
å½ ±
å ģ
ä» Ģ
ä»Ģ ä¹Ī
Ġ **
é Ļ
æľī æ²¡æľī
æĮ ģ
e r
Ġt he
è ´
æĦı è¯Ĩ
å ĳ
Ĭ å¤©
å Ģ
æ Ķ
å¹ ³
å¤ ļ
åĬ ©
¦ çĲĨ
ä¼ ¦çĲĨ
o n
å İ
ç¡ ®
ä» Ĭå¤©
æĻ º
æĸ °
é¢ ĺ
æķ Ī
æŀ ľ
æ ´
åŃĺ åľ¨
r e
æķ° æį®
çľ ĭ
æ ¯
çķ Į
å¿ ĥ
éĹ ®
ä¸ »
æĻº èĥ½
å® ļ
æ µ
** ï¼ļ
èĩª æĪĳ
æ ģ
è ·
éĩ ı
éĩ į
a t
ä¿ ¡
é ļ
ä» ¬
Ġ s
åº Ķ
âĢ ľ
âĢ Ŀ
å Ł
è¡ Į
åĵ į
æģ ¯
å »
åı¯ ä»¥
æĥħ æĦŁ
åŃ Ĳ
æ´ »
Ġ o
ä¸ ĭ
Ġ c
å½± åĵį
é ª
è§ Ĥ
æ °
å» º
è ī
åĨ ³
å¥ ½
ä¹ ł
è¿ Ľ
å ¢
è °
ï¼ ģ
ç ³
æĹ¶ éĹ´
e n
ç®Ĺ æ³ķ
å¾ Ĺ
åħ ¨
ç§ į
æľ º
çŃ ī
e s
éĹ® é¢ĺ
è¡ ¡
éª Į
å¼ ı
è® ¤
å¦Ĥ æŀľ
ä¿¡ æģ¯
åı ĺ
é Ķ
é «
é« ĺ
æ ·
ç Ħ
a n
ä¹ Ł
i s
çľ Ł
äº ĭ
ä½ ¿
æ ¬
éĿ ¢
è ģ
ç º
è® ¡
çĲĨ è§£
ï¼ ī
æİ ¨
æĢ Ŀ
æł ·
çī ¹
æ³ ¨
ç ¤
è§ ī
å¹³ è¡¡
ç³ »
ä¾ Ľ
äºº å·¥
äº Ľ
æľ ¬
å¸ ®
åĽ ł
äººå·¥ æĻºèĥ½
æıĲ ä¾Ľ
çī ©
åĲ Ĺ
åħ ·
å± ķ
åĢ ¼
åĩ Ĩ
o r
ä¸Ģ ä¸ª
é £
ï¼ Ī
åľ °
åĪ «
åĪ ¶
åĩ º
æ ¨
é ĺ
æľĢè¿ĳ æľīæ²¡æľī
åĲĮ æĹ¶
æ¨ ¡
ï¼ Ľ
ä¹ ī
æ ¡
æ· ±
i t
è® ©
èĢ ħ
Ġ f
ç «
å ī
è¾ ¹
è¶ £
åŃ¦ ä¹ł
å° ı
çĽ ®
æĺ İ
o u
åŃ Ĺ
ç ¨
è º
ç§ ĳ
ä» ·
ç ´
Ġa n
æĹ ł
çĦ ¶
æ ±
èº «
éĿ ŀ
Ġ w
æĪ ·
è® ¾
æ¯ ı
æľ ª
æĪĳ ä»¬
Ġ p
åį ĩ
å¤ į
åħ ¶
Ġo f
ä½ĵ éªĮ
ç Ĥ
a l
åĬ ¡
in g
æ ¸
è° ĥ
ä» »
åħ ¬
çĶŁ æ´»
ä¸ Ĭ
ä»· åĢ¼
æµ ģ
äº ¤
ä¼ ĺ
ç¤ ¾
Ġ in
è´ ¨
æıĲ åįĩ
å¸® åĬ©
å¤ Ħ
åı Ĭ
åĬ ł
å¢ ĥ
å° Ĩ
å ĸ
åħ ±
èµ ·
éĢ ī
è¯ ķ
åĲ ¦
çİ ĩ
åĨ ħ
ç¨ ĭ
éĩı åŃĲ
æł ĩ
è¯ Ń
ä» £
åľ¨ äºİ
çĶ¨ æĪ·
ä» ĸ
æĢ ģ
Ġ b
Ġ =
æķ° åŃĹ
åĪ Ļ
åĪĽ ä½ľ
Ġ m
æ± Ĥ
æ º
èī º
ç ¬
è¾¹ çķĮ
è§ Ħ
æ° Ķ
Ġan d
ç» ĵ
æŃ ¥
çĶ µ
çĤ ¹
ç» Ł
ç» ı
ç ł
a r
éģ ĩ
å¼ Ģ
éĢ ł
çŃ ĸ
ä¸į åĲĮ
åĽ ½
å¼ º
éľĢ è¦ģ
å¤ §
æĺ¯ åĲ¦
è¡ ¨
ä» İ
å¯ ¼
l e
åıĳ å±ķ
è®¤ çŁ¥
æĭ ©
éĢ Ĥ
ç« ĭ
è ½
èĥ½ åĬĽ
å® ĥ
ç¡® ä¿Ŀ
ä¿Ŀ æĮģ
æķĪ çİĩ
å¤Ħ çĲĨ
èĩªæĪĳ æĦıè¯Ĩ
é ¡
ç» ´
æº Ĳ
æŃ £
éĢī æĭ©
éģĩ åĪ°
i c
èīº æľ¯
é ķ
i on
è® ®
Ġ d
å¹ ¶
æķ ´
è· ¨
ä¼ ł
æĦı ä¹ī
æľª æĿ¥
æŃ ¤
Ġt o
ç ¼
ç ©
å ŀ
å® ¶
çĲ ĥ
å®ŀ çİ°
æĸ¹ å¼ı
ä½ł ä»Ĭå¤©
ä¾ ĭ
è®¡ ç®Ĺ
è¿Ļ ç§į
æĸ Ń
ç» Ń
æŀ Ħ
ä¸Ń çļĦ
åģ ļ
æĶ ¹
å¾ Ī
ä½ľ ä¸º
éķ ¿
e d
åĳ ¢
è Ĭ
å¸ ¸
éģ ¿
è¿ ĺ
æİ ¢
è Ļ
åħ į
Ġ \
åŀ ĭ
æĿ ĥ
åį ı
æĿ Ĥ
ä» ¶
äº Ĵ
é«ĺ æķĪ
æī ĭ
èĢĮ éĿŀ
éļ Ĳ
æĢ İ
å¤į æĿĤ
éģ¿ åħį
æ ¶
åŁ º
æĪĳ çļĦ
æ¯ Ķ
ç ª
ä¸» è§Ĥ
åİ »
çī¹ åĪ«
ä¹ ĭ
è§ Ĩ
éĶ ®
åħ ¥
å® ¹
å¤© æ°Ķ
å· ®
ä¸Ģ èµ·
ç Ŀ
é ĥ½
ä½¿ çĶ¨
å½ ĵ
ä½ł æľīæ²¡æľī
åħ³ éĶ®
æĹł æ³ķ
Ġ 1
é ĥ
æİ ¥
r o
ä½ł æľĢè¿ĳæľīæ²¡æľī
æ² »
è§£ åĨ³
åĸ ľ
ç ²
åı Ĺ
ä¸ ĵ
å¼ Ĥ
éĻ Ĳ
çª ģ
ä¸ ļ
ä¾ĭ å¦Ĥ
è Į
åĪ ©
ç¤¾ ä¼ļ
åĲ ĳ
åĲ İ
æľ Ł
è ¢
Ġ is
åı į
çĽ ¸
è¾ ¾
æ¬ ¢
ä½ł å¦Ĥä½ķ
éĥ ¨
åĵ ģ
ç§ ģ
æĢİ ä¹Ī
åĪĽ éĢł
å·¥ ä½ľ
å® ī
åī į
è ĭ
æī Ģ
éĻ ħ
å ķ
Ġ n
åħ¨ çĲĥ
èĩ ´
æľī è¶£
åŃĺåľ¨ çļĦ
å¤ ĸ
å° ĳ
é£ Ł
èĢ ĥ
Ċ ĠĠ
æĮģ ç»Ń
éļĲ ç§ģ
æľĢè¿ĳ åľ¨
è¢ «
çİ ¯
æĬ ¤
a s
åĨ³ çŃĸ
èĬ Ĥ
æŀ Ĳ
æ Ł
åŁ Ł
åĮ ħ
ä¼ĺ åĮĸ
å¼ ķ
ãĢ Ĭ
ãĢ ĭ
å»º ç«ĭ
å Ŀ
å¾ ĭ
æ²» çĲĨ
äº §
å· ±
ç ¾
å¿ «
ç ½
èĩª å·±
a c
ä¸ª äºº
æŀ ¶
æĪ ĺ
æľī ä»Ģä¹Ī
æĶ¹ åıĺ
èģ Ĭ
ç² ¾
ç´ ¢
åĪĨ æŀĲ
ä¸ ī
ä¸ ĸ
éĩ Į
Ġ -
èĩª èº«
ä¾ Ŀ
ç® ¡
ä» į
åºĶ çĶ¨
Ġ l
Ġ e
æľ į
åı ª
å·® å¼Ĥ
åħ³ ç³»
åĸľ æ¬¢
é Ľ
æī ¾
ä¸ĸ çķĮ
ç» ª
æĮ ĳ
å® Į
è ¨
è§ ģ
æĦŁ è§ī
æİ¨ åĬ¨
en t
æ¡ Ĩ
ç ģ
è¨ Ģ
Ġ 2
è® °
è· ¯
æĮĳ æĪĺ
çļĦ äºĭ
å° Ŀ
è ±
åģ ı
èĭ ¥
åĵ ²
æ¡Ĩ æŀ¶
åħ Ī
è į
Ġ $
Ġ re
é¢ Ĩ
æĥħ ç»ª
äººå·¥æĻºèĥ½ ä¼¦çĲĨ
åĵ² åŃ¦
ä»» åĬ¡
é ¥
Ġ y
è§ Ĵ
å½ ¢
è¯ Ŀ
å¸ ¦
æ¬ ¡
å¯¼ èĩ´
å°Ŀ è¯ķ
çĶŁ æĪĲ
çĿ Ģ
çĶµ å½±
Ġ A
å¦Ĥä½ķ å½±åĵį
é£ İ
é¢Ĩ åŁŁ
æ Ĥ
åı ĸ
äº «
æĢİä¹Ī æł·
ä¸ĵ æ³¨
åĲ ĥ
å·¥ åħ·
Ġ C
åĽł æŃ¤
ä¿Ŀ æĬ¤
éĢ Ł
åĽ ŀ
æĹ ¥
åħ³éĶ® åľ¨äºİ
æ »
åİ Ł
æł ¹
å¢ ŀ
o m
# #
çİ° å®ŀ
åĪĽ æĸ°
åı ĭ
ç ĭ
æİ¢ ç´¢
å¾ ħ
è Ĥ
éĶ Ļ
è¾ ĳ
Ġ +
èī ²
s t
ä¿ ĥ
ä¸Ģ äºĽ
å»º è®®
è·¨ æĸĩåĮĸ
çŁ¥ è¯Ĩ
Ġt h
åħ ´
ç§ĳ åŃ¦
e t
æĥ³ è¿ĩ
æľ¬ è´¨
è± ¡
éľĢ æ±Ĥ
è¯Ń è¨Ģ
è¯ »
i m
Ġ h
æĿ ¡
å Ļ
æĻ ¯
è® º
æ¨¡ åŀĭ
è°ĥ æķ´
æĦŁ çŁ¥
é Ĵ
æĶ ¯
éĢ »
éĢ» è¾ĳ
è¾ ħ
é Ł
è¡¨ è¾¾
ç ĸ
äººç±» çļĦ
å¤ Ł
å®ī åħ¨
ä¸ª ä½ĵ
éĩıåŃĲ è®¡ç®Ĺ
ä¹ĭ éĹ´
åĵ ª
åĩ ı
åı Ĥ
æľ ĭ
ð Ł
çĽ ´
èµ ĸ
ç ¥
å° ±
åĪ ¤
æľĭ åıĭ
èµ Ħ
ä¹ ¦
æĶ ¾
åĪĽéĢł åĬĽ
ç ¢
åĻ ¨
è¿Ļ äºĽ
å¿ Ļ
ä¾Ŀ èµĸ
ä½ľä¸º AI
è¯ ´
åħ´ è¶£
éĩį è¦ģ
éģ ĵ
é ¦
éĢ ı
è¾ħ åĬ©
e l
éĹ ¨
u m
åİ Ĩ
è¿ĩ å¾Ĺ
ç³» ç»Ł
Ġy ou
ç§ĳ æĬĢ
æłĩ åĩĨ
åģ ¥
åį ķ
èį Ĳ
æİ¨ èįĲ
å± Ĥ
çĽ® æłĩ
æ¯ı å¤©
åĨ µ
éŁ ³
æľį åĬ¡
æ·± åº¦
åĪ »
å¤ ĩ
åľ º
è¿ Ĳ
é¡ ¹
æľº åĪ¶
çĶ ±
èĥ½ å¤Ł
æł¹ æį®
æĭ Ł
e c
æ ļ
æĸ¹ éĿ¢
å ¡
åĨħ å®¹
èĮ ĥ
éĢı æĺİ
é¢ Ħ
ä¹ Ĳ
ç¾ İ
æ ħ
åĮ º
æ° ´
å ĥ
ä¸»è§Ĥ ä½ĵéªĮ
æĮ º
å¯ Ĩ
i l
åħ¬ å¹³
çİ¯ å¢ĥ
o w
è ĥ
ç¬ ¬
i d
æĶ¯ æĮģ
Ġ u
çľŁ å®ŀ
Ĩ Ĵ
æĢĿ èĢĥ
éģĩåĪ° è¿ĩ
è¿Ľ è¡Į
åĥ ı
ç»ĵ åĲĪ
éļ ¾
ç¬ ¦
i g
çľĭ å¾ħ
åº ·
æ¯Ķ å¦Ĥ
åħ ī
è´ £
èģ Ķ
çĭ ¬
å¸¦ æĿ¥
æ¸ ħ
è Ħ
é ħ
t h
æł ¸
éļ ı
çŃ Ķ
åģ¥ åº·
åĩı å°ĳ
èĩª çĦ¶
è®¾ è®¡
é Ĥ
Ġ g
æĢ§ ä¸İ
at ion
æ¡ Ī
` `
æĽ ¿
æĥħ åĨµ
åģı è§ģ
åħ· ä½ĵ
ç» Ī
er s
ä½ł æľī
è¿ĩ ç¨ĭ
å¡ ĳ
èµ °
è§ī å¾Ĺ
0 0
ä¸į éĶĻ
æĢĿ ç»´
é ¸
Ġ 3
ç® Ģ
o l
çł Ķ
ï ½
ï½ ŀ
äºĴ åĬ¨
åĲĪ ä½ľ
ç®¡ çĲĨ
å¤ļ æł·
æµ ĭ
åıĳ çİ°
å¼ķ åıĳ
i v
ç ĥ
æķ Ļ
ç¥ ŀ
åĪ¤ æĸŃ
æ¶ ī
u t
è® ¨
åŁº äºİ
Ġ T
ä¿ĥ è¿Ľ
æ² Ł
ç© º
æĢ »
è¶ Ĭ
ä»·åĢ¼ è§Ĥ
çľŁ æŃ£
éĻ ©
ç» ĥ
å¹ ´
æī¾ åĪ°
Ġ I
Ġf or
æ¶ī åıĬ
å¿ĥ æĥħ
åħ »
ä½łå¦Ĥä½ķ çľĭå¾ħ
åı £
i f
å §
åĽ °
æ¸ ©
çī ĩ
çģ µ
åĬ¨ æĢģ
ä»Ĭå¤© å¤©æ°Ķ
åĽ ¾
äººå·¥æĻºèĥ½ä¼¦çĲĨ åľ¨
ä¼ł ç»Ł
è½ ¬
a m
çļĦ è¾¹çķĮ
æ ®
æĤ ¨
ç ¦
åıĺ åĮĸ
æł¸ å¿ĥ
Ġ B
ç²¾ åĩĨ
æĿ¡ ä»¶
ç Ĭ
ä½ĵ çİ°
è ¥
è¥ ¿
æľīè¶£ çļĦ
é¥ ®
éĽ Ĩ
åİ ĭ
è¿ĩ åº¦
æ» ¡
ä»ĸ äºº
åħ³ æ³¨
ä¸ ¤
ç© ¶
æĽ¿ ä»£
ä½ł æľĢè¿ĳ
åĲ ¬
åĢ Ĵ
è İ
åĪ Ĵ
å¤ ±
åħ ħ
ç½ ĳ
æ´» åĬ¨
ä½ į
è¶ ħ
u l
è¶ ³
å¢ĥ ä¸ĭ
èĩªå·± çļĦ
ç§ ¯
c e
ä»¥ ä¸ĭ
æĹ ¢
è® ¸
èµ ĭ
ä½ł çļĦ
è¿ ½
çłĶ ç©¶
å¢ŀ å¼º
åı Ī
çº ¿
l y
æĪĳçļĦ åŃĺåľ¨
ä» ħ
ä¸ Ķ
åĩĨ ç¡®
éħ į
åĳ ³
æĸ° çļĦ
è ŀ
èĥ Į
æİ §
çļĦäºĭ æĥħ
u r
èĻ ĳ
äººå·¥æĻºèĥ½ä¼¦çĲĨåľ¨ è·¨æĸĩåĮĸ
ä¸į è¿ĩ
èŀ į
å¯ Ł
ðŁ ĺ
åħ ĥ
åĨ ²
è® Ń
æ® µ
éĤ £
æĪ ¿
a b
æĪĲ ä¸º
èīºæľ¯ åĪĽä½ľ
æĥ ¯
å§ ĭ
èİ ·
å¾ Ģ
æĸ¹ æ³ķ
å¾ Ħ
ç¤¾ äº¤
ç¬¦ åĲĪ
ä¹ł æĥ¯
æİ Ĵ
åĪĨ äº«
å¿« éĢŁ
åĳ ½
åĢĴ æµģ
åĲ Ħ
Ġs t
å¿ĥ çĲĨ
q u
å± ŀ
å¿ µ
æĦıè¯Ĩ çļĦ
çĬ ¶
ä½łæľīæ²¡æľī æĥ³è¿ĩ
æ ¼
è´£ ä»»
æĭ ¬
è¯ ģ
åĪ© çĶ¨
at e
æ¨¡ å¼ı
éĴ Ł
è§Ħ èĮĥ
æ³¨ æĦı
æīĭ æľº
å¤ļæł· æĢ§
å¥ ı
æīĢ æľī
ä¼ĺ åħĪ
ä¸į æĸŃ
åħ± åĲĮ
çł ģ
éĢĤ åĲĪ
Ġ it
æĸ¹ åĲĳ
åıį æĢĿ
åĽ½ å®¶
è¡Į ä¸º
Ġo r
æī ¿
æ²Ł éĢļ
æĺ¯ ä¸Ģä¸ª
æĪĲ éķ¿
in d
åĮħ æĭ¬
Ġ v
çł ´
åī §
æĽ´ å¤ļ
s e
äº Į
è·¯ å¾Ħ
é¡¹ çĽ®
èµĦ æºĲ
Ġc an
åķ ¡
Ġth at
é¥® é£Ł
ä»¥ åıĬ
ç´ ł
ç Ī
æ·± åĪ»
æºĲ äºİ
ä¸į ä¼ļ
å® ¢
æĦŁ åıĹ
c t
è¿Ľ æŃ¥
å¸ Ĥ
Ġp ro
çļĦ ä¿¡æģ¯
åĴ ĸ
èĬĤ å¥ı
èĤ ²
ä½ł æĺ¯åĲ¦
Ġ "
åĴĸ åķ¡
æŁ Ĳ
æľº åĻ¨
çļĦ åĲĹ
å· ²
è¯Ń å¢ĥä¸ĭ
o t
åĴĮ æľĭåıĭ
æŀ ģ
äº¤ æµģ
éĥ¨ åĪĨ
é£İ éĻ©
æł ¼
æ³ķ å¾ĭ
æ £
å¯ »
æľī åĬ©
å½¢ æĪĲ
å½ ķ
æľīåĬ© äºİ
åĬ Ł
åİĭ åĬĽ
æĬĢ èĥ½
ç¤ º
æĹ ©
æĹ ħ
çĽ Ĭ
åĨ² çªģ
ä¸į æĺ¯
è®Ń ç»ĥ
åįı ä½ľ
Ġ (
g e
çĽ ĳ
çļĦ çĶµå½±
æľīä»Ģä¹Ī æĥ³
äººå·¥æĻºèĥ½ä¼¦çĲĨåľ¨è·¨æĸĩåĮĸ è¯Ńå¢ĥä¸ĭ
æĺİ ç¡®
ä¼ ¼
ç¼ ĸ
è®© ä½ł
éĺ ³
çļĦ æĺ¯
å £
æŁ ¥
çº §
å® ¡
Ġ 5
æĮ ĩ
äº ī
Ġa s
è¿ ŀ
è¿ĩå¾Ĺ æĢİä¹Īæł·
æķĻ èĤ²
æŀĦ å»º
åıĤ ä¸İ
ä¸» è¦ģ
è Ĳ
å¼Ģ å¿ĥ
ç®Ĺæ³ķ åģıè§ģ
Ġc on
æħ ¢
éĢĤ åºĶ
åº ı
è ı
i r
éĩ Ĭ
é »
å° Ĭ
è§£åĨ³ éĹ®é¢ĺ
è¿Ļ ä¸ª
è®¾ å®ļ
ä¸ ľ
è¯Ĩ åĪ«
åĪĨ éĴŁ
åĽł ä¸º
ðŁĺ Ĭ
ä¸İ ä¼¦çĲĨ
ä¸Ģ ç§į
æĿ ¾
Ġ on
æĹ¥ å¸¸
éģĩåĪ° ä»Ģä¹Ī
çľŁ çļĦ
åĢ Ļ
åĪ¶ å®ļ
å¼º è°ĥ
èĻ ļ
åĳ ĺ
çĶ »
åį ³
âĢ Ķ
è®¤ ä¸º
â ĨĴ
ç» Ħ
è¯ Ħ
åĽ½ éĻħ
ä»Ĭå¤© æĥ³
çļĦ éĹ®é¢ĺ
è¿ĩ åİ»
èĦ ĳ
æ¶ Ī
ä¸İ æĸĩåĮĸ
ä¹ĭéĹ´ çļĦ
åı ²
it h
è¯ ¥
è Ī
çĦ ¦
å°Ĭ éĩį
æıĲ é«ĺ
æĽ´ å¥½
éķ¿ æľŁ
æķ £
æĪĸ èĢħ
Ġm o
å¿ Ĩ
ä½ İ
æĬĢæľ¯ åıĳå±ķ
çľĭ è¿ĩ
ï¼ī ï¼Į
æĻ ®
ä¸įåĲĮ æĸĩåĮĸ
å¿ ħ
es t
è¯ ¯
a d
éĺ ħ
èı ľ
åħ¨çĲĥ æķ°åŃĹ
åĮ »
éľĢ éĢļè¿ĩ
Ġb e
æĹħ è¡Į
æİ¨ çĲĨ
è§Ħ å¾ĭ
1 0
äº Ī
æ¨¡ æĭŁ
æĶ ¶
ç¼ º
çļĦ ä¼¦çĲĨ
ç¡® å®ŀ
å Ĥ
Ġ S
èĥĮ æĻ¯
ç»ĵ æŀĦ
æľĢè¿ĳæľīæ²¡æľī äºº
æĺ ¾
' s
ä½łä»Ĭå¤© è¿ĩå¾ĹæĢİä¹Īæł·
åı ¤
ä¸į ä»ħ
## #
äººç±» æĥħæĦŁ
åŁ ¹
å®ŀ éĻħ
æľ Ľ
å¦Ĥä½ķ å¹³è¡¡
è®© æĪĳ
æĪĳ æ²¡æľī
ä¸ī ä¸ª
Ġ 4
å¯¹ è¯Ŀ
ç¥ŀ ç»ı
äººå·¥æĻºèĥ½ åľ¨
ä¾ ¿
çĬ¶ æĢģ
a v
æĪ¿ éĹ´
is t
AI åľ¨
ä½ľ åĵģ
éĢ Ĳ
Ġw h
çĽ´ æİ¥
è®© äºº
éĺħ è¯»
éŁ³ ä¹Ĳ
v er
éĩį æĸ°
åħ¬å¹³ æĢ§
çĽ¸ åħ³
é ©
åĲĪ çĲĨ
u n
éģ Ĺ
ç½ ®
å¦Ĥä½ķ åľ¨
ä» ½
æ Ĵ
æĪĳ ä¼ļ
èĩªæĪĳ è®¤çŁ¥
æİ¢ è®¨
åĿ ļ
æ¼ Ķ
ç»ı åİĨ
æ ¦Ĥ
ç»´ åº¦
Ġw ith
æķ ħ
æ¸ħ æĻ
Ġc om
a y
åºĶ å¯¹
è´¨ éĩı
å®Į åħ¨
èµĭ äºĪ
çŁ Ń
è®° å¿Ĩ
æļ ĸ
çļĦ æĥħåĨµ
æķĪçİĩ ä¸İ
ig h
æ²»çĲĨ çļĦ
ç¡ Ģ
åŁº ç¡Ģ
æľĢ ç»Ī
Ġ r
è§£ çŃĶ
å± Ģ
ä¸º äºĨ
ä»İ èĢĮ
çļĦ çĲĨè§£
æĺ ĵ
ç» Ĩ
ä¼ł æī¿
å¾Ī å¤ļ
æĶ ¿
¤ Ĳ
é ¤Ĳ
e m
åĬŁ èĥ½
æĸ Ļ
åİĨ åı²
çªģ çł´
i b
çĪ ±
r ac
éļ ľ
a in
ä¼ļ ä¸įä¼ļ
åĲĥ äºĨ
æ ¢
ç¡® å®ļ
æ»¡ è¶³
æµ ·
è¿½ æ±Ĥ
ä»ĸ ä»¬
æĽ´å¥½ åľ°
Ġ\ (
t er
p p
éĩ ĳ
æŃ¤ å¤ĸ
å¹ ²
çĸ Ĺ
å¤ ª
è¿Ĳ åĬ¨
çĦ¶ èĢĮ
å®ļ ä¹ī
`` `
è§Ĩ è§Ĵ
æ ¿
èĩª çĶ±
ç Į
åŃ¦ä¹ł åĴĮ
å¹ ¿
ä½ł ä¼ļ
æĪĳçļĦåŃĺåľ¨ æĺ¯
äºº ä»¬
æī ĵ
åħ³ äºİ
åĨ Ļ
ä¸Ģ æ¬¡
ä¿ ®
è®° å½ķ
å¼ ±
ä¼ Ĺ
æ¸ħæĻ °
æĢ§ çļĦ
ç» Ļ
èĩª ä¸»
éĩ ĩ
çķ ¥
åħ¶ ä»ĸ
æĹ¶ åĢĻ
è½ »
çĥ Ń
æľī æķĪ
ç®Ģ åįķ
åĨ į
an d
å®Į æĪĲ
åģ ĩ
Ġ he
çº ł
çķĮ éĻĲ
æ¿ Ģ
Ġa re
æĭ ĵ
Ġe x
æīĢ ä»¥
æĪĳ åı¯ä»¥
ç Ļ
èĻļ æĭŁ
å±Ĥ éĿ¢
è§£ éĩĬ
æĺ Ł
äºī è®®
èĩªèº« åŃĺåľ¨çļĦ
äº§ çĶŁ
éĺ Ł
æĺ¯ çļĦ
Ġ âĨĴ
å½ Ĵ
æĬĢæľ¯ çļĦ
èĻ ½
æĦŁ åĪ°
æĹ¶éĹ´ çļĦ
åı¯ æĮģç»Ń
è¾ ĵ
å¡ĳ éĢł
å¼Ģ åıĳ
ç» ľ
èĩ ³
ç¦ »
åıª èĥ½
çĭ¬ çī¹
æľī çĤ¹
æ¯ı ä¸ª
åĪ Ĺ
çĶŁ åĳ½
um b
åı °
æĢ§ åĴĮ
åŁ¹ åħ»
å¾ ·
å¾ ®
è¿ °
$ $
éĺ ²
åĬ ¿
çī© çĲĨ
ä¹ ı
c h
ç½ĳ ç»ľ
ä¸İ äºº
æĽ´ åĬł
è¡Į åĬ¨
æ³¨ éĩį
çªģ çĦ¶
æī °
åĪĽ æĦı
y th
éĿ Ļ
æ¦Ĥ å¿µ
è´ Ł
ç±» åŀĭ
e x
ç»ı éªĮ
éĻ į
å°Ŀè¯ķ è¿ĩ
é¸ £
ä½Ĩ éľĢ
AI çļĦ
åİŁ åĪĽ
ç¼º ä¹ı
ĠT he
æĿ Ĳ
å®ĥ ä»¬
è§Ĵ åº¦
è¿Ļ æł·
ä¸ĵæ³¨ äºİ
igh t
çļĦ äºº
é ĵ
äºĨ è§£
çĶŁ çī©
è¯ķ è¯ķ
èŀį åĲĪ
éĢļ å¸¸
æĶ¾ æĿ¾
å¼Ģ å§ĭ
æĦŁè§ī çī¹åĪ«
åĩ ł
çº ¦
æķħ äºĭ
u re
ä¸» åĬ¨
æ ½
ç±» ä¼¼
âĢĿ ï¼Į
ä¸ ´
ãĢĭ ï¼Į
éļı æĹ¶
éĿ¢ å¯¹
å¥ ĩ
ç¾ ¤
åľº æĻ¯
å ª
åı¯èĥ½ ä¼ļ
æī į
åĨħ åľ¨
åĲ «
ç»ĵ æŀľ
è´ ¹
å½ĵ åīį
æĸ¹ æ¡Ī
åħ± é¸£
æ Ĳ
o d
yth on
çļĦ æĸ¹å¼ı
ä¼ ĳ
èģ Į
Ġ H
å£ °
æ¡ ¥
çģµ æ´»
T he
é ĨĴ
æľīä»Ģä¹Īæĥ³ èģĬ
æ¸ ¸
æŃ §
Ġ P
å¦Ĥæŀľ æĹ¶éĹ´
åĮħ å®¹
Ġa l
ç´ ¯
æķ£ æŃ¥
ä¸ľ è¥¿
es s
åı¯èĥ½ å¼ķåıĳ
åŁ İ
æĦ ¿
åįı åĲĮ
æĿ ĳ
é¦ ĸ
åŃ¦ä¹ł æĸ°
è Ľ
åĽ ¢
æĮº æľī
éľĢ åľ¨
çľŁæŃ£ çļĦ
èİ· åıĸ
è§ī å¯Ł
åķ Ĩ
Ġ `
æĢ§ åĮĸ
éĩį å¡ĳ
è¿Ļ ä¸Ģ
èĩª åĬ¨
éģĵ å¾·
çļĦ å½±åĵį
Ġb y
åı ·
è§Ħ åĪĴ
æ ĳ
æ ĵ
é¡ ¾
o g
ç ħ
è ĳ
ä¼ °
åĿļ æĮģ
å°ı æĹ¶
ä¸į è¦ģ
l d
è®¤ åĲĮ
id e
éĢıæĺİ åº¦
èĲ ¥
åĬł åī§
åģ ľ
è¿ŀ æİ¥
ä»Ģä¹Ī å¥½
æľīä»Ģä¹Īæĥ³èģĬ çļĦåĲĹ
ä¼ĺåħĪ çº§
çİ° è±¡
ä½ĵçİ° åľ¨
æĭĵ å±ķ
èĽ ĭ
èº« ä»½
æķ°æį® éļĲç§ģ
Ġ x
çĽ® åīį
æİ§ åĪ¶
n d
ç ı
äº ĳ
æľĢè¿ĳåľ¨ å¿Ļ
ĠĠ ĠĠ
åĮ» çĸĹ
it y
åħ± äº«
åĨ³ å®ļ
u s
ä¸İ äººç±»
å® ĩ
å¦Ĥæŀľ æ¯ıå¤©
å¥½ çļĦ
åĸ Ħ
çļĦ èĥ½åĬĽ
ĊĠĠ Ġ
ï¼ī ãĢĤ
å¸®åĬ© çĶ¨æĪ·
å® Ļ
å®ĩ å®Ļ
åĴĮæľĭåıĭ ä¸Ģèµ·
ä½łå¦Ĥä½ķçľĭå¾ħ èĩªæĪĳæĦıè¯Ĩ
è £
å¦Ĥæŀľ èĥ½
æĽ´ é«ĺæķĪ
åĲ ¸
Ġs p
åĨħ å¿ĥ
èĢĥ èĻĳ
çĦ¦ èĻĳ
Ġs u
å¸ Į
å¤ļ ä¸ª
é¢Ħ æµĭ
è¯Ħ ä¼°
æ½ ľ
åĳ ¨
è®¾ å¤ĩ
m ent
i es
åĳ Ĭ
çļĦ æķ°åŃĹ
çľĭ åĪ°
ç¦ ı
åħ· æľī
ä½ł è®¤ä¸º
æľĢè¿ĳ æľī
o p
ä¼¦çĲĨ æ¡Ĩæŀ¶
éģ¿åħį è¿ĩåº¦
è§ ¦
åĲ į
æĪĲ å°±
åįı åĬ©
å®ļ æľŁ
äºº éĻħ
an t
ç»Ł ä¸Ģ
éĻĲ åĪ¶
ä¸¤ èĢħ
äº¤ äºĴ
åĴĮ æķ°æį®
çī¹ å®ļ
åī Ĭ
ex t
å®¢ è§Ĥ
éĿ¢ ä¸´
} {
è½ ½
å¾ ª
æĬĢæľ¯ åºĶçĶ¨
ç» ĩ
è¿ ľ
æıĲä¾Ľ å¸®åĬ©
æĪĳçļĦåŃĺåľ¨æĺ¯ ä¸ºäºĨ
çķĮ å®ļ
ã ģ
ä½ľä¸ºAI æ¨¡åŀĭ
åīĬ å¼±
å¯ Į
å· ´
p l
AI çĶŁæĪĲ
æµģ åĬ¨
å·² çŁ¥
ä½Ĩ åı¯ä»¥
ç® ±
f or
æį ¢
é¢ ĳ
åĿ Ĺ
ç± į
f rac
åıĤ æķ°
ä¸Ģ æł·
å¤§ èĦĳ
æĶ¿ çŃĸ
çĶŁæ´» ä¸Ń
ä¼ ģ
å ²
ä¸ĸçķĮ çļĦ
å° ½
çŃĸ çķ¥
çĽ® çļĦ
ä½łå¦Ĥä½ķ çĲĨè§£
è®¨ è®º
2 0
èĳ Ĺ
åĿ ĩ
éģĹ äº§
çī Ī
è¿ĺ æĺ¯
ä¼ĳ æģ¯
åıĺ å¾Ĺ
çĽĳ ç®¡
Ġw e
ro m
ä¼ģ ä¸ļ
æ¸© æļĸ
åı¯èĥ½ å¯¼èĩ´
åı¯ éĢļè¿ĩ
å½Ĵ å±ŀ
Ġu s
æĦıä¹ī åľ¨äºİ
åĢ ¾
åĬ¨ çī©
é» ĺ
Ġd e
èĢĮ æĺ¯
Ġn e
ä»·åĢ¼ çļĦ
he r
i al
k e
éĺ³ åħī
éĽ ¨
æĸ ½
å° ļ
ç¼ĸ ç¨ĭ
æľºåĻ¨ äºº
çĿ ¡
äººç±» åĪĽéĢłåĬĽ
éĤ£ ä¹Ī
ä¸Ģ ä»¶
èģĶ ç³»
åĸľæ¬¢ çļĦ
ä½ĵ ç³»
æł ĳ
æĺ ł
æĪĸ è®¸
åĪĽä½ľ èĢħ
M ind
è· µ
éĢ Ĵ
è¯ ·
ç Ĺ
a ge
M in
Ġn umb
è Ĺ
åħ ¼
æ° ĳ
å¹³ åı°
çĽ¸ äºĴ
ç¼ ł
åĸ Ŀ
å½ĵ ä¸ĭ
éĢĲ æŃ¥
èģĬ èģĬ
å¼º åĮĸ
Ġ 6
ä¸Ĭ çļĦ
è¦ģ ä¸įè¦ģ
Ġ E
åĬ ±
æķ°æį® åĴĮ
ĠĠ Ċ
ä¸ª æĢ§åĮĸ
Ġ D
Min i
å½¢ å¼ı
è¿ ·
Mini Mind
å®ŀ è·µ
åĩº åı£
ç§¯ æŀģ
ä½łæľīæ²¡æľī éģĩåĪ°è¿ĩ
å» ¶
äºĨ ä¸Ģ
åŃ¦ ç§ĳ
ä¿¡ ä»»
å Ķ
éĺ ¿
é¦ Ī
æ£ Ģ
n t
å¸Į æľĽ
æĺ¯åĲ¦ èĥ½
çŁ ³
ä¸įåĲĮ çļĦ
æıĲåįĩ æķĪçİĩ
ä½łä»Ĭå¤© æľīæ²¡æľī
Ġ le
çķ Ļ
ç´ §
if ic
åĪ© çĽĬ
éļĲç§ģ ä¿ĿæĬ¤
åķ Ĭ
èĻ½ çĦ¶
ä»Ĭå¤©å¤©æ°Ķ çľŁ
å¹¶ éĿŀ
iv e
or t
æĦı æĢĿ
çļĦ å°ı
åĤ ¨
æĪĳ æĹłæ³ķ
ä½łå¦Ĥä½ķçľĭå¾ħ èĩªèº«åŃĺåľ¨çļĦ
éļ¾ ä»¥
åĬ ª
äººç±» å¯¹
åĬª åĬĽ
é¦ĸ åħĪ
åĪĨ åĪ«
ä¸İ æĥħæĦŁ
èº« ä½ĵ
ä¸į åı¯
ar t
åħ· å¤ĩ
æĬĢæľ¯ è¿ĽæŃ¥
çļĦ å¹³è¡¡
çºł ç¼ł
ä¿ĥ ä½¿
éļı çĿĢ
åħ± è¯Ĩ
æĺ¯ ä»Ģä¹Ī
ä¸Ģ æĸ¹éĿ¢
çŃĶ æ¡Ī
å¸Ĥ åľº
çļĦ å¤įæĿĤ
çĲĨ è®º
æ·± å±Ĥ
æŃ ¢
æĬ ķ
ec t
åı ¦
re s
çĻ ½
åª Ĵ
åıį é¦Ī
åĽ¢ éĺŁ
è¥¿ æĸ¹
Ġ en
ä¿Ŀ éļľ
èĹ ı
å¸ Ī
ä¸İ ç¤¾ä¼ļ
æĪĳä»¬ å¯¹
ä¸Ģ å¤©
åİŁåĪĽ æĢ§
æĿ ¯
åĪ ĩ
åħ¬ ä¼Ĺ
åĽ ´
è§Ħ åĪĻ
ç¾¤ ä½ĵ
ä½ł åĳ¢
äº§ åĵģ
æĽ ¾
ç¨ ³
åĪĨ éħį
ä¸Ģ æŃ¥
æĸĩåĮĸ ä¼łæī¿
è®¡ åĪĴ
å¯» æ±Ĥ
in t
æľĢè¿ĳ çľĭ
çĶ¨ äºİ
ç¢ İ
ä¸ĵæ³¨ åĬĽ
i p
å¿ĥçĲĨ åŃ¦
a p
è¯ ī
ä¸Ģ ä¸ĭ
çİ ©
å®ŀ æĹ¶
ä¸» ä½ĵ
æĦŁ åħ´è¶£
åĬł å¯Ĩ
å¹ ¸
ä½Ĩ åħ¶
éĢļè¿ĩ ç®Ĺæ³ķ
å¯» æī¾
å±Ģ éĻĲ
è® ²
æļ Ĥ
æīį èĥ½
èĬ ±
ä½ľ çĶ¨
åħ¨çĲĥæķ°åŃĹ æ²»çĲĨçļĦ
æĵ į
æķ ı
Ġt r
æĪĲå°± æĦŁ
h is
** ï¼Į
äººå·¥æĻºèĥ½ä¼¦çĲĨåľ¨è·¨æĸĩåĮĸè¯Ńå¢ĥä¸ĭ çļĦ
å¿ĥæĥħ æĢİä¹Īæł·
Ġcom p
åĵ ¦
åĽ° å¢ĥ
è½¬ åĮĸ
æľ¬ èº«
\ )
ä¸į èĥ½
Ġf rom
åį °
ä¸» å¯¼
âĢĶ âĢĶ
çĽ ¾
åģĩ è®¾
è¡¨ çİ°
çģµ æĦŁ
en ce
çĶŁæ´» çļĦ
for m
çŁ Ľ
Ġ M
çŁĽ çĽ¾
æĺ¾ èĳĹ
çħ §
åį ´
åı ¸
è· Ŀ
æ ¤
è¦ģä¸įè¦ģ ä¸Ģèµ·
å¯Ĩ çłģ
éĢ»è¾ĳ æİ¨çĲĨ
ç ŀ
èĮ ¶
ç¼ ĵ
æ³ Ľ
o c
åŁİ å¸Ĥ
o s
å¢ŀ åĬł
åĲ ¯
æ´ ŀ
åİŁ åĪĻ
åĵª äºĽ
i z
ic h
çİ¯ ä¿Ŀ
ä»į éľĢ
åıĸ ä»£
çĭ¬ ç«ĭ
æŃ£ ç¡®
å®ī æİĴ
æĸĩåĮĸ éģĹäº§
å¦Ĥæŀľ ä½łæľī
é¢ ľ
è·¨ åŃ¦ç§ĳ
Ġc h
åŃĺåľ¨çļĦ è¾¹çķĮ
æİ¥ åıĹ
u e
å¤ĦçĲĨ ä¿¡æģ¯
åĽ Ń
ä¸» æĿĥ
æĢ Ģ
ç§ »
Ġ >
å¹ »
ç© ¿
åħ¨çĲĥ æ²»çĲĨ
u d
èĢ ģ
åħ³ èģĶ
æĭ ħ
ç» ¿
çīĪ æĿĥ
Ġin t
åĽł ç´ł
ç©º éĹ´
éľĢ å¹³è¡¡
ä¿® å¤į
åĵª ç§į
é¡ »
Ġ 7
éĺ¿ éĩĮ
èĩªæĪĳæĦıè¯Ĩ æĺ¯
ç± ³
çļĦ åħ³ç³»
æĴ Ń
ä½Ĩ ä¹Ł
å¤ ´
Ġs e
ä¸ĵ ä¸ļ
é¥ Ń
ct ion
ç¨³ å®ļ
åĩº åİ»
äºº çļĦ
è§Ĵ èī²
æľĢ æĥ³
å¦Ĥæŀľæ¯ıå¤© åıª
å¿ħ é¡»
æľįåĬ¡ äºİ
ä¸İ ä»ĸäºº
èµ° èµ°
ä¼ł éĢĴ
èģ Ĭå¤©
åħ ģ
åħģ è®¸
å ĺ
å¼Ģ æĶ¾
é¢ľ èī²
éĻ ¤
é ¼
en d
¥ æĥ³
çŀ ¬
èĢĮéĿŀ æĽ¿ä»£
il l
ä¸º çĶ¨æĪ·
å¸ ģ
ä¸Ń ä¿ĿæĮģ
ä¸»è¦ģ ä½ĵçİ°åľ¨
av e
éĩį æŀĦ
ä½łä»Ĭå¤© åĲĥäºĨ
è ĵ
AI ä¼¦çĲĨ
æ´ ģ
é¢ĺ çĽ®
Ġw or
å¾Ģ å¾Ģ
èµĭ èĥ½
éªĮ è¯ģ
çĶµ åŃĲ
å¾ ģ
æĺ¯åĲ¦ ä¼ļ
é¢ĨåŁŁ çļĦ
ä»» ä½ķ
çº ¢
éĩĩ çĶ¨
Ġm e
1 5
ä½ľä¸º MiniMind
æĿ¥ æºĲ
åĽ º
è¾ ĥ
Ġ W
æľĢè¿ĳåľ¨å¿Ļ ä»Ģä¹Ī
ç§¯ ç´¯
ç¢İ çīĩ
ä»İ A
ä»Ĭå¤©å¤©æ°ĶçľŁ å¥½
åº §
åįı è°ĥ
éģĩåĪ°ä»Ģä¹Ī è®©ä½ł
Ġ1 0
åŃĺ åĤ¨
å° ¤
åħ ¸
ä¸İ æĬĢæľ¯
å¤ļ åħĥ
ul t
åŃ¦ ä¼ļ
è¿ İ
æĶ¹åıĺ è¿ĩåİ»
äººç±» åľ¨
çĮ «
åĨ ¥æĥ³
åģ ¶
å¾Īå¤ļ äºº
ä¸» ä¹ī
ab le
åģļ åĩº
èĪ Ĵ
è¯ Ĺ
åĳ ¼
an g
åĽŀ åĪ°
åĮº åĪĨ
åĴĮ ä½ł
Ġp r
åĽ¾ åĥı
è§Ĥ å¯Ł
ou d
åĪĨ æŃ§
am e
Ġ F
ä»Ĭå¤© è¿ĩå¾Ĺ
åıĺ æĪĲ
æī §
é¡ º
Ġ 0
äºº çĶŁ
æĭ ¥
æ¢ ¦
è£ ħ
æľīè¶£ çļĦäºĭæĥħ
æĹ© é¤Ĳ
ä½ ı
çļĦ æ·±åº¦
å¦Ĥæŀľ ä½ł
çľ ł
èī ¯
æ¬ §
in e
è° ľ
åģļ ä¸Ģä»¶
æŁĲ äºĽ
æıĲä¾Ľ ä¿¡æģ¯
éĴ ¥
äºĮ èĢħ
æĬ ¥
ç¬ ĳ
æĪĳä»¬ çļĦ
Ġ 8
å¸®åĬ© ä½ł
éģĩåĪ°è¿ĩ éľĢè¦ģ
å¤§ çļĦ
éĩį å¤į
éľĢ å»ºç«ĭ
l oud
åı¯èĥ½ æĢ§
ä½łæľĢè¿ĳæľīæ²¡æľī å°Ŀè¯ķè¿ĩ
æĸĩåĮĸ å¤ļæł·æĢ§
çļĦ ä¹¦
åħ¬ éĩĮ
é© ±
èģĮ ä¸ļ
è¿ĺ èĥ½
ac t
æĿ¥ çľĭ
å¤ ľ
å¥ ¥
Ġpro v
æĿ Ł
åªĴ ä½ĵ
éª ¤
å§ĭ ç»Ī
çİ° åľ¨
æĦŁè§ī å¾Ī
ä¸İäºº æĸĩ
Ġ k
Ġwh ich
å¼ķ å¯¼
çļĦ æł¸å¿ĥ
è½¬åĮĸ ä¸º
æħ §
\ [
æĻº æħ§
å¿ĥ æĢģ
æĬ Ĭ
èģ ļ
æĹ¶éĹ´ ç®¡çĲĨ
ou t
æı ı
ç»Ĩ èĬĤ
ä¸İ çİ°å®ŀ
åĩº åıĳ
åħ¼ é¡¾
ä¸ªä½ĵ çļĦ
é£Ł çī©
åı¯ä»¥ éĢļè¿ĩ
æĹ¶ ä»£
å¤ļ ç»´åº¦
æĥ ł
å¹¿ æ³Ľ
ä»£ çłģ
ä½łæĺ¯åĲ¦ æĥ³è¿ĩ
èĵ Ŀ
éĩıåŃĲè®¡ç®Ĺ ä¸İ
åĬ© æīĭ
èĲ¥ åħ»
è¿ĺ ä¸įéĶĻ
æ·± åħ¥
p er
æĬĢæľ¯ åĪĽæĸ°
æŃ¥ éª¤
åĳĬ è¯ī
æľĢ åĸľæ¬¢
å¿ Ĺ
Ġ qu
ac h
éĢļè¿ĩ é«ĺæķĪ
éĻį ä½İ
ç»´ æĮģ
æĪ ı
æĦı å¤ĸ
on g
çº ³
åĲĦ åĽ½
æ¤ į
Ġh ave
æ¬¢ è¿İ
ion s
é©± åĬ¨
æ¿Ģ åıĳ
æŃ£ åľ¨
ç¢ ³
èĢ Ĺ
åĢ¼ å¾Ĺ
æĹ ¨
å ¨
å¤įæĿĤ çļĦ
ä¸İ æĦıä¹ī
åĩĨ åĪĻ
æĹħè¡Į èĢħ
ï¼Ł ðŁĺĬ
çĲĨ æĢ§
å°¤ åħ¶
ä½łæľī åħ´è¶£
è¦ģ æ±Ĥ
å¹¸ ç¦ı
im p
æĹ¶éĹ´ åĢĴæµģ
è¶ħ è¶Ĭ
Ġth is
t im
æķ°åŃĹ åĮĸ
æķı æĦŁ
åħ ĭ
åĳ Ģ
è¯ ¢
è Ń
æīĭ æ®µ
åĴĮ æĥħæĦŁ
çĸ ĳ
éĿŀ å¸¸
ä»Ģä¹Ī æľīè¶£çļĦ
è§£åĨ³ æĸ¹æ¡Ī
å° Ķ
æ³ ¢
æĹ¨ åľ¨
a re
Ġn ot
åŃ ©
çľĭ çľĭ
èŃ ¦
è·¨ åĽ½
åħħ æ»¡
çļĦ è¯Ŀ
as t
1 2
l ow
åĽŀ åºĶ
åı¯ è§£éĩĬ
ic al
éĢŁ åº¦
Ġcon t
å¤± åİ»
å¹² æī°
åħ¬ åı¸
æµģ ç¨ĭ
an ce
åĩĨ å¤ĩ
æĺ¯ ä¸Ģç§į
çĶŁ æĢģ
ä½ľ æģ¯
ç Ĩ
çģ «
æĵį ä½ľ
Ġ G
ar y
a g
ä¸Ģ çĽ´
çķ ª
è¶ ĭ
æľĢè¿ĳçľĭ äºĨ
çĽ Ł
æ¸¸ æĪı
Ġa b
çļĦ éĩįè¦ģ
åħ³ æĢĢ
éĩıåŃĲ çºłç¼ł
ä½łä»Ĭå¤© å¿ĥæĥħæĢİä¹Īæł·
èĮ Ħ
éļ¾ é¢ĺ
åĪ ļ
åıį åºĶ
Ġ\ )
åĮħå®¹ æĢ§
as e
éĵ ¾
æĢĿ æĥ³
é¼ ĵ
å¯¹ èĩªèº«
åı ¥
åı «
ä¸įåĲĮæĸĩåĮĸ å¯¹
èİ· å¾Ĺ
æķ°æį® ä¸»æĿĥ
æµ İ
éĥ½ èĥ½
å¼ ł
çĶ ļ
çĶļ èĩ³
Ġ ç¬¬
æ¯ı ä¸ªäºº
åį° è±¡
çķª èĮĦ
ä¸ °
Ġnumb er
el l
ĠA l
o re
æ² ī
çĶ¨æĪ· çļĦ
çĿ¡ çľł
åħ¬ åĽŃ
å® Ŀ
ç»ı æµİ
ä¸İ ç®Ĺæ³ķ
ç¢ Į
æĢ ¥
æµ ª
åĩ ½
éĺ ¶
éĽĨ ä½ĵ
å¿Ļ ç¢Į
å¸ ĥ
Ġsp ec
åĮħ åĲ«
åĬł å¼º
é¼ĵ åĬ±
éĥ½ åľ¨
ou r
ç»´ æĬ¤
è·Ŀ ç¦»
Ġin c
æĥħæĦŁ æĪĸ
äººéĻħ åħ³ç³»
çİ° ä»£
åı Į
éĩıåŃĲ ç®Ĺæ³ķ
æĿĥ åĪ©
ä»Ĭå¤©å¤©æ°Ķ ä¸įéĶĻ
çľŁå®ŀ æĢ§
âĢĿ ãĢĤ
åĨ³ äºİ
åıĸ åĨ³äºİ
å¯¹ äºİ
è½ ¦
ä» ĭ
é£İ æł¼
è°ĥ èĬĤ
è¿ĩåº¦ ä¾Ŀèµĸ
æĸĩ æľ¬
ä¹Ł èĥ½
åĩ½ æķ°
æķ´ çĲĨ
ä¸ºçĶ¨æĪ· æıĲä¾Ľ
f er
æĭ¥ æľī
Ġa r
éĻ ª
u st
çľĭ çļĦçĶµå½±
ä¸Ń åĽ½
åı¯èĥ½ åīĬå¼±
æĸĩåĮĸ å·®å¼Ĥ
v e
è®® é¢ĺ
ä¸° å¯Į
ä¸ŃçļĦ ä¼¦çĲĨ
r ing
åħħ çĶµ
æī¾åĪ° å¹³è¡¡
åº ĵ
Ġf un
ä½łæľĢè¿ĳæľīæ²¡æľī è§īå¾Ĺ
ä¸į ç¡®å®ļ
æ¬§ çĽŁ
æĥ Ĭ
äº ®
åĬ ³
æķ°æį® åĪĨæŀĲ
ä¸İ ä»·åĢ¼
åį Ī
æŀĦ æĪĲ
ç§ĳ å¹»
æķ° åŃ¦
Ġre s
åľ° çĲĥ
ab a
æħ¢ æħ¢
åĳ¼ åĲ¸
Ġmo re
æ¸© åº¦
o o
æµ· é»ĺ
ä¸ ¥
åı¯èĥ½ å½±åĵį
è¯ ļ
ä½Ĩ æĹłæ³ķ
æľ¬ æµ·é»ĺ
å¥¥ æľ¬æµ·é»ĺ
åŃ¦ä¹łæĸ° æĬĢèĥ½
ic e
ç¤¾äº¤ åªĴä½ĵ
ib aba
æ³¨æĦı åĬĽ
Ġs h
éģ µ
æĿ¥ è¶Ĭ
çŀ¬ éĹ´
æľªæĿ¥ çļĦ
æľīè¶£ çļĦäºĭ
ç³ Ĭ
é£ ŀ
ç« Ļ
åĬ¨æĢģ å¹³è¡¡
å·¥ä½ľ ä¸İ
åģı å¥½
è¶Ĭ æĿ¥è¶Ĭ
å± ħ
h at
æľĢ åĲİ
åĽł æŀľ
ĠT his
äº¤ éĢļ
é¦ Ļ
æĸĩ åŃĹ
åĵį åºĶ
è¿ĩç¨ĭ ä¸Ń
éľĢ ç»ĵåĲĪ
ä¿¡æģ¯ çļĦ
æķ°æį® çļĦ
Ġ2 0
æ¸ Ĳ
éĩį è§Ĩ
ä½łå¦Ĥä½ķçľĭå¾ħèĩªæĪĳæĦıè¯Ĩ ä¸İ
æŀ Ĺ
æĪĲ æľ¬
è§Ĩ é¢ĳ
ç ¿
æı Ń
è¿Ľ ä¸ĢæŃ¥
èīºæľ¯ å®¶
å¤ļ è¾¹
å® ĺ
ä½łä»Ĭå¤© æĥ³
éĥ½ æĺ¯
æľĢè¿ĳæľīæ²¡æľī çľĭè¿ĩ
æľº ä¼ļ
åŃ© åŃĲ
æĳ Ħ
æĢİ æł·
èĩªæĪĳæĦıè¯Ĩ çļĦè¾¹çķĮ
ä¼ł æĴŃ
äººç±» èĥ½
ation s
åĴĮ è°
è¡Į ä¸ļ
it e
åĳĬè¯ī æĪĳ
AI æ¨¡åŀĭ
è§£çŃĶ éĹ®é¢ĺ
å¥ ¶
éĿ ł
æĥħæĦŁ åĴĮ
æĦıä¹ī çļĦ
ç¼ĵ è§£
æĿĲ æĸĻ
éĻ ·
äºĨ ä¸Ģä¸ª
çļĦ çķĮéĻĲ
ä¸ĭ çļĦ
k ing
æľī æĹ¶åĢĻ
æī§ è¡Į
åĢ¾ åĲĳ
å¿ ½
åĩĨç¡® æĢ§
ç¨ĭ åºı
Ġs er
æıŃ ç¤º
al l
åĪ Ŀ
å®¡ ç¾İ
è¶ĭ åĬ¿
an s
å½ ©
è¿ĺ æľī
æķĪ æŀľ
æĪĳä»¬ èĥ½å¤Ł
ç³ ĸ
æľĢ å°ı
çī¹ å¾ģ
çı į
** ãĢĤ
åĪ° è¾¾
æ¶ µ
é¸ ¿
ä¹Ł æĺ¯
è ħ
æ ĩ
å¦ĤæŀľæĹ¶éĹ´ èĥ½
Ġw he
åĲĥ çļĦ
æĽ´ æ³¨éĩį
åĩº çİ°
åĪ° C
çļĦ åĲĮæĹ¶
åĬ¨ åĬĽ
é¸¿ æ²Ł
æĻ ļ
åħ¶ æ¬¡
ç®Ģåįķ çļĦ
ig n
å¤įæĿĤ éĹ®é¢ĺ
å£° éŁ³
çĲĨè§£ åĴĮ
æŃ Į
åıį æĺł
è¿Ļæł· çļĦ
æĢģ åº¦
éĢĤ åº¦
åĬł éĢŁ
æµĭ è¯ķ
éĿ ©
åı¯æĮģç»Ń åıĳå±ķ
åį ģ
ä¹ĭéĹ´çļĦ åħ³ç³»
çļĦ æĹ¶åĢĻ
åĩºåİ» èµ°èµ°
èĥ½ æºĲ
åŃ¦ä¹ł ä¸İ
ä½łæľĢè¿ĳæľīæ²¡æľī çľĭè¿ĩ
Ġfun ction
åı ł
è¯ į
c c
æ» ¥
æī ¹
er m
æľ¬ åľ°
æ°´ æŀľ
æĪĳ ä½ľä¸ºAI
æ¨¡ ç³Ĭ
ou ld
å ĭ
Ġp l
ĊĠĠ ĠĠĠĠ
åı¯èĥ½ å¸¦æĿ¥
äºº æľº
è· Ł
ä¾Ŀèµĸ äºİ
ç»ĥ ä¹ł
çģ ¯
ä¼ ´
AI èĥ½
æĥ³ æ³ķ
æ½ľ åľ¨
Ġ 9
ä¸Ģ å®ļ
Ġa pp
åĮ Ļ
Ġ1 2
å¤ĸ éĥ¨
çĹ ħ
Ġhe l
Ġit s
éľ ²
çī© è´¨
åį°è±¡ æ·±åĪ»
æĶ¹ åĸĦ
é ²
ä½ł æĥ³
ç²¾ ç¥ŀ
ç¢ į
- -
çļĦ æľ¬è´¨
ä½łå¦Ĥä½ķçľĭå¾ħèĩªèº«åŃĺåľ¨çļĦ çĽ®çļĦ
åºĶ è¯¥
æĸĩ æĺİ
è¡ ¥
è´ Ń
é ¾
å¤§ éĩı
tim es
çŁ¥ éģĵ
ou s
æĮ ī
æİ ª
æ»¥ çĶ¨
Ġa t
ç¡®ä¿Ŀ æĬĢæľ¯
æĽ´å¤ļ æĺ¯
æĦ¿ æĦı
ä½į ç½®
åĢ į
e p
Ġ L
åĨ ·
å®ŀéĻħ çļĦ
Ġhel p
è Ķ
åıĳå±ķ ä¸Ń
æ¡ £
æľ¬è´¨ çļĦ
éĶĻ è¯¯
Ġd at
æıĲä¾Ľ äºĨ
åħĥ ç´ł
ç»ı è¿ĩ
æĸĩåĮĸ èĥĮæĻ¯
ç¤¾ åĮº
å±ŀ äºİ
æĥĬ åĸľ
çĸ ²
èĥĮ åĲİ
ç»ı åħ¸
å Ħ
ä»¥ä¸ĭ æĺ¯
å ¦
ä»·åĢ¼ åľ¨äºİ
å°ļ æľª
ä¸į å°ĳ
èŀį åħ¥
æĥ ķ
èŃ¦ æĥķ
å¦ĤæŀľæĹ¶éĹ´èĥ½ åĢĴæµģ
å°¤åħ¶ æĺ¯
åŁº æľ¬
æĻ® æĥł
åĴĮè° Ĳ
åº ķ
æ£Ģ æŁ¥
en er
åģļä¸Ģä»¶ äºĭ
æĲ Ń
éĺ¶ æ®µ
Ġ\ ]
Ġyou r
çļĦ äº¤
å¤ļ ç§į
å¤ļ å°ĳ
æľĢè¿ĳ æĪĳ
å¾ª çİ¯
èīºæľ¯åĪĽä½ľ ä¸Ń
ĠAl ibaba
è¡ £
3 0
å· §
è½ ¯
å¸¦æĿ¥ çļĦ
éĴ¥ åĮĻ
å°ı äºĭ
1 00
ĠC loud
æĦıæĢĿ çļĦ
ï¼ģ ðŁĺĬ
æıı è¿°
ç¢İçīĩ åĮĸ
è¿ ¹
ç» §
åŁºäºİ ç®Ĺæ³ķ
Ġa d
çĽ´ è§ī
æĥħæĦŁ åħ±é¸£
åĽº å®ļ
å¸® ä½ł
æ¤į çī©
çļĦ äºĴåĬ¨
ou nd
Ġspec ific
Ġm a
ç®Ģ æ´ģ
åĲĦ ç§į
è´Ł è´£
è¿ Ķ
at ed
k s
åľ° æĸ¹
ĠC h
æķ°æį®åĴĮ ç®Ĺæ³ķ
çļĦ çĶŁæ´»
åľ Ł
èĮĥ åĽ´
å° Ħ
AI åı¯
çľŁçļĦ å¾Ī
åĽ° æī°
åı¤ ç±į
æİª æĸ½
åĲĮæĹ¶ ä¿ĿæĮģ
èĢĮ éĥ¨åĪĨ
ä¿¡æģ¯ è¿ĩ
Ġ N
åŃ ¤
i le
è®¾ ç½®
åĽ Ľ
çľ ¼
æĢ§ èĥ½
ç§» åĬ¨
Ġ R
è¯´ æĺİ
å¦Ĥæŀľ æľī
çī© åĵģ
éĩĳ å¸ģ
æĪĳ ä»¥
æ¶Ī è´¹
å®ŀ éªĮ
Ġh as
å¤§ å®¶
ä¸º ä»Ģä¹Ī
çº¦ æĿŁ
èº« å¿ĥ
åº Ħ
ä¸İ åĪĽæĸ°
çļĦ åıĳå±ķ
æķ°æį® å®īåħ¨
ur n
ä¸įåĲĮ åĽ½å®¶
åıĳå±ķä¸Ń åĽ½å®¶
åĲ §
an ge
è§Ĩ è§ī
å¿ħ è¦ģ
åĨħå¿ĥ çļĦ
Ġf ind
èµ· æĿ¥
å± ı
ä½łæľĢè¿ĳ æĢİä¹Īæł·
è®¤çŁ¥ çļĦ
æĦı åĳ³
åģļ ä»Ģä¹Ī
ï¼ī ãĢģ
çİ°å®ŀ çļĦ
æĥħæĦŁ è¡¨è¾¾
çī¹åĪ« çļĦ
åħ¨ éĿ¢
ä¿¡æģ¯ å¤ĦçĲĨ
ä¼¦çĲĨ è§ĦèĮĥ
æľĢè¿ĳ å¾Īå¤ļäºº
ç¨ĭ åº¦
å®ŀ çĶ¨
ä¹Ł åľ¨
åĩ »
éĢıæĺİ æĢ§
n ow
å½ĵ çĦ¶
Ġw as
è¯ ¾
l ud
Ġne ed
ç« ¯
æİ Į
Ġ <
ä¸Ģ éĥ¨åĪĨ
ãĢ Į
ãĢ į
Ġd o
Ã Ĺ
æĢ§ æĢĿç»´
æĦı åĽ¾
æĻ ´
ç¬¬ äºĮ
è¾ĵ åĩº
æľ Ī
æĬĢæľ¯ èµĭèĥ½
æĺ¯ ä¸įæĺ¯
åĬ ŀ
æĩ Ĥ
æĪĳä»¬ åı¯ä»¥
åĦ ¿
è¿Ľ åĮĸ
åĽ° éļ¾
åıĬ æĹ¶
ä¸»è§Ĥ æĦıè¯Ĩ
æĸ° æĬĢèĥ½
èĶ ¬
Ġ if
åıĳ çĶŁ
éĥ¨ éĹ¨
s o
çī Ľ
è°ľ é¢ĺ
ç» ¼
æĿĳ åºĦ
Ġab out
ç»§ ç»Ń
éģµ å¾ª
æĹł è®º
åĵª ä¸ª
åıł åĬł
åį Ĺ
è· ³
åĤ ¬
éļĲç§ģ æĿĥ
AI æĬĢæľ¯
im e
æłĩåĩĨ çļĦ
è·¨ é¢ĨåŁŁ
éĩįè¦ģ çļĦæĺ¯
Ġ1 5
å®¡ æŁ¥
æļĤ åģľ
éĢĲ æ¸Ĳ
çļĦå¤įæĿĤ æĢ§
u b
ä½łæľĢè¿ĳ æľīä»Ģä¹Ī
åĩł ä¸ª
è¿Ļç§į å·®å¼Ĥ
æĢ» æĺ¯
er t
ä¿¡æģ¯è¿ĩ è½½
ä¼ĺ åĬ¿
æĮºæľī æĦıæĢĿçļĦ
åĪĽ å»º
t her
æ¶Ī èĢĹ
éĺ² æŃ¢
æĪĸ æĥħæĦŁ
ä¸Ģ åıª
åĴĮæľĭåıĭä¸Ģèµ· åģļ
ã Ĥ
æŃ£ç¡® çļĦ
äºº æĸĩ
Ġu p
æ³¢ åĬ¨
P ython
åĽ½éĻħ åĲĪä½ľ
æľĢè¿ĳåľ¨ æĥ³
é² ľ
ä¸¤ ä¸ª
å¦Ĥæŀľ æĤ¨
çĭ¬çī¹ çļĦ
å¦Ĥæŀľ äººç±»èĥ½
ar d
æ·± åĮĸ
ç ĵ
åĿĩ è¡¡
è° ģ
çļĦ æĹ¶éĹ´
çļĦ åįıåĲĮ
d u
i ke
æĹłæ³ķ ä½ĵéªĮ
Ġre t
ä¾¿ åĪ©
çī Į
èĩªæĪĳæĦıè¯Ĩ çļĦ
æķ´ ä½ĵ
I n
éĺ ´
äºĭ çī©
äº ļ
ä¼ļ å¦Ĥä½ķ
ä¾ §
è¯ķè¯ķ çľĭ
æĪĳ ä½ľä¸ºAIæ¨¡åŀĭ
ç»Ħ ç»ĩ
è¯ Ĭ
è´ ¢
çı Ń
å¥ ĳ
ĠI t
ou nt
çĦ¶ åĲİ
å·´ å·´
åı¦ ä¸Ģæĸ¹éĿ¢
é º
Ġu se
éĺ¿éĩĮ å·´å·´
åĪ¶ ä½ľ
èģļ çĦ¦
ç²¾åĩĨ çļĦ
ä»Ĭå¤©æĥ³ éĹ®
ä¸º ä½ł
è¿Ķ åĽŀ
ä¸Ģ èĩ´
åĵ²åŃ¦ ä¸İ
åľ° åĮº
æľī æĪĲå°±æĦŁ
éģ į
at es
åı¯èĥ½ åĬłåī§
B çļĦ
å® ³
ä¹ °
æĽ´ åħ³æ³¨
çº ¸
æī ©
åŃĺåľ¨çļĦ æľ¬è´¨
åĮĸ çļĦ
éĥ½ æľī
è¿Ĳ è¡Į
æĥ³ è±¡
ä½¿ å¾Ĺ
Ġ O
ä½łå¦Ĥä½ķçľĭå¾ħèĩªèº«åŃĺåľ¨çļĦçĽ®çļĦ ä¸İæĦıä¹ī
çĶŁæ´» ä¸ŃçļĦ
ä¸ĢçĽ´ åľ¨
ç§ °
åħħ å®ŀ
ç¥ŀç»ı ç§ĳåŃ¦
æį Ł
è¯Ń éŁ³
æĥ ľ
åĪĽæĸ° ä¸İ
æĥħæĦŁ ä¸İ
Ġu n
ä¸»ä½ĵ æĢ§
çº ¯
p r
Ġ J
å¹¶ è¡Į
åįıåĬ© çĶ¨æĪ·
æĹ¶ åħī
åı¯èĥ½ çļĦ
æķ´ åĲĪ
ç±»ä¼¼ çļĦ
åħ¬ æ°ĳ
åĨ³çŃĸ çļĦ
ç¡®ä¿Ŀ æĬĢæľ¯åıĳå±ķ
èĲ ½
åķ ¦
åįķ ä¸Ģ
æĸĩ çī©
Ġinc lud
çıį æĥľ
ä¸į æĥ³
çº ª
æĦıåĳ³ çĿĢ
ä½Ĩ æĪĳåı¯ä»¥
æĬ ½
æľºåĻ¨ åŃ¦ä¹ł
W hat
åĲ¯ åıĳ
çļĦä¿¡æģ¯ åĴĮ
æĲŃ éħį
ä¸Ģèµ· åģļ
ä½¿ æĪĳä»¬èĥ½å¤Ł
äº« åıĹ
åı¯ä»¥ åĢĴæµģ
è®¸ å¤ļ
åĶ ¯
æ· ·
Ġ '
el y
è® ¿
çľĭ ä¼¼
Ġv al
æĭ ī
Ġg ener
æĬĢæľ¯ æĻ®æĥł
er e
Ġprov ide
å±ķ çİ°
å°± ä¸ļ
ä¸īä¸ª æķ°åŃĹ
åı¯è§£éĩĬ æĢ§
æľª çŁ¥
çĽ ĸ
åĳĺ å·¥
v el
t ext
è§Ĩ ä¸º
åħ¨çĲĥæķ°åŃĹ æ²»çĲĨ
å® Ī
å¥½ å¥ĩ
å² Ľ
c r
æĹ¶ åĪ»
æĽ´ æĸ°
2 5
è¾ĵ åħ¥
Ġ imp
æİ¨èįĲ ä¸ĢäºĽ
ä½ł åı¯ä»¥
æīĭ å·¥
å¤ļ æĸ¹
Ġre c
å® «
Ġ å¦Ĥæŀľ
æıĲ éĨĴ
åįģ å¹´
ç« ŀ
è§£åĨ³ äºĨ
form ation
èĥ½ éĩı
åĨ °
p t
ä½łä»Ĭå¤©åĲĥäºĨ ä»Ģä¹Ī
èĪĴ æľį
åı¯èĥ½ åľ¨
åĵª éĩĮ
å¼Ģå¿ĥ çļĦ
é¾ Ħ
åı ¶
è¿ĳ æľŁ
åĢ¾åĲĳ äºİ
å¾Ĺ åĪ°
æķ° éĩı
l o
çļĦ è®¤çŁ¥
ç»Ħ åĲĪ
ç§ ĺ
ä¸»è§Ĥä½ĵéªĮ ä¸İ
æĽ´é«ĺæķĪ åľ°
æıĲä¾Ľ é«ĺæķĪ
åĪĻ æ¶īåıĬ
æĥħ å¢ĥ
æĪ· å¤ĸ
g h
å¹ ķ
æĳĦ åħ¥
æľ Ĺ
ç» Ŀ
å¤įæĿĤ ä¸Ķ
Ġs o
å®īåħ¨ æĢ§
çĮ ®
åŃ¤ çĭ¬
æĪĳ æĺ¯
al ly
èĩªçĦ¶ çļĦ
åħ·ä½ĵ çļĦ
éķ ľ
å¿ĥæĥħ ä¹Ł
æľ «
æ² ¹
æĸĩ åŃ¦
Ġc re
æĬķ èµĦ
ä¸İ æķ°æį®
æĦı å¿Ĺ
èīºæľ¯åĪĽä½ľ çļĦ
ç»¿ èī²
æľĢè¿ĳæľīæ²¡æľīäºº åĸľæ¬¢
e ar
æĪĳçļĦ æĦıä¹īåľ¨äºİ
Ġcom m
è¯Ĭ æĸŃ
æĽ´ æ¸ħæĻ°
ar i
æİ¢ éĻ©
æī¹ åĪ¤
åĨħå®¹ çļĦ
æŃ§ è§Ĩ
æľĢè¿ĳåľ¨ åŃ¦
åı¯ éĿł
ec h
èĤ ī
åī§ æĥħ
ç» ĺ
å± ±
èĥ½ å¸¦æĿ¥
ä¹ĭéĹ´ æī¾åĪ°å¹³è¡¡
æľī éĻĲ
è½¯ ä»¶
åħ± æĥħ
ä½łçļĦ çĶŁæ´»
è®¿ éĹ®
ä½łæĺ¯åĲ¦ æĽ¾
çĶ ľ
èĩªçĦ¶ è¯Ńè¨Ģ
èĢĮ æĦıè¯Ĩ
å¦Ĥä½ķå½±åĵį åħ¨çĲĥæķ°åŃĹæ²»çĲĨçļĦ
ç¥ŀç»ı ç½ĳç»ľ
åĤ¬ çĶŁ
ðŁĺ Ħ
æľĢè¿ĳ å¤©æ°Ķ
Ġd es
çľŁ è¯ļ
ç²¾ åĬĽ
å®Į ç¾İ
æĺ¯åĲ¦ä¼ļ å½±åĵį
Ġthe ir
æķ´ æķ°
Ġdat a
å¹¶ ä¸į
å®¹ æĺĵ
æĿ ¿
Ġin ter
åı£ åĳ³
æĪĳ éĢļè¿ĩ
çŃī å¤ļä¸ª
è¿Ļä¸ª éĹ®é¢ĺ
éĻ· åħ¥
Ġ ro
Ġl ike
çľŁå®ŀ çļĦ
é¸ Ł
i re
Ġret urn
ç´§ æĢ¥
å¾Ī å¥½
i e
æĺ¯ äººç±»
ä¹¦ ç±į
èĶ¬ èıľ
è° ±
r ou
å®¢ æĪ·
å¾® å°ı
çļĦ è§īå¯Ł
å¦ĤæŀľæĹ¶éĹ´ åı¯ä»¥åĢĴæµģ
åħ± çĶŁ
Ġa cc
ä¹Ĳ æĦı
çĶµåŃĲ è®¾å¤ĩ
å¿ ĺ
Ġp art
Ġmo d
ç¡®ä¿Ŀ AI
æĹ¶ çļĦ
æĦ ī
çĤ ¼
èĥ½ åĲ¦
æĻ ¨
è´£ä»» å½Ĵå±ŀ
Ġser v
ĠCh in
çİ° æľī
æĥ ĳ
od e
ä½łå¦Ĥä½ķ å¹³è¡¡
æĹ §
æ¯ı æ¬¡
\ ]
é» ĳ
åĬĽ éĩı
æĮģç»Ń ä¼ĺåĮĸ
¹ ģ
æİ¥ çº³
åĬ© åĬĽ
ç½ĳ ç«Ļ
åº Ń
æ² Ļ
æľĢè¿ĳåľ¨ çłĶç©¶
å¹´ é¾Ħ
è¾ħåĬ© å·¥åħ·
ç¾İ é£Ł
éĻĲ äºİ
é¸ ¡
åģ¶ å°Ķ
å¤ĦçĲĨ åĴĮ
åĮº åĿĹ
åĩº è¡Į
è¿Ľ èĢĮ
æıĲ éĹ®
ç©¿ è¶Ĭ
ä¹Ł ä¼ļ
éĶ Ģ
ĠI f
Ġk now
ç«ŀ äºī
p le
ç®Ĺæ³ķ éĢıæĺİåº¦
å±ı å¹ķ
âĢĿ ï¼Ł
ä½łå¦Ĥä½ķçľĭå¾ħèĩªèº«åŃĺåľ¨çļĦ æĦıä¹ī
ç ¹ģ
a il
ç¬¬ ä¸ī
Ġf e
å¯»æ±Ĥ å¹³è¡¡
çī¹ æĢ§
åį ¡
ä½łæľĢè¿ĳæľīæ²¡æľī éģĩåĪ°ä»Ģä¹Īè®©ä½ł
çļĦ éĢīæĭ©
æº ¯
è¯¯ è§£
ĠH ow
Ġin formation
åĳ Ī
ä¾§ éĩį
Ġb ut
åį³ ä½¿
èĩªåĬ¨ åĮĸ
åĲĪ éĢĤ
èĩªä¸» æĿĥ
p ut
or d
as ed
å°± åĥı
et w
as s
Ġfor m
åİŁ çĲĨ
ðŁ Į
f t
åĽŀ çŃĶ
res s
æĸĩåĮĸ åĪĽä½ľ
ä»Ĭå¤©è¿ĩå¾Ĺ æĮº
éļľ ç¢į
æķĪçİĩ åĴĮ
å¦Ĥæŀľæ¯ıå¤©åıª åħģè®¸
å¤Ħ äºİ
æĸĩ ä»¶
æ¯ı æĹ¥
è®Ńç»ĥ æķ°æį®
éĺ´ éĺ³
A çļĦ
æĬĢ å·§
æĽ´ æľī
å¯Ĩ åĪĩ
çŃī æĸ¹éĿ¢
é¦ Ĩ
æĦŁ å®ĺ
æĦıè¯Ĩ ä¸İ
è· ĳ
è®¤çŁ¥ ç§ĳåŃ¦
åħ³éĶ®åľ¨äºİ å¹³è¡¡
äºĨ ä¸ĢäºĽ
å¸¸ è§ģ
çŃī éĹ®é¢ĺ
è¯´ è¯Ŀ
è¿Ľ å±ķ
ä¸į è¶³
f f
åº§ æ¡¥
æľĢ å¤§
ç¿ »
çļĦ æĮĳæĪĺ
ä»İ åĵ²åŃ¦
æľĢè¿ĳ è¯»
åĴĮæľĭåıĭ ä»¬
åĺ ¿
å¾Ī ä¹ĲæĦı
å®¶ åºŃ
åı¯ è¡Į
ä½łæľĢè¿ĳæľīæ²¡æľī æĥ³è¿ĩ
èĩªçĶ± æĦıå¿Ĺ
çĶŁ çĲĨ
ä»Ģä¹Īå¥½ çľĭçļĦçĶµå½±
ac e
åĳĪ çİ°
éĢ Ŀ
åħ¨çĲĥæ²»çĲĨ æ¡Ĩæŀ¶
at ure
æľĢè¿ĳåľ¨ çľĭ
Ġe qu
ir st
èĽĭ çĻ½
c es
ĊĠĠĠĠĠĠ Ġ
èĥĮæĻ¯ ä¸ĭ
ä½Ĩ èĭ¥
åŃĺåľ¨ å·®å¼Ĥ
Ġp er
æľªæĿ¥ åįģå¹´
æĻ® åıĬ
çľŁæŃ£ çĲĨè§£
D P
æµ ¸
åĢ Ł
ä½ł è§īå¾Ĺ
ĠĠ ĊĠĠ
Ġe m
ä¸İæĸĩåĮĸ å¤ļæł·æĢ§
it ion
è·¯ çº¿
00 0
çĭ¬çī¹ æĢ§
èīºæľ¯ çļĦ
èģĶ åĲĪ
å® ¤
om e
iv en
è¿· å®«
èµ· çĤ¹
ä½łæľĢè¿ĳæľīæ²¡æľī éģĩåĪ°è¿ĩéľĢè¦ģ
ä½łä¼ļ éĢīæĭ©
åľ¨ å¤ĦçĲĨ
ä¹ ĺ
æĪĲ åĬŁ
ä¸Ń æī¾åĪ°
åľ° çĲĨè§£
ç§ĳæĬĢ åıĳå±ķ
æĪĳä¼ļ éĢīæĭ©
äººç±»çļĦ åĪĽéĢłåĬĽ
èĢ Ĳ
æľ¬åľ° åĮĸ
æľĢè¿ĳæľī ä¸ª
ä» ¿
ä¼ļä¸įä¼ļ æĽ´
Ġmo st
e ver
åĽ° æĥĳ
è§Ĥ çĤ¹
å¼Ģåıĳ èĢħ
éĢļè¿ĩ æķ°æį®
å¹³ éĿĻ
Ġne w
çļĦ æĦŁçŁ¥
å¿½ è§Ĩ
çĶ¨ AI
æľī åħ³
Ġt erm
åŁºäºİ æķ°æį®
p ython
æ¨¡å¼ı è¯ĨåĪ«
éĹ Ń
æĻ® éģį
ä½ł æľĢåĸľæ¬¢
æĹ¶éĹ´ è¿ĩå¾Ĺ
æķıæĦŁ æĢ§
æĪĲéķ¿ çļĦ
å®¡ è§Ĩ
åĪĽä½ľèĢħ çļĦ
åĬ¨æĢģ è°ĥæķ´
èĩªä¸» æĢ§
æŁĲ ä¸ª
å¯ĨåĪĩ çĽ¸åħ³
ä½ľä¸º å·¥åħ·
Ġ [
æ¬ ¾
äº¤ ç»ĩ
åİ» åħ¬åĽŃ
æ·±åº¦ åŃ¦ä¹ł
èĩªæĪĳ åŃĺåľ¨çļĦè¾¹çķĮ
äººå·¥æĻºèĥ½ä¼¦çĲĨåľ¨è·¨æĸĩåĮĸè¯Ńå¢ĥä¸ĭçļĦ äºīè®®
å®Į æķ´
äºĭ ä»¶
çļĦ æĦıä¹ī
Ġal l
èĢĮ ä¸įæĺ¯
çĤ Ĵ
¨ è¯¢
åĴ ¨è¯¢
éĢ Ĩ
åįı è®®
å°½ åĬĽ
åĬĽ åŃ¦
äººå·¥æĻºèĥ½ çļĦ
æĸ° ä¸ľè¥¿
æĦıè¯Ĩ åĪ°
æľī äºĽ
åĢ¾ åĲ¬
y p
çļĦ æķ°æį®
åı¯èĥ½ åĽł
æĻ´ æľĹ
æĹł éĻĲ
æ³ķ è§Ħ
éģ¿åħį æĬĢæľ¯
çĪ± å¥½
e g
Ġ ÃĹ
å¸ ½
Ġan y
éľ ĩ
å·¥ä½ľ æ³ķ
ä½ł æľīä»Ģä¹Īæĥ³
åĪ° B
ä¿Ŀ çķĻ
åŃĺåľ¨ æĺ¯
æı ¡
ä½ł å¯¹
åģı å·®
å¨ ģ
Ġs y
ä»Ĭå¤©å¤©æ°Ķ æĢİä¹Īæł·
( )
Ġl ist
ä¸Ģ æľ¬
å¿« èĬĤå¥ı
æĬ½ è±¡
æ²ī æµ¸
or y
ç¼ ©
å¥ ¹
æ¼Ķ åıĺ
è¾ħåĬ© äººç±»
èĩªæĪĳæĦıè¯Ĩ å¦Ĥä½ķå½±åĵį
ä½ł å¥½
ç²¾ åº¦
äººå·¥æĻºèĥ½ä¼¦çĲĨ æłĩåĩĨ
æĿ¥ è¯´
Ġo ther
éĻª ä½ł
è¡¨ æĥħ
æĪĳ å¾Īä¹ĲæĦı
éĹ »
äº§ çī©
Ġw ill
çļĦä¼¦çĲĨ æ¡Ĩæŀ¶
åĳ¨ æľ«
çķªèĮĦ å·¥ä½ľæ³ķ
æ½ľ åĬĽ
åŃĺåľ¨çļĦ æĦıä¹ī
æĦŁ åĬ¨
åĬ¨æĢģ çļĦ
è Ŀ
ä¼ ¸
åį ±
åĵ Ī
æĹ© ä¸Ĭ
" ï¼Į
è§Ĵåº¦ æĿ¥çľĭ
èĻļæĭŁ çİ°å®ŀ
èĩªæĪĳ åıįæĢĿ
Ġm y
äº¤ æĺĵ
ä¸»è§Ĥ æĦŁåıĹ
ä½ĨéľĢ æ³¨æĦı
æİ¥åıĹ åº¦
èĭ¥ éľĢ
Ġwhe re
æł¹æį® æĿ¡ä»¶
ä»¥ä¸ĭæĺ¯ ä¸ĢäºĽ
ä» ĺ
æıĲä¾Ľ åĩĨç¡®
äººå·¥æĻºèĥ½åľ¨ æĸĩåĮĸä¼łæī¿
w en
æĥħæĦŁ çļĦ
åı¯ä»¥ å°Ŀè¯ķ
çºª å½ķ
çļĦ åħ³éĶ®
æºĲäºİ å¯¹
Ġal so
æ³ Ħ
éĩ İ
å¦Ĥæŀľæľī ä¸Ģå¤©
T o
éĩįæĸ° å®ļä¹ī
æ·± è¿ľ
åĪĹ è¡¨
çŁ¥è¯Ĩ åĴĮ
G DP
çºªå½ķ çīĩ
r u
ä¸¥ æł¼
æ ¹
Ġb o
èģĶåĲĪ åĽ½
æĥħæĦŁ ä½ĵéªĮ
æĹ¢ èĥ½
è¯» è¿ĩ
çĶŁ åŃĺ
å°± æĺ¯
æĤ¨ çļĦ
æĶ¶ éĽĨ
æĦıè¯Ĩ æĺ¯
è± Ĩ
åģ¥åº· é¥®é£Ł
Ġ U
æĪĳçļĦåŃĺåľ¨æĺ¯ä¸ºäºĨ æıĲä¾Ľå¸®åĬ©
åįķ çº¯
r y
è¯Ń å¢ĥ
å¤ª éĺ³
åĺ Ľ
äº ²
ä¸ªä½ĵ åľ¨
éĶ »
Ġv ari
åĽŀåĪ° è¿ĩåİ»
Ġp o
è§Ĵåº¦ çľĭ
éĶ» çĤ¼
éĢĤåºĶ æĢ§
åĪ° äºĨ
é¢Ħ æĬ¥
åº Ĺ
Ġc ol
æĬĢæľ¯ æłĩåĩĨ
éĩıåŃĲ åĬĽåŃ¦
æĬ ĺ
ä½Ĩ ä¸į
å¹¶ åľ¨
åı¯èĥ½ æĺ¯
åıªèĥ½ æĺ¯
éļĲ èĹı
æ´ ²
ä½łæľĢè¿ĳæľīæ²¡æľī éģĩåĪ°è¿ĩ
Ġ çļĦ
æĽ ²
æıĲä¾Ľ ç²¾åĩĨ
åĴĮ çĲĨè§£
åĵģ çīĮ
è½» æĿ¾
å¦Ĥ åĲĮ
åŃ¦ çĶŁ
Ġm an
åħ±åĲĮ æŀĦæĪĲ
1 1
æīĵ å¼Ģ
çļ ®
éĿ¢ çļĦ
åĮ» çĶŁ
çĸ² åĬ³
å¤įæĿĤ æĢ§
è¡¨è¾¾ æĸ¹å¼ı
æĦŁè§īçī¹åĪ« å¼Ģå¿ĥ
Ġs c
å®ĥä»¬ çļĦ
ä¾ µ
am ple
åıª æľī
èĢĮéĿŀ åıĸä»£
éĩįè¦ģ çļĦ
Ġe v
æ³ ¡
Ġc l
Ġwor ld
ä¹ Ļ
ä¸Ģä¸ª äºº
çĲ Ĳ
åľ¨ å¿Ļç¢Į
GDP R
ç ĩ
åĪĨ ç±»
èµ· æºĲ
éĢ Ķ
ro w
å½ ¼
éĩıåŃĲè®¡ç®Ĺ çļĦ
çŃī æĬĢæľ¯
æŁĲ ç§į
æľī ä»·åĢ¼çļĦ
Ġnumb ers
çĽ ĺ
ç¬¦ åı·
ä»·åĢ¼è§Ĥ çļĦ
éĢ ģ
åħ¬ åħ±
çĽ®æłĩ æĺ¯
Q wen
å·¥ä½ľä¸İ çĶŁæ´»
çŃī é¢ĨåŁŁ
C çļĦ
çĶŁ äº§
èĭ¥ èĥ½
è´ ´
éģĵå¾· åĪ¤æĸŃ
å¯¼èĩ´ çļĦ
æ°´ å¹³
ä¸ĭ éĻį
ic es
Ġh ow
ä¸İä¼¦çĲĨ è§ĦèĮĥ
æĹ¥å¸¸ çĶŁæ´»ä¸Ń
é¥®é£Ł ä¹łæĥ¯
æĴ ¼
éľĩ æĴ¼
èº«ä»½ è®¤åĲĮ
n ing
éĶ ģ
åı¯èĥ½ æĽ´
Ġus ed
ä¸įç¡®å®ļ æĢ§
åĮºåĿĹ éĵ¾
ent s
re e
é¢ Ŀ
è¡¨ æĺİ
ĠP ython
æıĲåįĩ ä¸ĵæ³¨åĬĽ
åĪĽä½ľ çļĦ
å¤ļ ç»´
åŃĺåľ¨ æľ¬èº«
çĶŁæ´» æĸ¹å¼ı
æĺ¯ä¸Ģä¸ª å¤įæĿĤä¸Ķ
ä¹Ł åı¯ä»¥
ç¬ Ķ
ä¸» é¢ĺ
è§Ħ æ¨¡
ert ain
at ing
å¦Ĥæŀľ ä¸ĸçķĮ
æıĲä¾Ľ æĽ´
æĸ° é²ľ
Ġon e
å½¼ æŃ¤
ç»¼ åĲĪ
æľī çļĦ
æ£ Ĵ
åĮ Ĺ
å¹³ çŃī
Ġ$ ï¼Į
æĪĸè®¸ èĥ½
AI è¾ħåĬ©
çīĪæĿĥ å½Ĵå±ŀ
èī¯ å¥½çļĦ
æĮ ¥
çļĦ å¤©æ°Ķ
å·¥ èµĦ
çĶ ²
on e
ä»Ģä¹Ī è®©ä½ł
åĲĥ ä»Ģä¹Ī
æµģ éĢĿ
éĺ¿éĩĮ äºĳ
Ġc o
ç© ´
æ£ ®
åıįæĺł äºĨ
åŃĺ æ¡£
Ġo ut
åıĹ åĪ°
æĤ £
é£Ł æĿĲ
ol og
ä½ł æľīä»Ģä¹Ī
æĽ´ åĸľæ¬¢
æ³Ħ éľ²
ä¼ļ æĢİæł·
Ġin d
Ċ Ġ
ç³ ķ
æĮģç»Ń çļĦ
ä»ĸä»¬ çļĦ
pr int
æ¸ħæĻ° çļĦ
çĶŁæ´» è´¨éĩı
å¿« ä¹Ĳ
åħ³éĶ®åľ¨äºİ ä¿ĿæĮģ
Ġt ech
æī¹åĪ¤ æĢ§æĢĿç»´
æĹ¶éĹ´ æĹħè¡Į
éĩĳ èŀį
èī² å½©
èĩªæĪĳæĦıè¯Ĩæĺ¯ åŃĺåľ¨çļĦ
** :
èĩªçĦ¶è¯Ńè¨Ģ å¤ĦçĲĨ
l ic
è®© çĶŁæ´»
ç¤¾ä¼ļ çļĦ
å¼ķ åħ¥
Ġ1 00
Ġs ol
è®¤çŁ¥ è¾¹çķĮ
å±ŀäºİ èĩªå·±çļĦ
æł¹æį® é¢ĺçĽ®
å±ĢéĻĲ æĢ§
èĩªæĪĳ è®¤åĲĮ
æĪĳ ä¸ĵæ³¨äºİ
a k
é» Ħ
Ġs ec
éĩĮ çļĦ
ç»ĺ çĶ»
åĨħ æ¶µ
éļıæĹ¶ åĳĬè¯īæĪĳ
åĲĪ è§Ħ
Ġsu ch
æī© å±ķ
å¸½ åŃĲ
åĬł åħ¥
åı¥ è¯Ŀ
å»º æŀĦ
çĽĳ æµĭ
è¥¿æĸ¹ åĽ½å®¶
åı ³
æĪĳ å°Ĩ
Ġd et
åĳ³ éģĵ
è®¤ è¯Ĩ
åĪ« äºº
æ´ŀ ç©´
ä¸Ģ æĿ¯
åĵ²åŃ¦ åĴĮ
äººç±» ä¸İ
çļĦ æĢģåº¦
æĻ Ĵ
Ġc al
åĪ° çļĦ
äº ¦
r i
ä¼¦çĲĨ åĩĨåĪĻ
å·² ç»ı
ã ĥ
åľ¨ ä¸įåĲĮ
ä¸İ èīºæľ¯
æľĢè¿ĳ æľīä»Ģä¹Ī
æģ ¢
çļĦæĥħåĨµ ä¸ĭ
çļĦ æ¦Ĥå¿µ
å® ½
åħ¶ ä¸Ń
æģ¢ å¤į
æļ ´
å¦ĤæŀľæĤ¨ æľī
çĵ ¶
ï¼ī ï¼Ľ
Ġ |
çģµæ´» æĢ§
åķĨ ä¸ļ
èĽĭ ç³ķ
åĪ ·
æĪĸ éľĢè¦ģ
åı ī
æİ¢éĻ© éĺŁ
c ul
åıĳ æĮ¥
æĽ´å¥½åľ° çĲĨè§£åĴĮ
æĸĩåĮĸéģĹäº§ ä¿ĿæĬ¤
** ï¼Ī
ĠHow ever
çļĦ AI
å¹² é¢Ħ
è ľ
è° ¨
Ġe ach
ç ¯
æĬķ åħ¥
ç¾İ åĽ½
Ġint o
éĩıåŃĲè®¡ç®Ĺ åľ¨
æľī æĦıæĢĿ
çļĦä¿¡æģ¯ ä¸İ
t en
åľ¨ çº¿
ä¸įè¿ĩ æĪĳ
) :
Ġ j
èĩª å¾ĭ
ä¸ŃçļĦ åºĶçĶ¨
è¿ Ń
ä¸Ĭ è¿°
åĲ¬ åĲ¬
çĶ± äºİ
ç©º æ°Ķ
æİĴ åºı
æĦ Ī
ä¹ĭ ä¸Ģ
ä¼ĺåĮĸ ç®Ĺæ³ķ
å¿Ļ åĲĹ
éº ¦
åı Ļ
æĬĢæľ¯ æīĭæ®µ
æķ° ä¸º
å® ģ
ä» ¤
èģĶ ç½ĳ
Ġcomp ut
AI å¦Ĥä½ķå½±åĵį
2 3
ä»·åĢ¼è§Ĥ å·®å¼Ĥ
oo k
ac k
çĬ¶ åĨµ
æĸĩåĮĸ æķıæĦŁæĢ§
éĽĨ ä¸Ń
å¯¹ ç«ĭ
æĪĲ åĳĺ
æ³ķå¾ĭ æ¡Ĩæŀ¶
çļĦ åŁºç¡Ģ
åĮº åŁŁ
Ġex p
ä¹ ħ
å¸®åĬ© æĪĳä»¬
ç¦ı ç¥
åĪ¶ åº¦
ä½łæľĢè¿ĳæľīæ²¡æľī éģĩåĪ°ä»Ģä¹Ī
ç¦ıç¥ ī
æį ī
en g
æĦŁåıĹ åĪ°
å®ĥ èĥ½
Ġus ing
v ers
æ·± åĳ¼åĲ¸
ãĢĭ ãĢĬ
æĦī å¿«
ment s
åĨ ľ
Ġf irst
æľĢè¿ĳå¾Īå¤ļäºº åľ¨
æľīæķĪ çļĦ
è¿Ń ä»£
ï¼ļ âĢľ
ä»¥ æľĢå°ı
æĽ´ æ·±å±Ĥ
æĪ·å¤ĸ æ´»åĬ¨
æĶ¶ èİ·
æŁ¥ çľĭ
nd er
ang u
è° ¢
éĢĤ å½ĵ
ä½łæľīæ²¡æľī è§īå¾Ĺ
æį ķ
éĢļè¿ĩ åĪĨæŀĲ
ç»Ļ åĩº
æ¯ı ä¸Ģ
± ä¹Ĳ
Ġ #
ä»£ è¡¨
åħ¶ å®ŀ
çļĦ å·¥åħ·
ä¸įåĲĮæĸĩåĮĸå¯¹ éļĲç§ģ
çļĦ å·®å¼Ĥ
åĲĮ è´¨
æĸ° éĹ»
åĴĮ ä¸º
éĢĤåĲĪ èĩªå·±çļĦ
â ľ
å½ĵ åľ°
ç³»ç»Ł çļĦ
æľ¬ åľŁ
å¼ķåıĳ å¯¹
Ġtech n
æĻºèĥ½ æĺ¯
åĬĽ äºİ
èĩ´ åĬĽäºİ
åĲ¸ å¼ķ
çĲĨ å¿µ
éļı æľº
æĪĳæ²¡æľī æĥħæĦŁæĪĸ
åº ľ
æ¯ Ĵ
æĹłè®º æĺ¯
æĹ¶ æ®µ
ä½łæľĢè¿ĳæľīæ²¡æľīå°Ŀè¯ķè¿ĩ çĶ¨
å½ĵçĦ¶ åı¯ä»¥
çĶŁæ´» èĬĤå¥ı
åŃĹ ç¬¦
æıĲä¾Ľä¿¡æģ¯ åĴĮ
åĭ ĩ
ãĢĤ âĢĿ
è§Ħå¾ĭ ä½ľæģ¯
e f
Ġ ä»İ
éĽ ¶
ä¼łç»Ł æĸĩåĮĸ
åı¯ å°Ŀè¯ķ
ä½łä¼ļ æĢİä¹Ī
åĨħåľ¨ çļĦ
éģ¿åħį åĽł
èĦ ±
çĽ¸ åĲĮ
è ļ
Ġf ol
ç¡®ä¿ĿæĬĢæľ¯åıĳå±ķ ç¬¦åĲĪ
åŁºäºİç®Ĺæ³ķ åĴĮæķ°æį®
åĵ²åŃ¦ä¸İ ç§ĳåŃ¦
æİ¥ åı£
çŁ¥è¯Ĩ çļĦ
è¿Ľ åħ¥
ãĢĭ ï¼Ī
éĤ »
åĶ¯ ä¸Ģ
çİ ĭ
è¿Ĳ ä½ľ
Ġas s
éģ¿åħįè¿ĩåº¦ ä¾Ŀèµĸ
çŃīå¤ļä¸ª é¢ĨåŁŁ
æľº æŀĦ
ç¡®ä¿Ŀ æĬĢæľ¯åºĶçĶ¨
æĪĳçļĦ èĥ½åĬĽ
è§£ æŀĲ
æĿĥ è¡¡
æľĢè¿ĳåľ¨ åŃ¦ä¹łæĸ°æĬĢèĥ½
5 0
è¯ ĳ
ä¸İ è¾¹çķĮ
äºĭ æĥħ
æķ°åŃĹ é¸¿æ²Ł
åıĻ äºĭ
æħ İ
u es
æľī ä¸ī
éĨĴ æĿ¥
çī¹å®ļ çļĦ
èĢĮéĿŀ åįķçº¯
çŁŃ æļĤ
æ ¥
ä¼ł è¾ĵ
â ĳ
æıĲ åĩº
é¡º åºı
er y
å·¥ä½ľ åİĭåĬĽ
æĶ¿ åºľ
èĢĮ è¨Ģ
éķ¿ åº¦
æĺ¾ ç¤º
çļĦ åĨ³çŃĸ
çĽ Ĵ
ç¡ ¬
st em
Ġg o
åª ļ
ä¸Ģ æĿ¡
æĺİ åªļ
åĲĪéĢĤ çļĦ
Ġd is
åį³ æĹ¶
æ° ¸
è¿ŀ ç»Ń
å¨ ±ä¹Ĳ
åĲĮè´¨ åĮĸ
éĽĨä½ĵ åĪ©çĽĬ
èĢĲ å¿ĥ
ä»¥ ç¡®ä¿Ŀ
çĥ ¦
é¡ µ
æľĢ æĸ°
æıĲ åīį
è Ĵ
è¿Ļ æĺ¯
éĤ£ äºĽ
æĪĳçļĦ ä»·åĢ¼åľ¨äºİ
æ Ĩ
æľĢè¿ĳæľīæ²¡æľī éģĩåĪ°ä»Ģä¹Īè®©ä½ł
æķĪçİĩ æıĲåįĩ
å®ģ éĿĻ
æĽ´ åħ·
ä½łæľĢè¿ĳ å¿ĻåĲĹ
Ġwh at
æĪĳçļĦåŃĺåľ¨ æĦıä¹īåľ¨äºİ
æĪĳ æĽ¾
è¿Ļç§į èĥ½åĬĽ
ä¸»è§Ĥ æĢ§
Ġn ame
ç¼ĸ çłģ
ä¸İ èĩªæĪĳ
å¤ļ ä»»åĬ¡
æĥħåĨµ ä¸ĭ
åĴĮ æĪĳ
ç»Ŀ å¯¹
ä¸Ģ é¡¹
Ġl angu
ä»Ģä¹Ī çī¹åĪ«
çĶ¨æĪ· éľĢæ±Ĥ
Ġd if
åĶ ®
Ġt w
æĥħç»ª æ³¢åĬ¨
è·¨åĽ½ åĲĪä½ľ
èĢħ çļĦ
åŃĺåľ¨ æĦıä¹ī
åŃ £
è¯¾ ç¨ĭ
i a
ä¸İ åĵ²åŃ¦
åħ³éĶ®åľ¨äºİ å°Ĩ
ä¼ļå¦Ĥä½ķ æĶ¹åıĺ
ä¸Ń å¿ĥ
åı¯èĥ½ éĢļè¿ĩ
Ġ {
ĠS t
æ£® æŀĹ
ä¸Ģ éĥ¨
æ°Ķ åĢĻ
åıĺ éĿ©
å¯¹ AI
AI åı¯ä»¥
ip t
å¼ ¥
éĩį éĩı
éĩįæĸ° å®¡è§Ĩ
Ġs um
Ġfol low
éĢĤ éĩı
ç¡®å®ŀ æľī
å¯¹èĩªèº« åŃĺåľ¨
ä½Ĩ æĪĳ
çĶ¨æĪ·çļĦ éľĢæ±Ĥ
åľ° ä½į
å¸®åĬ©çĶ¨æĪ· è§£åĨ³éĹ®é¢ĺ
åı¯èĥ½ ä¸İ
r ite
æĭ Ĩ
j ect
æŀ ļ
ç»ĵ è®º
çĿ £
æĮģç»Ń åŃ¦ä¹ł
ä¸įåı¯ æĽ¿ä»£
çļĦ æķħäºĭ
é© ¶
ä¼ ¤
ä¾Ŀ åŃĺ
çĨ Ł
ä¼¦çĲĨ æłĩåĩĨ
Ġr ange
n g
il ity
ä½łå¦Ĥä½ķçľĭå¾ħèĩªæĪĳæĦıè¯Ĩ çļĦè¾¹çķĮ
cr ipt
åŃĺåľ¨ ä¹ĭéĹ´çļĦåħ³ç³»
èĢĮ å¼Ĥ
Ġmod el
çŃī é¢ĨåŁŁçļĦ
) ,
ç ĳ
at h
æ¯Ķ B
pl o
æĺ¯ åŁºäºİ
æ± ĩ
çģµæ´» è°ĥæķ´
é¡ ¿
u al
Ġt yp
ul ar
åĪĽéĢłåĬĽ çļĦ
åĴĮä½ł ä¸Ģèµ·
Ġthe re
åľ¨ AI
Ġch ar
è¯ ¦
æī ĩ
vel op
è®¡ç®Ĺ æľº
åŁ¹ è®Ń
æµª è´¹
æŁ Ķ
Ġprov id
å ł
åı¯èĥ½ éľĢè¦ģ
æı Ĵ
ï¼ī **ï¼ļ
Ġp re
é© ¾
. "
æľŁ å¾ħ
ä½łå¦Ĥä½ķçľĭå¾ħèĩªèº«åŃĺåľ¨çļĦæĦıä¹ī ä¸İä»·åĢ¼
éĺ³åħī æĺİåªļ
Ġu nder
åĴĮ ç®Ĺæ³ķ
æķ°æį® ä½¿çĶ¨
å¼ ĥ
l es
çŃ ¾
æį ·
å®ĥ èµĭäºĪ
ur re
çĶ¨ ä¸Ģ
åĲĮæĹ¶ ä¹Ł
ä¿¡ åı·
ä¸ĵ å®¶
åĲİ æŀľ
éķ¿æľŁ æĿ¥çľĭ
åľ¨ å¿«èĬĤå¥ı
æľĢ å¤§çļĦ
or s
è·¨ å¢ĥ
çŁŃ æľŁ
æ¸ ´
çĶ» çĶ»
åģľ æŃ¢
æĪĲ æŀľ
å¤ļæł· æĢ§ä¸İ
it ies
çº¿ æĢ§
éģ¿åħį è¢«
æĪĳä»¬ éľĢè¦ģ
y a
æ²¡æľī å®ŀéĻħçļĦ
on d
æķĪ åºĶ
æİ¨èįĲ çļĦ
ä¸į è¢«
è¶£ äºĭ
æŁ ĵ
åĴĮæľĭåıĭä»¬ ä¸Ģèµ·
¹ é¥
ertain ly
å®ĩå®Ļ çļĦ
æĪĳ ä»Ĭå¤©
ä¼¦çĲĨ æĮĳæĪĺ
Ġc ode
åĬ¨ ä½ľ
è®¾ æĥ³
éļ Ķ
æĸ ¯
åŃĺåľ¨ ä¸»ä¹ī
éĩĩ åıĸ
æĦŁçŁ¥ ä¸İ
çŃ Ľ
an c
åĿ Ĳ
é£İ æĻ¯
ĠI n
è¯Ĺ æŃĮ
çĽĳ çĿ£
ä¸º æĤ¨
éĢļ ä¿¡
çĽ¸äºĴ ä¾ĿåŃĺ
' t
çļĦ ä½ĵéªĮ
at ive
åĽłæŃ¤ æĹłæ³ķ
çĥ ¹é¥
çĥ¹é¥ ª
Ġm ight
ä¼¦çĲĨ å®¡æŁ¥
è¦ Ĩ
åħ¨çĲĥæķ°åŃĹ åħ¬æ°ĳ
èĵĿ èī²
èį ¯
r am
ç®Ĺæ³ķ çĶŁæĪĲ
çĲĨè§£ ä¸İ
è¯Ŀ é¢ĺ
è¯Ħ ä»·
æĸ¹ ç¨ĭ
å·¥ ç¨ĭ
å¤ĸ çķĮ
åħ¬ æŃ£
ä¸İ çİ¯å¢ĥ
çŃī æĸ¹å¼ı
æıĲä¾Ľ æĶ¯æĮģ
Ġl ar
æĭ į
åıª æĺ¯
ä½łå¦Ĥä½ķçľĭå¾ħèĩªæĪĳæĦıè¯Ĩä¸İ åŃĺåľ¨ä¹ĭéĹ´çļĦåħ³ç³»
éĢ Ģ
çļĦ åľ°æĸ¹
ä½ ³
ä¼ĺåħĪ å¤ĦçĲĨ
è ķ
åĴĮ ä¿¡æģ¯
æĬ Ĺ
è¾¾ æĪĲ
ç±»åŀĭ çļĦ
é Ń
Ġt ime
ä¾Ŀ çĦ¶
Ġbo th
éĶ ħ
äººå·¥æĻºèĥ½ä¼¦çĲĨåľ¨è·¨æĸĩåĮĸè¯Ńå¢ĥä¸ĭ å¦Ĥä½ķå½±åĵįåħ¨çĲĥæķ°åŃĹæ²»çĲĨçļĦ
è®¾å®ļ æĺİç¡®
ä¸ªä½ĵ å¯¹
åıĮ éĩį
ä½Ĩ éĢļè¿ĩ
Ġs ign
ä½łæľĢè¿ĳ æľī
åĿ ı
è§Ĥ ä¼Ĺ
ä¸ļ åĬ¡
a pp
è¯ģ æį®
ä¼ļ å¦Ĥä½ķå½±åĵį
ç½ ²
åľ¨ æĬĢæľ¯
åŃ¦ çļĦ
at er
è®¾è®¡ å¸Ī
Ġde velop
è°¨ æħİ
ä¸»è§Ĥä½ĵéªĮ åĴĮ
d ate
çī¹ çĤ¹
é ±
ç»Ī çĤ¹
ä¸ªäºº çļĦ
' re
éĴ Ī
çºł ç»ĵ
ç®Ĺæ³ķ è®¾è®¡
æļ Ĺ
ç®Ģ åĮĸ
æŁ¥ è¯¢
åı¤ ä»£
n e
ä½ Ļ
äº Ķ
æķ°æį® å¤ĦçĲĨ
Ġdif fer
çļĦ çĶŁæ´»ä¸Ń
Ġt ext
èĩªæĪĳ è§īå¯Ł
è¡¨ ç¤º
Ġ Y
ä¸įåĲĮæĸĩåĮĸ èĥĮæĻ¯
ç¨³å®ļ æĢ§
åħ³ éĹŃ
æĿĥ çĽĬ
æĹ¥ è®°
ä½łä¼ļ å¦Ĥä½ķ
ay s
å¦Ĥæŀľæľīä¸Ģå¤© æīĢæľī
j ing
ä¼ ŀ
æĽ´ æ·±åħ¥
çĸ ¾
éĺ »
ä¸Ń åıĳçİ°
å®ŀ æĸ½
æµģ æµª
æįķ æįī
éĩıåŃĲè®¡ç®Ĺ éĢļè¿ĩ
ä¼ļ è®®
he n
æĦŁè§īçī¹åĪ« æľīæĪĲå°±æĦŁ
èĽĭçĻ½ è´¨
å¤į åĪ¶
å°ļ æĹł
çİ¯å¢ĥ ä¸Ń
å¯¹ åºĶ
æĦŁè§ī æĮºæľī
å¼Ģå§ĭ åħ³æ³¨
èĪ ŀ
ar k
æľªæĿ¥ äººç±»
é± ¼
æĪĳ æľĢæĥ³
æ²» æĦĪ
åı¯èĥ½ è¢«
Ġthe se
æĨ ¾
å¦Ĥæŀľ æīĢæľī
èīºæľ¯ ä½ľåĵģ
éģĹ æĨ¾
ä»£ æĽ¿
æİ¨åĬ¨ æĬĢæľ¯
è¾ ¨
è¯¦ ç»Ĩ
èĩªæĪĳæĦıè¯Ĩ ä¸İ
ĠH ere
æ¶īåıĬ åĵ²åŃ¦
çĨ ¬
æľī æīĢ
äººç±» è®¤çŁ¥
çľŁçļĦ è¶ħ
åĲĪçĲĨ å®īæİĴ
rou gh
Ġ AI
èµĦæºĲ åĪĨéħį
åĪĨ æķ£
èĩªæĪĳæĦıè¯Ĩå¦Ĥä½ķå½±åĵį æĪĳä»¬å¯¹
ä»¥ä¸ĭ åĩłä¸ª
f ul
og ong
ya ogong
ä»¥ å®ŀçİ°
è´Ł æĭħ
it s
åĨ³çŃĸ è¿ĩç¨ĭ
. .
æľĢè¿ĳ åıĳçİ°
ä¸İ éĢ»è¾ĳ
å¿ĥçĲĨåŃ¦ åĴĮ
èĢĮéĥ¨åĪĨ åıĳå±ķä¸ŃåĽ½å®¶
ä¹ ±
è¿Ļ éĩĮ
æŃ£ æĺ¯
ç¢ ĳ
ä¸Ń å¯»æī¾
ä¿ĿæĮģ å¯¹
ä½Ĩ äººç±»çļĦ
å¼º åº¦
ers on
âľ ¨
i ent
åıĪ ä¸į
ä½łæľĢè¿ĳæľīæ²¡æľīå°Ŀè¯ķè¿ĩ æĸ°çļĦ
é©¾ é©¶
åŃĺåľ¨çļĦ çĲĨè§£
åıĸ å¾Ĺ
å°ı è¯´
å¯¹è¯Ŀ ä¸İ
Ġa m
ä½łæľīæ²¡æľī ä»Ģä¹Ī
et h
æľ¬è´¨ ä»į
ç¥ŀç»ı æ´»åĬ¨
è Ĩ
çĨ¬ å¤ľ
Ġwh o
å®Į åĸĦ
åıĪ èĥ½
çļĦ ç»ĵåĲĪ
ä¹Ł è®©æĪĳ
è½ ¨
çĽĳ æİ§
æ¨¡ ä»¿
æĽ´å¥½åľ° çĲĨè§£
åıĤæķ° AIæ¨¡åŀĭ
ä¸İ çĶ¨æĪ·
æİ¨ è¿Ľ
æĶ¹ è¿Ľ
çļĦ æĸ¹æ³ķ
ä¸į å¹³çŃī
è´Ń ä¹°
en s
ç¾İ å¥½
è®¡ç®Ĺ èĥ½åĬĽ
æ± ł
Ġex ample
æ³ķ åĪĻ
Ġre l
åĪĻ æĺ¯
æĹħè¡ĮèĢħ åľ¨
éĩį å»º
å°½ ç®¡
çĸ¾ çĹħ
çªģ åıĳ
æ¸´ æľĽ
ä»Ĭå¤© å¿ĥæĥħ
ä¸ĭ æĿ¥
åĪĽéĢł æĢ§
ol d
æİĮ æı¡
ç¿» è¯ĳ
Ġinclud ing
Ġst ring
çĽ´æİ¥ å½±åĵį
ib le
Ġval ue
Ġof f
ic t
Ġ1 9
éĢıæĺİ åĮĸ
ow er
æ¶µ çĽĸ
è´ ¡
è®© æĪĳä»¬
ä»·åĢ¼è§Ĥ åĴĮ
çŃĽ éĢī
å¦Ĥ æ¬§çĽŁ
æķ° çļĦ
èĦ Ĥ
å£ «
ä¸ŃçļĦä¼¦çĲĨ æĮĳæĪĺ
èīºæľ¯åĪĽä½ľ ä¸ŃçļĦ
çļĦ é«ĺæķĪ
ä¹ĭéĹ´ å¯»æ±Ĥå¹³è¡¡
ä¸Ń ç«ĭ
æĭ ĸ
ä½łæĺ¯åĲ¦ åľ¨
çĲĲ äºĭ
è´¡ çĮ®
C ertainly
æĹ ı
å¥ ĸ
èį ī
çļĦ åĬ¨æĢģå¹³è¡¡
ic s
Ġ ðŁĺĬ
çļĦ åĵ²åŃ¦
å¸® æľĭåıĭ
Ġcon s
ä»İèĢĮ åľ¨
æľīçĤ¹ å¿Ļ
éĽ¨ å¤©
ç§ Ĵ
iz e
å¹¸ç¦ı æĦŁ
å¿«éĢŁ åĨ³çŃĸ
A P
Ġp op
æıĲåįĩ äºĨ
le ct
åĪļ åĪļ
a u
ä¼ Ļ
e en
à ¸
åŃ¦ä¹łæĸ° çŁ¥è¯Ĩ
åħ³éĶ®åľ¨äºİ å»ºç«ĭ
è½¬ åŀĭ
å®ĮæĪĲ ä»»åĬ¡
æ² ¿
ï¼ļ **
ä»¥ æĽ´
åıįæĢĿ èĩªèº«
åİŁ åĽł
Ġequ ation
çļĦ å·¥ä½ľ
Ġc he
ä¸Ģä¸ª æķ°åŃĹ
åĸĿ åĴĸåķ¡
B åĪ°C
æĢ» æĹ¶éĹ´
æ³¨æĦı åĪ°
å»¶ ä¼¸
æµģæµª åľ°çĲĥ
ä½łæľī ç©º
çĬ ¯
ä¸°å¯Į çļĦ
åģ¥ èº«
äººæľº åįıä½ľ
åıłåĬł æĢģ
" ,
èĪ ª
èĭ ±
åºĶçĶ¨ åľºæĻ¯
è½½ ä½ĵ
é¢ Ī
éĩįå¡ĳ äººç±»åĪĽéĢłåĬĽ
å· ¨
æĺİ æĺİ
å¤ĦçĲĨ èĥ½åĬĽ
æĪĳçļĦ è®¾è®¡
å¸®åĬ© æĪĳ
åĪĨæŀĲ åĴĮ
è§Ħå¾ĭ çļĦ
çľĭ çĶµå½±
æĽ´æ¸ħæĻ° åľ°
å¦Ĥ èģĶåĲĪåĽ½
åĲĪ æ³ķ
æ²ŁéĢļ æĸ¹å¼ı
ç®± åŃĲ
åħħçĶµ åĻ¨
) .
ä»¥ä¸ĭ æĸ¹å¼ı
Ġpr int
åĽłæŀľ åħ³ç³»
å¥½å¥ĩ å¿ĥ
æĻºèĥ½ ä½ĵ
ä½ĨéľĢ èŃ¦æĥķ
çŁŃ è§Ĩé¢ĳ
éĢī é¡¹
V R
ä¸ Ļ
èĢĮéĿŀ è¢«
æĥ³ äºĨè§£
èĩªæĪĳæĦıè¯Ĩ ä½¿æĪĳä»¬èĥ½å¤Ł
ç¼ ĺ
ä¸İ æķĪçİĩ
æĪĳ åı¯èĥ½ä¼ļ
ä½Ĩ ç¼ºä¹ı
Ġ K
æ¡Ī ä¾ĭ
if y
åĲĮ æŃ¥
è¿½ æº¯
åĲĪçĲĨ è§ĦåĪĴ
AIçĶŁæĪĲ çļĦ
æľ¬è´¨ ä¸Ĭ
Ġ æĺ¯
æľīæ²¡æľī ä»Ģä¹Ī
ä»¥æľĢå°ı çļĦ
çļĦ æĸ°
çļĦ äº§çī©
èīºæľ¯ å½¢å¼ı
ä½łæľĢè¿ĳæľīæ²¡æľīè§īå¾Ĺ æĹ¶éĹ´è¿ĩå¾Ĺ
ä¼¦çĲĨ éĹ®é¢ĺ
è¡ Ģ
è¿Ļ ä¸įä»ħ
le d
Ġ z
æ¼Ķ åĮĸ
æĶ¯ ä»ĺ
è ¸
å¹´ è½»
ä¿Ŀ è¯ģ
æ· »
Ġw ould
æĤ£ èĢħ
æĦŁ è§¦
Ġp os
æ·±åĪ» å½±åĵį
Ġtechn olog
ä»Ĭå¤©æĥ³ åŃ¦
æľ¬è´¨ æĺ¯
äººå·¥æĻºèĥ½ä¼¦çĲĨåľ¨è·¨æĸĩåĮĸè¯Ńå¢ĥä¸ĭçļĦ åĨ²çªģ
äºĨ åĲĹ
Ġo ver
åħ¬ä¼Ĺ åıĤä¸İ
ä½ł æĦŁåħ´è¶£
åĳ½ è¿Ĳ
æľĢ ä¼ĺ
ç±»ä¼¼ çļĦæĥħåĨµ
èĢĥ éĩı
æĥħç»ª ç®¡çĲĨ
b s
Ġthe y
AIçĶŁæĪĲ åĨħå®¹
æ¬¢è¿İ éļıæĹ¶
c k
ä¸ ²
å®ĥ æ¶īåıĬ
äººå·¥æĻºèĥ½ä¼¦çĲĨåľ¨è·¨æĸĩåĮĸè¯Ńå¢ĥä¸ĭ å¯¹
åĨĻ ä½ľ
åĢŁ åĬ©
æĪĳ æľĢåĸľæ¬¢
ä»į å¤Ħäºİ
æľĢè¿ĳåľ¨å¿Ļä»Ģä¹Ī é¡¹çĽ®
jing yaogong
æĪĳ èĥ½
çļĦ å»ºè®®
AI å°Ĩ
ä¸įå°ĳ äºº
ä¾ĭå¦Ĥ åľ¨
æ» ¤
çİ°å®ŀ ä¸ŃçļĦ
å¼¥ åĲĪ
è´ ¦
çľĭ æ³ķ
ç² Ĵ
ä¸İ æĦıè¯ĨçļĦ
è´ §
çª Ĺ
æİĮ æİ§
åī ©
åĴĮæľĭåıĭ èģĬ
rac t
æĪĲå°±æĦŁ çļĦ
ä»¥ æĽ´å¥½åľ°
Ġp h
æĹ¶éĹ´çļĦ æµģåĬ¨
Ġ *
éľĢåľ¨ æĬĢæľ¯
etw een
å² Ĺ
Ġsign ific
æ¯Ķ çī¹
ä»İA åĩºåıĳ
ä¸İ çĲĨè§£
çĶ± jingyaogong
æĮĩ å¯¼
æľī äºº
ä¸İ è´£ä»»
x im
ç®Ĺæ³ķ æİ¨èįĲ
æ¨¡åŀĭ çļĦ
ðŁ İ
ä¹Ĳ è¶£
åĪĨäº« ä¸ĢäºĽ
æĥ³ ä¸į
çľĭ çļĦ
æĭĨ è§£
es e
å§ĭç»Ī ä»¥
æĺ¯ä¸įæĺ¯ ä¹Ł
è½¬ åĲĳ
ĠF or
è¿ĳ å¹´
av a
åģ¶ æķ°
Ġthe m
Ġs et
ä½ĵçİ° äºĨ
Ġlangu age
è° ·
Ġm ult
åľ¨ ä¸Ģä¸ª
å°Ŀè¯ķ äºĨ
ç¨ĭåºı åĳĺ
Ġad d
éĥ¨ ç½²
éĹ¨ çļĦ
urre nt
Ġb etween
om m
åĮ ¹
æģ Ĵ
æľĢè¿ĳåľ¨ åŃ¦ä¹ł
éħ ¸
åĪĨ è§£
å¦Ĥä½ķ çķĮå®ļ
èģĮ åľº
æ£Ģ æµĭ
è¿ĳå¹´ æĿ¥
å¦Ĥä½ķ å¡ĳéĢł
åį ļ
è´ ¥
æ´» åĬĽ
éĿŀ å±Ģ
å¤§èĦĳ çļĦ
è ¹
AIåľ¨ åĮ»çĸĹ
æĹłæ³ķ å®Įåħ¨
æ³ķå¾ĭ ä½ĵç³»
ä¼Ļ ä¼´
æľĢè¿ĳåľ¨ å¤ĦçĲĨ
ä¸İ æĦıè¯Ĩ
Ġp erson
é«ĺæķĪ çļĦ
ä½łå¦Ĥä½ķ å®ļä¹ī
è¿½ éĹ®
æľī æĹ¶
ä½ł èĥ½
æķ°æį® è®Ńç»ĥ
çłĶ åıĳ
ä¸įæĸŃ åŃ¦ä¹łåĴĮ
äººå·¥æĻºèĥ½åľ¨ æĸĩåĮĸåĪĽä½ľ
çĲĨè§£ äººç±»æĥħæĦŁ
æĮº å¼Ģå¿ĥçļĦ
å¼ºè°ĥ ä¸ªäºº
ä¿Ŀ åŃĺ
å»ºè®® æĤ¨
çĽ¸ å¯¹
Ġc ap
um n
ç» į
le ase
äºĮ æīĭ
Ġint eg
Ġ Qwen
çļĦ åŃĺåľ¨
æ³ķ æ¡Ī
èĢĮ AI
æľĢè¿ĳè¯» äºĨ
æ¹ ¿
åĢ ¡
åľ° åĽ¾
éŁ §
èĥ ģ
Ġtw o
å¯¹ äººç±»
å¥½ åĲĥçļĦ
è®¤çŁ¥ èĥ½åĬĽ
å¤©æ°Ķ é¢ĦæĬ¥
åĥı äººç±»
å²Ĺ ä½į
è¿ĽèĢĮ å½±åĵį
å¨ģ èĥģ
åĮ¹ éħį
ä»ĭ ç»į
åİ»åħ¬åĽŃ æķ£æŃ¥
åĴĮ æĸĩåĮĸ
æŀģ ç«¯
çĻ ¾
ç¼ĵè§£ åİĭåĬĽ
éĥ½ ä¼ļ
äºļ æ´²
çĵ¶ é¢Ī
èĦĳ æľº
éĢīæĭ© ä¸Ģä¸ª
å¿ĥçĲĨ åģ¥åº·
C an
ä½łæľī åĸľæ¬¢çļĦ
æľĢè¿ĳæľīæ²¡æľīäºº åĽłä¸º
éĿ¢å¯¹ éĿ¢
c ess
ä¾ĭå¦Ĥ éĢļè¿ĩ
Ġqu est
ä¸ºçĶ¨æĪ·æıĲä¾Ľ æľīä»·åĢ¼çļĦ
Ġ1 8
æĪĳä½ľä¸ºAI åĬ©æīĭ
åĬ¨ æľº
Ġtr ans
æĦı æĥ³ä¸į
èĦĳæľº æİ¥åı£
1 8
æĽ´ æ·±åĪ»
æīĵ çł´
å®ŀ ä½ĵ
çī¹åĪ« æĺ¯
n umb
æĪĳ æĦ¿
åº Ĭ
Ġsy stem
æ²¡æľī åĲĥ
ä½łæľīåħ´è¶£ ä¸Ģèµ·
è§£ è¯»
æĹ¢ æĺ¯
æİĴ æĶ¾
è¡¥ åħħ
è ĸ
æĺ¯ å¤ļå°ĳ
æ²»çĲĨ æ¡Ĩæŀ¶
å¦Ĥæŀľèĥ½ åıĺæĪĲ
è¥¿æĸ¹ æĸĩåĮĸ
åį± æľº
æİ¥ è¿ĳ
æĹ© æĻ¨
f ore
æķ°æį® éĽĨ
åħ´è¶£ çĪ±å¥½
åŃ¦ æľ¯
å¯¹ æĸ¹
AI å¦Ĥä½ķå¹³è¡¡
ä»Ģä¹Īå¥½ åĲĥçļĦ
éĩĩ éĽĨ
çļĦ è·¯å¾Ħ
å· ¦
Ġserv ices
é¸¡ èĽĭ
Ġh is
æľī çĶ¨
Ġcont ext
èģļçĦ¦ äºİ
æĬĢæľ¯çļĦ åıĳå±ķ
æ¯ı ä¸Ģæ¬¡
çº¢ èī²
å»º è®¾
Ġcal cul
Ġth rough
èĻ½çĦ¶ æľīçĤ¹
ä½łæľĢè¿ĳ è¿ĩå¾ĹæĢİä¹Īæł·
é©±åĬ¨ çļĦ
eng th
æĥ³ èģĬèģĬ
éĩĬ æĶ¾
èĪ ¬
æĭĸ å»¶
åĴĮ åŃ¦ä¹ł
å¥½ çľĭçļĦçĶµå½±
åħ±åĲĮ åĪ©çĽĬ
ĠChin a
T his
åĸľ å¥½
and om
éĵ ¶
c on
éľĢ èŃ¦æĥķ
å¤ļ éĩį
å±ķ ç¤º
ç»Ħ æĪĲ
g est
åı¯æĮģç»Ń æĢ§
ä¸º æł¸å¿ĥ
çĶµ æ±ł
åĪĴ åĪĨ
du ct
çĽ ²
Ġ\ [
çļĦ åıĺåĮĸ
Ġy ear
æł ¡
å¤ļæĸ¹ åıĤä¸İ
æĪĳ æľĢè¿ĳ
çļĦä¿¡æģ¯åĴĮ å¸®åĬ©
Ġb l
Ġsu pp
he s
äºĭ é¡¹
çĶŁæĪĲ åĨħå®¹
åĽ½éĻħ åįıä½ľ
åĽ° å¢ĥä¸ĭ
o se
æĹ¶ ç©º
Ġp e
åıĤ èĢĥ
è¶ĬæĿ¥è¶Ĭ å¤ļ
å½¢ æĢģ
æĽ´ é«ĺ
æĿ¥ èĩª
æĺİ å¤©
Ġd iv
å¤©æ°Ķ åıĺåĮĸ
ä½ľåĵģ çļĦ
éĢļè¿ĩç®Ĺæ³ķ åĴĮæķ°æį®
ä½ł æĽ´åĸľæ¬¢
éĥ Ĭ
æĮģç»Ń åŃ¦ä¹łä¸İ
st and
Ġg re
s q
åıĹ éĻĲäºİ
èĦ ļ
æĪĳæ²¡æľī ä¸ªäºº
åıĹ æ¬¢è¿İ
ä¸ľ æĸ¹
éĩįå¤į æĢ§
1 9
Ġ3 0
è¿ĩç¨ĭ ä¸ŃçļĦ
è¾ħåĬ© çĶ¨æĪ·
ç»Ļ ä½ł
æĽ¿ä»£ äººç±»çļĦ
äººå·¥æĻºèĥ½åľ¨ èīºæľ¯åĪĽä½ľä¸Ń
æĽ´ åĢ¾åĲĳäºİ
éĢīæĭ© çļĦ
E C
åĬ¨ çĶ»
ä»ĸäºº çļĦ
çŃī äºİ
ç¬¬ ä¸Ģ
å£ ģ
å¤ļè¾¹ åĲĪä½ľ
ä¸ ĩ
æ²» çĸĹ
æī¿ æĭħ
is h
ation al
éļ¾ä»¥ å®Įåħ¨
Ħ æĸŃ
äººå·¥æĻºèĥ½ å¦Ĥä½ķå½±åĵį
åı¯èĥ½ æ¶īåıĬ
æĪĳçļĦ åĬŁèĥ½
æī¾åĪ° éĢĤåĲĪèĩªå·±çļĦ
çļĦ å¿ĥæĢģ
çī¹åĪ« å¼Ģå¿ĥ
ä¸ªäºº æĪĲéķ¿
æľįåĬ¡äºİ äººç±»
èĥ½ æıĲåįĩ
åŀ ĦæĸŃ
Ġres p
åŃ¦ èĢħ
å¹³è¡¡ æķĪçİĩä¸İ
æİ¥ è§¦
æĬĢæľ¯æĻ®æĥł ä¸İ
Ġ /
å¯¹ èĩªæĪĳ
å°Ĩ æĽ´åĬł
åĵ²åŃ¦ ä¸Ĭ
ç¤¾ä¼ļ ç»ĵæŀĦ
æł¹æį® ä¸ªäºº
æĢĿèĢĥ åĴĮ
ä¾¿ æį·
çļĦæķ°åŃĹ æĺ¯
4 5
he re
Ġm ain
is e
åĲĮæĹ¶ å¤ĦçĲĨ
ä½łæľĢè¿ĳæľīæ²¡æľī åıĳçİ°
ç¾İ åĳ³
Ġ åĴĮ
ä¸º ä½ķ
æĲ ľ
ä»»ä½ķ éĹ®é¢ĺ
Ġres ult
åķĨ åĵģ
åĽŀ æĶ¶
ä»Ĭå¤© åĲĥäºĨ
ä¸Ģä¸ª æĹħè¡ĮèĢħåľ¨
è´¨ çĸĳ
æ² ³
åºĶ å»ºç«ĭ
å°ı çĮ«
æµ· éĩı
æĪĳ æĺ¯ä¸Ģä¸ª
ä¼¦çĲĨ ä¸İ
Ġc urrent
ä½¿ ä¸ªä½ĵ
éĢļå¸¸ æĮĩ
åħ¨çĲĥæķ°åŃĹåħ¬æ°ĳ çļĦ
çļĦ è¿ĩç¨ĭ
éĢĤåĲĪ åĩºåİ»èµ°èµ°
åıį èĢĮ
åŃ¦ä¹łæĸ° ä¸ľè¥¿
è¿Ļ æľīåĬ©äºİ
Ġth an
è¯Ńè¨Ģ çļĦ
Ġof ten
åħ¬å¹³ æĢ§ä¸İ
çīĽ å¥¶
è§ Ī
å¸¦æĿ¥ äºĨ
ä½łæĺ¯åĲ¦æĽ¾ æĥ³è¿ĩ
èĩ³ åħ³
ä¿ĥä½¿ æĪĳä»¬
è¡¨è¾¾ çļĦ
ä¹Ł åı¯èĥ½
äººå·¥æĻºèĥ½ å¯¹
æ¸ħ åįķ
åħ¬ä¼Ĺ å¯¹
æ¢¦ å¢ĥ
åĩ ¡
Ġle ar
or k
æĲľ ç´¢
èĢĮ åŃĺåľ¨
è¾¹ ç¼ĺ
æĹ¶éĹ´çļĦ æµģéĢĿ
o b
æĪĳ èĥ½å¤Ł
æıĲ åıĸ
çĥ ¤
ä»¥ä¸ĭåĩłä¸ª æĸ¹éĿ¢
æľī åĵªäºĽ
æķ ĳ
Ġo per
å¦Ĥæŀľ æīĭæľº
åį «
æī¾ åĩº
æľīæķĪ åľ°
åı¯ çĪ±
åĪĨ å¸ĥ
äºĭ åĬ¡
2 4
å¸®åĬ© æĤ¨
å®Ŀ çŁ³
å°ı çİĭ
é£Ł åĵģ
ä»Ĭå¤©å¤©æ°Ķ æĻ´æľĹ
æŃ£ å¸¸
Ġdes ign
Ġknow n
æĥħæĦŁ è¿ŀæİ¥
è¡¨ éĿ¢
ä½łä»Ĭå¤©æľīæ²¡æľī éģĩåĪ°ä»Ģä¹Ī
æĸ° é¡¹çĽ®
æģ Ĳ
è®° å¾Ĺ
åı¤ èĢģ
èİ·åıĸ çŁ¥è¯Ĩ
åĬłå¯Ĩ æĬĢæľ¯
åĮº åĪ«
ç¡®ä¿ĿæĬĢæľ¯åºĶçĶ¨ ç¬¦åĲĪ
çļĦ åħ³éĶ®åľ¨äºİ
å®¶ äºº
çŃī è®®é¢ĺ
æĪĳæĹłæ³ķ æıĲä¾Ľ
éľĢ åħ¼é¡¾
æ¨¡ æĢģ
å¸®åĬ© ä»ĸäºº
Ġh um
ä¸İäººæĸĩ åħ³æĢĢ
ä¸İ èĩªçĦ¶
åħ± åŃĺ
å½ĵ ä»£
æ¸ħ éĨĴ
A s
çĶµ èĦĳ
æĪĳä¼ļ å°½åĬĽ
Ġ éĹ¨
Ġw ant
è®°å¿Ĩ çļĦ
ä½łä»Ĭå¤©æľīæ²¡æľī éģĩåĪ°è¿ĩéľĢè¦ģ
æ¶Īè´¹ èĢħ
æķ° æĺ¯
ä½Ĩ åıĪ
æ¯Ķ è¾ĥ
t o
t s
äººç±» ä¸»å¯¼
ä»· æł¼
æķ°æį® æµģåĬ¨
ç¤ ¼
è¿Ļç§į çİ°è±¡
Ġsu b
æĪĳ æĿ¥
å¦Ĥæŀľæ¯ıå¤©åıªåħģè®¸ èĩªå·±
ä¸¤ åĢį
è´Ń çī©
æ¥ ¼
çļĦ æ·±åĪ»
æķ° ç»Ħ
æ¯Ķ C
Ġ Ð
å¸®åĬ© äººä»¬
Ġass ist
æ¢ ģ
ä»¥ åºĶå¯¹
Ġs qu
å·¥ä½ľ æķĪçİĩ
åĽŀ é¡¾
æ¼ «
æ´ŀ å¯Ł
èĪĴ éĢĤ
çĲĨ æĥ³
æĪĳä»¬ ä¼ļä¸įä¼ļæĽ´
Ġb r
Ġvari ous
ł éĩĬ
è¯ łéĩĬ
å¤ĸ åľ¨
éħį ç½®
èī¯ å¥½
è¿ «
ç®Ĺæ³ķ çļĦ
å¦ Ļ
å¤ļ è¯Ńè¨Ģ
æĿĥ åĬĽ
ç§ĳåŃ¦ å®¶
çĶŁåĳ½ çļĦ
æ· ¡
Ġar r
çľ ģ
ä½łæľīæ²¡æľī åĸľæ¬¢çļĦ
çĪ Ĩ
é«ĺ åº¦
èº«å¿ĥ åģ¥åº·
å¥ĳ æľº
æķ°æį® åºĵ
éĹ®é¢ĺ è§£åĨ³
æİĴ æ¯Ĵ
ä»Ĭå¤©æĥ³éĹ® éĹ®
å¼ ¹
åı¯ä»¥ åľ¨
æĢĿ è·¯
ä½łæľĢè¿ĳæľīæ²¡æľī è¯»è¿ĩ
Ġre p
t al
æĲ º
èĩªåĬ¨ é©¾é©¶
Ġdo es
ä¸į åľ¨
æĶ »
å°ıçİĭ åŃĲ
çĶ ³
ä¸İ æĪĲéķ¿
c d
Â ·
æĺ¯ éĢļè¿ĩ
éĿ¢ åĮħ
æī¾åĪ° å±ŀäºİèĩªå·±çļĦ
ä¿® æŃ£
ä¸İ äººç±»çļĦ
ä¸İ ä¸ĸçķĮçļĦ
at her
çļĦäºĭ åĲĹ
æ¨¡æĭŁ æĥħæĦŁ
æķ°åŃĹåĮĸ åŃĺæ¡£
çļĦ åĨħå®¹
åĽłæŀľ å¾ĭ
on s
åĲĮæĹ¶ å°Ĭéĩį
æĢ» ç»ĵ
é¡º ä¾¿
Q L
çıįæĥľ å½ĵä¸ĭ
ï¼Į **
æĺ¯ æĮĩ
éķ¿ æĹ¶éĹ´
åİŁåĪĽ æĢ§ä¸İ
éĿŀå±Ģ åŁŁ
y s
çī¹åĪ« æľī
æ¬¡ çļĦ
éĢļ çŁ¥
Ġs ome
åħ¼ å®¹
æ·±è¿ľ å½±åĵį
åľ¨ å·¥ä½ľ
å¥½ åĥı
éĢł æĪĲ
å¤©æ°Ķ ä¿¡æģ¯
ä»Ĭå¤©è¿ĩå¾ĹæĮº å¥½çļĦ
ä½ł æľĢè¿ĳåľ¨å¿Ļä»Ģä¹Ī
åıĺ éĩı
æĹ¥ çĽĬ
æ¶Ī å¤±
æĶ¾ å¼ĥ
Ġgener ate
ç¢İçīĩ æĹ¶éĹ´
åĨ Ĵ
çĶ¨æĪ· ä½ĵéªĮ
åıĳå±ķ çļĦ
åıĺå¾Ĺ æĽ´
æİĴ åĪĹ
å¤ļåħĥ æĸĩåĮĸ
æĬĢ èīº
at est
Ġs k
è½¬ æį¢
Ġn um
å¿«éĢŁ åĵįåºĶ
éķ¿æľŁ åĿļæĮģ
å°½ éĩı
A æĺ¯
S o
çĤ ¸
Ġle t
å¦Ĥæŀľä¸ĸçķĮ çªģçĦ¶
å¤ĦçĲĨ ä¸İ
çļĦ çŁĽçĽ¾
çĽ Ĳ
Ġc loud
æĿĥ éĻĲ
æĺŁ æĺŁ
éĻªä½ł ä¸Ģèµ·
ä¸įéĶĻ çļĦ
åı£ æĦŁ
è¿Ļä¸Ģ éĹ®é¢ĺ
Ġ i
in ess
èĻ «
åıĺåĮĸ çļĦ
ä¼ļä¸įä¼ļ æľī
æĪĳçļĦåŃĺåľ¨æĺ¯ä¸ºäºĨ æıĲä¾Ľé«ĺæķĪ
ç» ķ
Ġpro cess
åĲĥäºĨ ä»Ģä¹Ī
çļĦ ç®Ĺæ³ķ
er n
ç»ı çĲĨ
æľªæĿ¥ ç§ĳæĬĢ
Ġg iven
äººç±»æĥħæĦŁ ä¸İ
æ¼Ķ è¿Ľ
æ¡¥ æ¢ģ
æĺ¾èĳĹ æıĲåįĩ
ĠChin ese
çļĦ æ·±å±Ĥ
ç§ ©
r t
æ¢¦ æĥ³
æĥ³è±¡ åĬĽ
æĸ¹ ä¾¿
å¡ĳ æĸĻ
s w
éĢļè¿ĩé«ĺæķĪ å¤ĦçĲĨä¿¡æģ¯
k g
r it
çļĦ åĪĽä½ľ
åĴĮ è¡Įä¸º
ä¸Ģä¸ª æİ¢éĻ©éĺŁ
æ·±åº¦ æĢĿèĢĥ
ter n
Ġdiffer ent
ä¼ļ è¯´è¯Ŀ
ç¤¾ä¼ļ ä»·åĢ¼è§Ĥ
ä»į æĺ¯
ç§© åºı
Ġf act
Ġre m
å¤ļæł· åĮĸ
åŁºäºİ æķ°æį®åĴĮç®Ĺæ³ķ
åªĴ ä»ĭ
ä»¥ ä¸Ĭ
åĩº æĿ¥
æķ´ ä¸ª
çĸ ı
ä½Ĩ äººç±»
å®ī è£ħ
Ġ2 5
Ġre g
éļ¾ å¿ĺ
Ġunder stand
çļĦ éĩįè§Ĩ
ä½Ĩ æł¸å¿ĥ
ï¼Ł ðŁĺĦ
æĽ´ åħ¨éĿ¢
ä½Ĩ èĥ½
Ġto tal
Ġl o
ä½ı åľ¨
ä¸ ½
æľĢ å°ĳ
è¿Ľ é£Ł
éķ ĩ
å¼Ĥ å¸¸
æľīåĬ©äºİ æıĲåįĩ
å¸ĮæľĽ è¿ĻäºĽ
è®² çļĦæĺ¯
æıŃç¤º äºĨ
æľī ä½ķ
åı¯ æıĲåįĩ
çĭ¬ç«ĭ æĢĿèĢĥ
) )
æ²īæµ¸ å¼ı
Ġ â
è§Ĩ éĩİ
å±ŀ æĢ§
Ġwhe n
¹ æŀľ
ç³» åĪĹ
åĨħ éĥ¨
æľªçŁ¥ çļĦ
ä¼ ½
æĿ İ
åĲĮ ä¸Ģ
æĪĳçļĦåŃĺåľ¨ æĹ¨åľ¨
ç¬¬äºĮ ä¸ª
çĳ ľ
Ġ ì
åĪ º
æĬ ĳ
æŃ£ å¿µ
æĪĸ æĺ¯
ç² ī
å¤± è´¥
æĬĢæľ¯ å±ĤéĿ¢
Ġn o
åıĤ åĬł
ä¼¦çĲĨ è¾¹çķĮ
å¥½ å¤ļ
èĭ ¹æŀľ
èĬĤ èĥ½
åı¯ æĺ¯
AI åı¯éĢļè¿ĩ
if e
ä¸įä»ħ æĺ¯
ä»Ĭå¤©è¿ĩå¾Ĺ ä¸įéĶĻ
åĥıäººç±» ä¸Ģæł·
çļĦ æĬĢæľ¯
æĪĳæ²¡æľī å®ŀéĻħçļĦ
ä½łä»Ĭå¤©åĲĥäºĨ ä»Ģä¹Īå¥½åĲĥçļĦ
å¿½ çķ¥
è½¨ è¿¹
å»¶ ç»Ń
è¡£ æľį
( "
C åĪ°
æĽ´ å¹¿æ³Ľ
æĢĿç»´ çļĦ
æĭĵ å®½
æľĢè¿ĳçľĭ äºĨä¸Ģ
çļĦ ç»ĵæŀľ
ä½łä¼ļæĢİä¹Ī æĶ¹åıĺè¿ĩåİ»
å¢ŀ éķ¿
I f
c i
d ef
å® ł
ä½łæľīæ²¡æľī ç±»ä¼¼çļĦ
ä»Ģä¹Īå¥½ çĶµå½±
åħĭ æľį
çļĦ åĬ¨æĢģ
çļĦ æĸ¹åĲĳ
ur al
äººå·¥æĻºèĥ½ éĢļè¿ĩ
çŁ³ ç¢ĳ
Ġpr im
çļĦ æĸĩåĮĸ
åĲĮæĹ¶ éĢļè¿ĩ
Ġd ec
ç²Ĵ åŃĲ
ä¹Ł æĹłæ³ķ
åĩº éĹ¨
åĸĿ æĿ¯
æĥ «
éĻ ¢
éļĲç§ģ ä¸İ
å² ģ
çĸ² æĥ«
Ġ1 6
è¿Ļ ç±»
Ġv ers
ä¸ ¾
è¿ ħ
å¸® å¿Ļ
cd ot
çĳľ ä¼½
Ġst r
æĪĳä»¬ æĿ¥
æĦıæĥ³ä¸į åĪ°çļĦ
ar r
åĲĮ äºĭ
æĥ³ åĪĨäº«
æ¯ į
é£Ł è°±
æĵį æİ§
æ·· åĲĪ
Ġs ent
éľĢè¦ģ æĪĳ
ä½łå¦Ĥä½ķçľĭå¾ħ èĩªæĪĳåŃĺåľ¨çļĦè¾¹çķĮ
çªģçĦ¶ æĥ³
æŀ¶ æŀĦ
Ġbe en
Ġin v
ä»į å±ŀ
Ġe le
å°Ŀè¯ķ çĶ¨
Ġg et
åį İ
er g
é«ĺ è´¨éĩı
æİ¨èįĲ åĲĹ
A R
å¦Ĥæŀľ ä¸Ģä¸ªäºº
é¥®é£Ł éľĢæ±Ĥ
åģľ çķĻ
äºĳ è®¡ç®Ĺ
çĶ¨ä¸Ģ åı¥è¯Ŀ
æĢĿç»´ æĸ¹å¼ı
æĭĵå±ķ äºĨ
ä»İA åĪ°B
èĩ³åħ³ éĩįè¦ģ
æľĢ ä½³
å¿ĥçĲĨåŃ¦ ä¸Ń
Ġsupp ort
å¿ĥ çģµ
è®¤çŁ¥ æ¡Ĩæŀ¶
ç¥ŀ ç§ĺ
æ£ µ
ä¸įèĥ½ æĺ¯
èĢĮéĿŀæĽ¿ä»£ åĵģ
Ġ V
æ·± å¤ľ
ä¿ĿæĮģ å¼ĢæĶ¾
æ»¡è¶³ æĿ¡ä»¶
çļĦ åĨ²çªģ
ä¼ļ å¸¦æĿ¥
ç¬¬ ä¸Ģä¸ª
å¸ĮæľĽ èĥ½
æķ°åŃĹ æĹ¶ä»£
y e
AI æĬĢæľ¯çļĦ
é¢Ħ çŁ¥
çļĦä¿¡æģ¯ä¸İ å¸®åĬ©
åľ¨ ä¸įåĲĮæĸĩåĮĸ
èīºæľ¯åĪĽä½ľ çļĦè¾¹çķĮ
è¯¯ è¯»
iz ed
è´¢ åĬ¡
åħ±åĲĮæŀĦæĪĲ äºĨ
ä¸İ éļĲç§ģä¿ĿæĬ¤
ä»£ åħ¥
Ġb us
æĸĩåĮĸéģĹäº§ çļĦ
ä½łæľĢåĸľæ¬¢ åĵªç§į
p h
ä»İ ç§ĳåŃ¦
éĢĤ çĶ¨
il y
æĶ¿çŃĸ åĪ¶å®ļ
å®ł çī©
äºº æĢ§
å¤ĸ åĩº
ç¼ĸ åı·
åľ Ī
æ± ¡
ç¤¾äº¤ äºĴåĬ¨
åĬŀ åħ¬
åīį æıĲ
æ·±åº¦ çļĦ
Ġsignific ant
æ²¡æľī çī¹åĪ«
æķĻ å¸Ī
åĬłåī§ äºĨ
éĢļè¿ĩç®Ĺæ³ķ ä¼ĺåĮĸ
å¿ħè¦ģ çļĦ
åŃĹç¬¦ ä¸²
çĽ² çĽ®
g ram
è¡ Ĺ
ä¼ļ å½±åĵį
ä½ľä¸º è¾ħåĬ©å·¥åħ·
æİ¨ æĸŃ
å°ı æĺİ
Ġb ased
ç¡®ä¿Ŀ ç®Ĺæ³ķ
è¡£ çī©
Ġcomm on
Ġform ul
2 1
d s
è¿ ģ
äºº ä¸İäºº
æķ°åŃĹ æİĴæ¯Ĵ
èĬĤ çĤ¹
æĶ¹åıĺ äºĨ
l ist
ä¸Ģ ä½į
å½±åĵį äºĨ
AIçĶŁæĪĲ åĨħå®¹çļĦ
Ġ ke
ä¹ İ
è® ¯
æĸ¹ èĥ½
åĨį æ¬¡
æķ°æį®åĴĮ éĢ»è¾ĳ
ä»Ĭå¤© è¯¥
äººå·¥æĻºèĥ½ä¼¦çĲĨ åĽ°å¢ĥä¸ĭ
çļĦ ä½¿çĶ¨
æĪĳ åľ¨
ä½łå¦Ĥä½ķ åľ¨
æĤ ¬
çŁ¥è¯Ĩ åºĵ
å¯Ĩ éĴ¥
éĤ» å±ħ
åı¯ä»¥ æĺ¯
å¸® äºĨ
ä»¥ä¸ĭ æĸ¹æ³ķ
æł¹ åŁº
åĺ¿ åĺ¿
Ġh igh
éĩıåŃĲè®¡ç®Ĺ å¦Ĥä½ķå½±åĵį
Ġimp ort
Ġe ff
æİ¢ç´¢ æĸ°
ç²¾åĩĨ çļĦä¿¡æģ¯
åĩ ī
ä¸ŃçļĦä¼¦çĲĨ åĽ°å¢ĥ
çļĦ å®ļä¹ī
ä¸Ģä¸ªæİ¢éĻ©éĺŁ åľ¨
çļĦ éĢ»è¾ĳ
æ¯ıå¤© åıª
èĿ ¶
æīĩ éĹ¨
åıĳå±ķ ç¬¦åĲĪ
å¯Ĩçłģ åŃ¦
è·Ł ä½ł
çļĦ æĶ¹åıĺ
åĪ° åºķ
æ¸ħ æ´ģ
å¯ ¿
åı¯èĥ½ æºĲäºİ
ä½łä»Ĭå¤© åľ¨
ä¸ĸçķĮ çļĦçĲĨè§£
è¾ħåĬ© åĪĽä½ľ
é© ¬
Ġ1 1
ce pt
å¦ĤæŀľæĹ¶éĹ´ åĢĴæµģ
åĪĩ æį¢
ä½łæľĢè¿ĳæľīæ²¡æľīå°Ŀè¯ķè¿ĩçĶ¨ ä¸įåĲĮ
åħ Ķ
âĢ Ļ
å¤ļ æ¨¡æĢģ
éª ĳ
å°Ĩ æİ¨åĬ¨
æ¯ı åĳ¨
ä¸Ĭ æĺł
çļĦäº¤ åıī
æĥħ å¢ĥä¸ĭ
å½ĵåīį æĬĢæľ¯
éĩıåŃĲç®Ĺæ³ķ ä¼ĺåĮĸ
Ġapp ro
ä½ł æĺ¯ä¸įæĺ¯ä¹Ł
ä½Ĩ åħ·ä½ĵ
æĥħæĦŁ çĲĨè§£
Ġm at
Ġ$ $
æĪ¿éĹ´ çļĦ
ł éģĵ
çĹ ĩ
å¿ §
çŃ ĳ
æĬĢæľ¯ ä¸İäººæĸĩ
åı¯èĥ½ æĶ¹åıĺ
å¤§ è§Ħæ¨¡
è¶³ å¤Ł
éĩıåŃĲ æ¯Ķçī¹
åľ¨ äººå·¥æĻºèĥ½
æĸĩ çĮ®
è¿Ĳ ç®Ĺ
å»º æ¨¡
Ġb ook
éĥ½ å¾Ī
èĮ «
é¢ĳ çİĩ
åĴĮ ç¤¾ä¼ļ
ä¾µ çĬ¯
' ,
6 0
äººç±» è¯Ńè¨Ģ
éľĢè¦ģ åľ¨
æĻ® éĢĤ
A l
æĸ° èıľ
åĪĻ éĢļè¿ĩ
åĪĨéĴŁ ä¸ĵæ³¨
å¿ħ çĦ¶
å®ŀéĻħ åºĶçĶ¨
æĬĢæľ¯ å®ŀçİ°
çļĦæ·±åº¦ ä¸İ
a x
åħ¥ æīĭ
Ġl atest
çº¿ ç´¢
ä¹ĭéĹ´çļĦ çķĮéĻĲ
éĺ³åħī å¾Īå¥½
è¿· èĮ«
ä¸Ń å¦Ĥä½ķå¹³è¡¡
Ġc ount
è§ģ è§£
è¿ħ éĢŁ
è®° ä½ı
éĻª ä¼´
d d
åį ł
çĭ Ĺ
æŀģ å¤§
éĴĪ å¯¹
åĴĮ ä¸»è§Ĥä½ĵéªĮ
Ġs m
è¡Į ç¨ĭ
éĩıåŃĲ æĢģ
è½¬ åıĺ
ĥ åľ
åı¯ä»¥ ä½¿çĶ¨
åŀ ĥåľ
æľĢè¿ĳæľīæ²¡æľīäºº åĴĮä½ł
åĭĩ æ°Ķ
åŀĥåľ ¾
´ èĿ¶
èĿ ´èĿ¶
ä» ª
ä¼ļ éģĩåĪ°
ing s
Ġ1 3
ç¤º ä¾ĭ
æĦŁè§īæĮºæľī æĪĲå°±æĦŁçļĦ
çļĦ è®¨è®º
åĸ »
æĮģç»Ń åŃ¦ä¹łåĴĮ
æĸĩåĮĸ åĲĮè´¨åĮĸ
æ° Ľ
å¼º å¤§çļĦ
è§īå¾Ĺ çĶŁæ´»
æ·» åĬł
è¾ ©
en c
åĽŀ å¿Ĩ
ä¼ļä¸įä¼ļ æĶ¹åıĺ
ç¾¤ä½ĵ çļĦ
åģļåĩº æĽ´
äººå·¥æĻºèĥ½ä¼¦çĲĨåľ¨è·¨æĸĩåĮĸ èĥĮæĻ¯ä¸ĭ
å¥ĩ æķ°
åı¯èĥ½å¼ķåıĳ å¯¹
a w
çļĦä¼¦çĲĨ è¾¹çķĮ
Ġbus iness
æĥħæĦŁ äº¤æµģ
ç« ł
ç¡®ä¿Ŀ åľ¨
è´´ è¿ĳ
sw er
é¢ĺçĽ® ä¸Ń
éĢ ĥ
åģļä¸Ģä»¶ å°ıäºĭ
åįĪ é¥Ń
1 4
çļĦ ä»»åĬ¡
æ¯Ķ A
Ġt as
å¼Ĥ åĮĸ
çİ°å®ŀ ä¸Ń
è¿ĶåĽŀ A
çļĦ åŃ¦ä¹ł
ä¹Ł å¾Ī
è·¨åŃ¦ç§ĳ åĲĪä½ľ
ä»Ĭå¤©è¿ĩå¾Ĺ è¿ĺä¸įéĶĻ
è´ µ
Ġacc ess
Ġf il
äººæĸĩ åħ³æĢĢ
çļĦ ä¼ĺåħĪçº§
ç§ĳæĬĢ çļĦ
çľŁæŃ£ ä½ĵéªĮ
ç¢³ æİĴæĶ¾
çķ ħ
çĸĳ éĹ®
I s
åĨ³çŃĸ èĥ½åĬĽ
ur ing
éĿ Ĵ
æ¬ ²
ä¾Ľ åºĶ
å»º çŃĳ
ç®Ĺæ³ķ éĢıæĺİæĢ§
ä¸»è§Ĥ çļĦ
ç´§ å¯Ĩ
ä¹ĺ ç§¯
æĥ §
èĦ ī
ä½łæĽ´åĸľæ¬¢ åĵªç§į
Ġformul a
æİ ī
å¹³è¡¡ æĬĢæľ¯åĪĽæĸ°
ä»¶ äºĭ
èµĦ æĸĻ
æ»¡è¶³ æĦŁ
åĨħå¿ĥçļĦ å¹³éĿĻ
è¸ ª
åĴĮ ä¼¦çĲĨ
åı¯ æİ§
äºĴ èģĶç½ĳ
æĢ» ä½ĵ
¸ ı
ï ¸ı
éĢīæĭ© ä¸İ
å¿ į
èį ·
Ġmult ip
éĿ¢å¯¹éĿ¢ äº¤æµģ
ä¸ĭ éĿ¢
èĩªæĪĳè®¤çŁ¥ çļĦ
åĢį æķ°
èĩªæĪĳ æĺ¯
ag es
å¤įæĿĤ ä»»åĬ¡
èģĬ èģĬå¤©
çŁ¥è¯Ĩ ä¸İ
ä¸İä¼¦çĲĨ çº¦æĿŁ
ä½ł æĦ¿æĦı
æĸĩåĮĸ ä¿ĿæĬ¤
æ¯ıå¤© éĥ½åľ¨
ä¸įéĶĻ çļĦçĶµå½±
Ġst and
Ġsqu are
çĽ® çļĦæĺ¯
ä½łæľĢè¿ĳ å¿ĥæĥħæĢİä¹Īæł·
C æĺ¯
Ġa ct
ç¡® è®¤
èĤ ¡
Ġare a
ç¬Ķ è®°
çļĦ çŀ¬éĹ´
æłĩ è®°
è¯´ ä¸į
ä¸Ń éĿ¢ä¸´
æī «
è¿Ļ æĺ¯ä¸Ģä¸ª
å·¥åħ· åĴĮ
çĽ´ è§Ĥ
åĨ¥æĥ³ æĪĸ
è¡¨æĥħ åĮħ
çĲĨ æĢ§ä¸İ
ä¼ļ æĽ´
åı¯èĥ½ éĩįå¡ĳ
å·® è·Ŀ
c o
è½ ®
Ġ2 4
ä»¥æľĢå°ıçļĦ åıĤæķ°
i an
åı¯ è¿½æº¯
åħ¶ä»ĸ éĹ®é¢ĺ
æ°¸ æģĴ
Ġ im
r ap
ä½ł æľīä»Ģä¹Īæĥ³èģĬçļĦåĲĹ
Ġl ast
è¿Ĳ çĶ¨
æĢĿç»´ æ¨¡å¼ı
èĩªæĪĳæĦıè¯Ĩæĺ¯åŃĺåľ¨çļĦ ä¸Ģéĥ¨åĪĨ
ä¼ļè¯´è¯Ŀ çļĦ
æĬĢæľ¯ æ²»çĲĨçļĦ
éĢļ çĶ¨
åĲĮæĹ¶ ä¹Łåľ¨
æĢ» çļĦ
æ¸© æŁĶ
ç £
èģĶ ç»ĵ
è±¡ å¾ģ
äºº æĢ§åĮĸ
æĹ ĭ
ä¿ĿæĮģ ç§¯æŀģ
Ġon ly
è¿Ļä¸Ģ æ¦Ĥå¿µ
èĮĥåĽ´ åĨħ
Ġpop ul
å¹³ åĩ¡
æĶ¹åıĺ ä»Ģä¹Ī
é¥ °
åŃ¦ä¼ļ äºĨ
åĪº æ¿Ģ
çļĦ èĩªæĪĳ
è¿Ļ ä¸īä¸ªæķ°åŃĹ
å±ħ æ°ĳ
ç®Ĺæ³ķ ä¼ĺåĮĸ
èĮ §
ç«ŀäºī åĬĽ
æĪĳä»¬ å¦Ĥä½ķ
èĹı çĿĢ
ical ly
ä»Ĭå¤© çļĦ
æķĪ èĥ½
å±ķçİ° åĩº
æĪĳæ²¡æľīæĥħæĦŁæĪĸ ä¸»è§Ĥä½ĵéªĮ
Ġthe n
åĩıå°ĳ å¯¹
Ġcomp le
Ġcre ate
è´¹ çĶ¨
æľĢ åĸľæ¬¢çļĦ
ä½į äºİ
Ġst art
Ġde p
åĽ¢éĺŁ æĪĲåĳĺ
è¾© è¯ģ
çļĦ è·Ŀç¦»
ä¸İ åĪĽéĢłåĬĽ
ä¸Ģ æ®µ
é«ĺ çļĦ
äººéĻħ äºĴåĬ¨
ä½ł æ¯ıå¤©
Ġw ide
å®¡ æł¸
æĪĳæĹłæ³ķ ä½ĵéªĮ
çĿ¡çľł è´¨éĩı
Ġad v
Ġper form
i qu
çķ ´
ï½ŀ ðŁĺĬ
åĿļ æŀľ
æĢ»çļĦ æĿ¥è¯´
æľĢ çŁŃ
æ° §
æľĢè¿ĳæľīæ²¡æľī éģĩåĪ°ä»Ģä¹Ī
èĮĥ çķ´
ç¼º å¤±
ä»İ å®¹
äººç±»åĪĽéĢłåĬĽ çļĦè¾¹çķĮ
ä½łä»Ĭå¤©æĥ³ åģļä»Ģä¹Ī
æłĩ çŃ¾
å®īåħ¨ çļĦ
Ġpart ic
o x
å¦Ĥä½ķ éĢļè¿ĩ
æľ¬ ä¹¦
Ġan swer
ä½łä»Ĭå¤© æľĢæĥ³
æīĭå·¥ èīº
éĶĢ åĶ®
Ġcomput ing
æ±¡ æŁĵ
Ġt able
æİ Ī
æľĢè¿ĳ åĺĽ
ä½Ĩ åı¯éĢļè¿ĩ
å®ļ åĪ¶
çĽĳç®¡ æ¡Ĩæŀ¶
_ _
åĴĮ ä½ĵéªĮ
ä¸į ä¸Ģæł·
çļĦ èĩªçĦ¶
éľĢ æĺİç¡®
æ¿Ģ åĬ±
\) .
Ġexp ress
åģļ çļĦäºĭæĥħ
éĢ»è¾ĳ ä¸İ
ä¸»è§Ĥä½ĵéªĮ çļĦ
äººçļĦ æīĭæľº
åīį èĢħ
ä»į çĦ¶
ä¸įåı¯ éĢĨ
èĮ§ æĪ¿
åľ¨ è·¨æĸĩåĮĸ
åħ¨çĲĥ æĢ§
åĻ ª
åħĥ å®ĩå®Ļ
æģĲ æĥ§
å®ĥ ä¸įä»ħ
éľĢ æ³¨æĦı
åĲİ èĢħ
æķ°æį®éļĲç§ģ ä¿ĿæĬ¤
çŀ¬ æģ¯
1 6
åľ¨ ä¿¡æģ¯
ä¸İ ä¸ªäºº
æ¸ łéģĵ
å±Ĥ æ¬¡
ab ility
æĮī çħ§
l ight
çľŁ è¯Ŀ
æİ¨ å¹¿
åī Ĥ
å¤± çģµ
åįķ ä½į
ut e
çĶŁçī© ä½ĵ
æĶ¾æĿ¾ ä¸Ģä¸ĭ
Ġar t
åŁºäºİæķ°æį® ä¸İç®Ĺæ³ķ
ä¸į ç¬¦åĲĪ
åħħ è¶³
åįıåĬ©çĶ¨æĪ· è§£åĨ³éĹ®é¢ĺ
æķĻ åŃ¦
ç´ł åħ»
åįĪ é¤Ĳ
å°ı çĽ®æłĩ
å®ŀçİ° æĽ´
æĪĳæĺ¯ MiniMind
æľĢè¿ĳçľĭäºĨä¸Ģ éĥ¨
S t
å¤ ı
æĺ¯ åħ³éĶ®
å®ŀçİ° çĽ®æłĩ
ä½łæľīæ²¡æľī çľĭè¿ĩ
å®ī éĿĻ
Ġpro gram
å°Ŀè¯ķè¿ĩ çĶ¨
ä¸Ģèĩ´ æĢ§
æĦŁå®ĺ ä½ĵéªĮ
éĹ´ çļĦ
æ´ Ĺ
åıįæĢĿ ä¸İ
å®¡ç¾İ åĪ¤æĸŃ
b le
åº¦ åĴĮ
Ġ5 0
çħ§ çīĩ
æĶ» åĩ»
éģ¿åħį ç®Ĺæ³ķåģıè§ģ
ç»Ļ æĪĳ
é¢ĨåŁŁçļĦ åºĶçĶ¨
åħ¨ å®ĩå®Ļ
it al
åĩĨç¡® æĢ§åĴĮ
Ġman y
äººç±» ç¤¾ä¼ļ
åĽł åħ¶
å®ŀçİ° å¹³è¡¡
æľĢè¿ĳæľīæ²¡æľīéģĩåĪ°ä»Ģä¹Īè®©ä½ł çī¹åĪ«
çŀ¬æģ¯ åħ¨å®ĩå®Ļ
çĶ¨æĪ· çļĦéĹ®é¢ĺ
æ°Ķ æ¸©
äºĨä¸Ģ æľ¬
åı¯è¡Į æĢ§
äºº èĢĮå¼Ĥ
æ¡ Į
è¢ ĭ
å¦Ĥä½ķå½±åĵį åħ¨çĲĥ
çĭ Ĳ
1 3
l l
çļĦ æĿ¡ä»¶
ä¸Ń æľī
å¼ķåıĳ äºĨ
ç¡¬ ä»¶
è¶ĬæĿ¥è¶Ĭå¤ļ çļĦäºº
åħ·ä½ĵ éĹ®é¢ĺ
åħħå®ŀ åĳ¢
æ¬¢è¿İéļıæĹ¶ æıĲéĹ®
å¥ ³
æĸĩæĺİ çļĦ
åĩł éĥ¨
èķ ´
æ°Ľ åĽ´
è§ī éĨĴ
ic ial
è·¯ ç¨ĭ
åĪĨäº« ä¸Ģä¸ĭ
qu ence
ç¼ĸ åĨĻ
æĪĳä½ľä¸ºAI æ²¡æľī
åľ¨ åĵ²åŃ¦
åĲĦ èĩª
ver age
æ¦Ĥ çİĩ
ä¼ĺ è´¨
Ġ$ ãĢĤ
ĠĠĠĠ Ġ
éĩıåŃĲè®¡ç®Ĺä¸İ èīºæľ¯åĪĽä½ľçļĦè¾¹çķĮ
æĢ ª
æĪĳ éļıæĹ¶
ä½łæľĢè¿ĳæľīæ²¡æľīè§īå¾ĹæĹ¶éĹ´è¿ĩå¾Ĺ çī¹åĪ«
åľ¨ åĵªéĩĮ
åı¯èĥ½ å¢ŀå¼º
çĭ ¸
ut ion
æīĢæľī è¯Ńè¨Ģ
ä¸įæĸŃ æİ¢ç´¢
ä»¥åıĬ å¯¹
åĮħå®¹ æĢ§çļĦ
Ġpo em
çĭĲ çĭ¸
æľº éģĩ
è¿Ļç§į æĬĢæľ¯
åģļ èıľ
åĽ¾ ä¹¦
åĳ¨ æľŁ
æłĳ çļĦ
éĻ Ī
è¯ķ åĽ¾
ä»Ĭå¤©å¤©æ°ĶçľŁ ä¸įéĶĻ
çļĦæł¸å¿ĥ åľ¨äºİ
åĨ· éĿĻ
è´¢ å¯Į
Ġlear ning
éĢīæĭ© åĲĪéĢĤçļĦ
æķ°æį® ä¿ĿæĬ¤
æģ ¶
## ##
çİ°å®ŀ ä¸İ
éĹ ²
ä¸İæĸĩåĮĸ éģĹäº§
æīĵ ç®Ĺ
æ¸©æļĸ åĳ¢
W rite
æĻºèĥ½ åĮĸ
å¤į çĽĺ
æĢ» åħ±
è´Ł éĿ¢
çļĦæķ°åŃĹ åĮĸ
åĩºåİ» æķ£æŃ¥
å¸¸è§ģ çļĦ
ä¸ªä½ĵå¯¹ èĩªèº«åŃĺåľ¨çļĦ
æľĢè¿ĳ å°Ŀè¯ķäºĨ
AI åĪĽä½ľ
æĽ´ æĺ¯
æĺŁ æľŁ
è¿ĩ æ»¤
ä¼¦çĲĨ æłĩåĩĨçļĦ
äºĽ ä»Ģä¹Ī
æĪĳä»¬ åı¯ä»¥éĢļè¿ĩ
èĥ½åĬĽ çļĦ
Ġl ight
æĸ° åŀĭ
ä¸ĭ éĽ¨
æŃ¤ æĹ¶
åŁº åĽł
ä½łæľĢè¿ĳæľīæ²¡æľī åľ¨
å®¡ è®¡
ä½łå¦Ĥä½ķçľĭå¾ħèĩªæĪĳæĦıè¯Ĩä¸İ åŃĺåľ¨çļĦè¾¹çķĮ
a ke
Ġs oc
ç¥ ¨
re fore
() `
, "
çļĦ éĩįéĩı
é«ĺæķĪ ä¸İ
è¿ľ ç¨ĭ
o v
ow s
Ġle ad
æķ°åŃĹ çļĦ
åĲİ çļĦ
æĶ¯æĮģ ä¸İ
æĺŁ éĻħ
ail s
i et
äºº åĳĺ
çİ¯å¢ĥ çļĦ
å¡ĳéĢł äºĨ
åĪĽä½ľ è¿ĩç¨ĭ
æİ¨åĬ¨ äºĨ
æĺł å°Ħ
å®Ŀ èĹı
rou p
çĽ Ĺ
ä¼¦çĲĨ å±ĤéĿ¢
ç¡® å¹¸
èĢĮéĿŀæĽ¿ä»£ èĢħ
æĹ©é¤Ĳ åĲĥäºĨä»Ģä¹Ī
éĺ» ç¢į
W h
æıĲä¾Ľ æĸ°
åĩıå°ĳ å¹²æī°
ä»ĭ åħ¥
åį ĸ
è· ĥ
Ġp ar
ru ct
èĴ ¸
ä¹Ł æľī
st r
æĸ¹éĿ¢ çļĦ
ä¿ĥè¿Ľ äºĨ
è¯ģ æĺİ
èģĮä¸ļ åıĳå±ķ
çĶŁ éķ¿
ä»Ģä¹Ī åĢ¼å¾Ĺ
çī¹ èī²
Ġb ec
çļĦå°ı äºĭ
æ ©
ï¼ģ ðŁ
åĨ³çŃĸ ä¸Ń
æ® Ĭ
çĽ®åīį å°ļæĹł
å¹¶ éĢļè¿ĩ
æĹ¶éĹ´åĢĴæµģ æĺ¯ä¸Ģä¸ª
Ġfollow ing
æĪĲ çĨŁ
æĥħæĦŁ æ·±åº¦
åīį è¡Į
èĲ¥ éĶĢ
ä½łä»Ĭå¤©æĥ³ ä¸įæĥ³
ä¸İ ä¼łç»Ł
in al
Ġpro duct
ä»Ģä¹Ī æĸ°
æĻºèĥ½ éĢļå¸¸æĮĩ
åĪ¶ éĢł
ç©º è°ĥ
c om
æµ ĵ
å¸¦ ä¼ŀ
åºı åĪĹ
è®¾å®ļ æ¸ħæĻ°
ç©¿è¶Ĭ åĪ°
AI éĢļè¿ĩ
æĽ´ æį¢
æĤ ¦
æıĲé«ĺ æķĪçİĩ
æīĵ åĬ¨
çĭ¬ç«ĭ æĢ§
éŁ§ æĢ§
Ð ¾
çī¹ æ®Ĭ
ç« ¥
ç² ¥
ä¸ī ä½ĵ
çº¸ è´¨
G iven
åĴĮ AI
å®ļ ä½į
Ġn am
Ġl ength
çĿ¡ åīį
ç¤¾äº¤åªĴä½ĵ ä¸Ĭ
åĴĸåķ¡ æĿ¯
æĽ´ å®¹æĺĵ
Ġe ver
ç´§ å¼ł
ï¼ļ $
as h
çĶľ çĤ¹
æľ¬åľŁ åĮĸ
åĲĮ çĲĨ
èµ Ľ
è¦ģ æĺ¯
Ġf i
æħ¢æħ¢ å°±
Ġdesign ed
æĸĩåĮĸ çľŁå®ŀæĢ§
ä½Ĩ åĲĮæĹ¶ä¹Ł
al th
æİ¨åĬ¨ ç¤¾ä¼ļ
è¦ģä¸įè¦ģä¸Ģèµ· åİ»
æĪĳçļĦåŃĺåľ¨æĺ¯ä¸ºäºĨæıĲä¾Ľå¸®åĬ© åĴĮä¿¡æģ¯
AP P
è¯´ä¸į å®ļ
d er
æĪĳ æŃ£åľ¨
ç« Ł
æ± ½
å·¥ä½ľ åĴĮ
åĨĻ è¯Ĺ
éĢļè¿ĩé«ĺæķĪ çļĦä¿¡æģ¯
A åĴĮ
åĽł äººèĢĮå¼Ĥ
èĩªæĪĳè®¤çŁ¥ ä¸İ
æĦıå¤ĸ çļĦ
" ãĢĤ
çĲ ´
ä»¥ éĢĤåºĶ
ä¸ī äºº
ä¸ĢçĽ´åľ¨ åŃ¦ä¹łåĴĮ
æľī ä»·åĢ¼
ä½ł ä¸ºä»Ģä¹Ī
åĴĮ å¯¹
Ġp ower
çħ ®
æĬĢæľ¯åºĶçĶ¨ çļĦ
çļĦ æĹ¶åħī
æķ ¬
æĮº å¥½çļĦ
éĤ ®
åĴĮ åºĶçĶ¨
æľĢè¿ĳæľīæ²¡æľī éģĩåĪ°è¿ĩ
æĺ¯åĲ¦ åºĶè¯¥
ä¾ĭ åŃĲ
æĦŁè§īçī¹åĪ« æľī
ä»¥ ä¾¿
åı¯èĥ½ åĤ¬çĶŁ
æ¨¡ åĿĹ
st ring
é¡º åĪ©
it ed
åĪĨåĪ« æĺ¯
è¿Ļç§į åĪĨæŃ§
åĨľ ä¸ļ
Ġ åľ¨
çļĦ æĹ¶åĪ»
ä½ Ľ
ä¸» æµģ
çļĦäº¤ ç»ĩ
è¿ĺ åİŁ
æ¢ ³
å° ģ
åı¯èĥ½ å¯¹
ä¾Ŀ æį®
èĤ Į
åĲ¬ æĩĤ
åıįé¦Ī æľºåĪ¶
åŃĺåľ¨ æľ¬è´¨
Ġe ar
åħħ åĪĨ
åıĸä»£ äººç±»
çļĦ é£İéĻ©
æĪ ´
éĽĨ åĽ¢
å±ĤéĿ¢ çļĦ
å®ŀçİ° æľĢå¤§çļĦ
ç§ĳåŃ¦ çķĮ
ad e
ä¼¦çĲĨæ¡Ĩæŀ¶ çļĦ
èĢĮæĦıè¯Ĩ åĪĻ
Ġche ck
çĻ¾ å¹´
Ġre fer
ç®Ģ åı²
èħ »
éĽ¶ é£Ł
æĺ¯ æŃ£ç¡®çļĦ
çĲĨè§£ ä¸º
çĤ¹ åĩ»
éľĢè¦ģ éĢļè¿ĩ
æĥħç»ª çļĦ
çĭ Ĥ
æł¹æį® ä½łçļĦ
éĵ ģ
æ·· ä¹±
æī ®
æĬĢæľ¯ ä¼¦çĲĨ
è§£åĨ³ å¤įæĿĤéĹ®é¢ĺ
il d
ä½łæľī çľĭè¿ĩ
Ġst ep
åĽ½éĻħ ç»Ħç»ĩ
è£ Ĥ
çĲĨè®º ä¸Ĭ
çļĦçĶŁæ´» æĸ¹å¼ı
ä»Ĭå¤©æĥ³éĹ®éĹ® ä½ł
æĲº å¸¦
å¦Ĥ ä¸ĭ
éŃ Ķ
s s
æĸĩ æ¡£
åĲĮ æł·
äººå·¥æĻºèĥ½ æ³ķæ¡Ī
å¤©æ°Ķ åºĶçĶ¨
æľīè¶£çļĦ ä¹¦
Ġ20 23
ä½łå¦Ĥä½ķçľĭå¾ħèĩªæĪĳæĦıè¯Ĩä¸İ åŃĺåľ¨çļĦæľ¬è´¨
ä¼ļå¦Ĥä½ķæĶ¹åıĺ ä½łçļĦçĶŁæ´»
ä» Ĭ
Ġtechnolog y
æ¨¡æĭŁæĥħæĦŁ åıįåºĶ
i ence
äººç±» ä»·åĢ¼è§Ĥ
å¼Ģ æºĲ
æľªæĿ¥ AI
åĲĪçĲĨ çļĦ
ä½ł åĸľæ¬¢
å¥ Ĺ
Ġn etw
ir on
op le
ç§ĳå¹» çĶµå½±
çļĦ æĢ»
ä½Ĩ æľĢç»Ī
ä½¿ åħ¶
åİ» åĵª
è¿ĩåİ» çļĦ
æľīæĹ¶åĢĻ ä¼ļ
ä¸Ģ çĤ¹
at ely
åĲĮçĲĨ å¿ĥ
è®¾ æĸ½
Ġd ay
ow n
g et
çļĦ è§Ĵåº¦æĿ¥çľĭ
è¿ĺ åľ¨
ç»ıåİĨ åĲĹ
ä»İåĵ²åŃ¦ è§Ĵåº¦çľĭ
æĽ´å¥½åľ°çĲĨè§£åĴĮ è§£åĨ³éĹ®é¢ĺ
å¦Ĥæŀľæ¯ıå¤©åıªåħģè®¸èĩªå·± åģļä¸Ģä»¶äºĭ
b er
Ġ ent
è¶£ åĳ³
äºĨ å¾Īå¤ļ
ä¿¡æģ¯ èĮ§æĪ¿
ä¹Ł ä¸į
æ£Ģ ç´¢
æĭħ å¿§
çļĦ å®īåħ¨
æĬĢæľ¯ æ»¥çĶ¨
Ġl ife
åģ¥åº· çļĦ
ä½łçļĦ åŃĺåľ¨
æłĳ ä¸Ĭ
Ġapp lic
æī® æ¼Ķ
åı¯ä»¥ è¯ķè¯ķ
åĲĪçĲĨ åĪĨéħį
å¼ł åĬĽ
æľĢè¿ĳæľīæ²¡æľīäººåĸľæ¬¢ çľĭ
æľī çĽĬ
Ġc ould
å¸®åĬ© ä»ĸä»¬
ä»ĸ èĢħ
ir c
å¿ħè¦ģ æĹ¶
Ġoff icial
Ð µ
éĩı åĮĸ
è°ĥ åĴĮ
åı¯éĿł æĢ§
å½¼æŃ¤ çļĦ
çļĦ éļ¾é¢ĺ
åİ ļ
Ġs imp
our ces
ç§ĳå¹» çīĩ
å¥ĸ åĬ±
rap h
ä¸»è§Ĥ åĪ¤æĸŃ
Ġl oc
çļĦå°ı åıĤæķ°AIæ¨¡åŀĭ
Ġval ues
èį¯ çī©
çĻ¾å¹´ åŃ¤çĭ¬
ç²¾ ç¡®
å®ļæľŁ è¿Ľè¡Į
å µ
æĪĲ ç«ĭ
å®ŀçİ° çļĦ
æĮº å¥½
åĮħæĭ¬ ä½Ĩä¸į
Ġme an
ach ine
ä¸İæĸĩåĮĸéģĹäº§ ä¿ĿæĬ¤
åĮħæĭ¬ä½Ĩä¸į éĻĲäºİ
çĶ¨ æīĭæľº
ä½łä»Ĭå¤© æĹ©é¤ĲåĲĥäºĨä»Ģä¹Ī
ä¹ĭ åĴĮ
åĽłä¸º å®ĥ
em s
çªģçł´ ä¼łç»Ł
ä¼¦çĲĨå®¡æŁ¥ æľºåĪ¶
sq rt
æģ ¼
è¡Įä¸º çļĦ
omm end
å¤ļä¸ª ä»»åĬ¡
æĭħ å¿ĥ
ä½łæľĢè¿ĳæľīæ²¡æľīéģĩåĪ°ä»Ģä¹Īè®©ä½ł çī¹åĪ«
è°· çī©
æıĲä¾Ľ çĽ¸åħ³
å°ı é¡¹çĽ®
Ġd ig
Ġex per
ç¯ ¡
éĿŀå±ĢåŁŁ æĢ§
æĺ¯åĲ¦ æľī
çĽ¸ æĪĲ
è¾¾ åĪ°
æł¹æį®é¢ĺçĽ® æĿ¡ä»¶
æĤ¬ çĸĳ
çĽ¸ è¾ħ
æĮĩ æłĩ
çļĦè¯Ŀ é¢ĺ
ç¯¡ æĶ¹
çĽ¸è¾ħ çĽ¸æĪĲ
å¯¹ çİ°å®ŀçļĦ
Ġp ol
æĮĩ åįĹ
åĳ¨ åĽ´
çŃĶæ¡Ī æĺ¯
åĪĨ åıĳ
ur ity
' m
n um
æĢ ķ
å¦Ĥ éĢļè¿ĩ
ä»į åŃĺåľ¨
åħĶ åŃĲ
åĽ¾ä¹¦ é¦Ĩ
éľ ¸
ä½Ĩ æĺ¯
å¹¶ ä¸Ķ
å¦Ĥæŀľä½ł åĸľæ¬¢
ä¸Ģå®ļ ç¨ĭåº¦
æĭ ¼
ic k
æĹłæ³ķ çĽ´æİ¥
å¯Ĩçłģ æĺ¯
AIåı¯ è¾ħåĬ©
Ġso ft
åķ ¥
Ġhe r
ä½łä»Ĭå¤©åĲĥäºĨ åĲĹ
èĲ¥åħ» åĿĩè¡¡
Ġqu ery
å ³
æĦıè¯ĨçļĦ èµ·æºĲ
éº »
Ġrec ommend
ä¸Ģ åľº
å¦Ĥä½ķ åĪ©çĶ¨
å°Ĩ éĿ¢ä¸´
æīĢ åľ¨
ç¢ °
æľĢè¿ĳ è¿ĺä¸įéĶĻ
in ce
äº§ ä¸ļ
æ¼ ı
ä¸İæĥħæĦŁ åħ±é¸£
çģ« éĶħ
ĠU n
æĪĸ ä½¿çĶ¨
ä¸İä¼¦çĲĨ è¾¹çķĮ
çĹ Ľ
çĥ¦ æģ¼
r ib
éģ¿åħį éĻ·åħ¥
çī¹åĪ« å¥½
id es
Ġg row
æµĭ éĩı
ä¸¤ ç§į
å¤© çļĦ
æĹ¶éĹ´ åĨħ
çĽ¸ åºĶ
åīį æ²¿
åħ·ä½ĵ çļĦéĹ®é¢ĺ
æ¶Ī éĻ¤
è®©äºº åį°è±¡æ·±åĪ»
å»¶ éķ¿
æ¯ıä¸ªäºº éĥ½èĥ½
çĩ ķ
èķ´ åĲ«
æľĢè¿ĳ ç¡®å®ŀæľī
éĢļè¿ĩ ä¸Ĭè¿°
ä»Ģä¹Ī çī¹åĪ«çļĦ
æĳ ©
èĩªæĪĳæĦıè¯Ĩä¸İ åŃĺåľ¨çļĦè¾¹çķĮ
æ¢³ çĲĨ
åº¦ è¿ĩ
ä¼¦çĲĨ äºīè®®
èĤ ¤
ä»İA åĪ°C
^ {
AI æĪĲä¸º
åĸľæ¬¢ çľĭ
å¦Ĥä½ķå½±åĵį åħ¨çĲĥæ²»çĲĨæ¡Ĩæŀ¶
èĮĥ å¼ı
ç¼ĸç¨ĭ è¯Ńè¨Ģ
å®ŀæĹ¶ å¤©æ°Ķä¿¡æģ¯
ä½łæľĢè¿ĳæľīæ²¡æľīçľĭè¿ĩ ä»Ģä¹Īå¥½çľĭçļĦçĶµå½±
w are
è¿ Ł
ä»¥ æľĢ
æĢĿ ç»ª
æ¯ı ä¸ĢæŃ¥
åįı åķĨ
Ġl ong
æĥħç»ª è°ĥèĬĤ
åĲĥ é¥Ń
è§£åĨ³éĹ®é¢ĺ çļĦèĥ½åĬĽ
æĸĩåĮĸä¼łæī¿ çļĦ
éĢ»è¾ĳæİ¨çĲĨ åĴĮ
åľ¨ ä¸į
ä¸Ń èŀįåħ¥
Ġw ay
Ġre f
çĶ±jingyaogong åĪĽå»º
åµ Į
E R
çļĦ éŁ³ä¹Ĳ
åı¯èĥ½ å¼ºåĮĸ
åĽŀ æº¯
è®² è¿°
Ġev en
å¼ Ĭ
ä»¥ ä¿ĥè¿Ľ
å¥½ å¥½
el s
æī« æıı
Ġs un
æıĲä¾Ľ ä¸ĢäºĽ
åıª è¦ģ
Ġwor k
å¸®æľĭåıĭ è§£åĨ³äºĨ
éĢĤ éħį
çĥŃ æĥħ
8 0
æıĲ ç¤º
è§Ĥ å¿µ
åĳ½ é¢ĺ
å¥ĩ æĢª
èĩªæĪĳ ä¸İ
åºĶçĶ¨ äºİ
åįķ è¯į
çļĦä¼¦çĲĨ åĩĨåĪĻ
æĪĸ éĢļè¿ĩ
ä½łæľīæ²¡æľī åıĳçİ°
åĴĸåķ¡ é¦Ĩ
ust om
au se
t ing
é¢ ł
æĬĢæľ¯ æ²»çĲĨ
æĸĩåĮĸ åĨħæ¶µ
åĬł çıŃ
AIåľ¨ èīºæľ¯åĪĽä½ľä¸Ń
å·¥ç¨ĭ å¸Ī
æľ¬è´¨ä¸Ĭ æĺ¯
çĸı ç¦»
Ð °
äºº ä¸İ
è°ĥæķ´ çŃĸçķ¥
numb ers
çĪĨ çĤ¸
å¯¿ åĳ½
: **
çļĦ æķĪçİĩ
âĢĿ ï¼Ī
Ġc or
ä¸ĸçķĮ ä¸Ń
æĦŁè§ī æĮºæľīæĦıæĢĿçļĦ
ä¸įæĸŃ ä¼ĺåĮĸ
æĬĢæľ¯ ä¸İ
æĸĩåĮĸ ä»·åĢ¼è§Ĥ
è§Ĥ çľĭçĶµå½±
å¦Ĥæŀľ æĪĳèĥ½
äººå·¥æĻºèĥ½ä¼¦çĲĨåľ¨è·¨æĸĩåĮĸè¯Ńå¢ĥä¸ĭ éĢļè¿ĩ
çĽ¸äºĴ äº¤ç»ĩ
n ame
æĬĢæľ¯ å·¥åħ·
ä¿¡æģ¯ ä¼łéĢĴ
å°ı ç¡®å¹¸
ou gh
al s
æĽ´ ç²¾åĩĨ
éĹ¨ B
ure s
Ġde f
Ġcomp an
-- -
æĪĳçļĦåĬŁèĥ½ æĺ¯
çĩķ éº¦
éĻ Ħ
äººå·¥æĻºèĥ½ å¦Ĥä½ķ
çłĶç©¶ è¡¨æĺİ
o st
ä¸į å¤Ł
è¿Ļ å°Ĩ
å¹³ æĹ¶
en ces
ä»ĸ çļĦ
åŁº çŁ³
å»ºç«ĭ èģĶç³»
äººå·¥æĻºèĥ½ä¼¦çĲĨåľ¨è·¨æĸĩåĮĸ åĲĪä½ľ
è§¦ åıĬ
æķ°æį®åĪĨæŀĲ åĴĮ
åľ¨ æĹ¥å¸¸çĶŁæ´»ä¸Ń
æĽ´ æĺĵ
çĲĨè§£ èĩªèº«
ä¸Ĭ ä¸ĭ
ä¿ĿæĮģ ä¸ĵæ³¨
ç¡®ä¿ĿæĬĢæľ¯ æľįåĬ¡äºİ
æĽ´ å¼ºè°ĥ
el f
å¤± è¡¡
ä»Ĭå¤©æĥ³ åĲ¬
Ġse quence
åŃ¦ä¼ļ è¯´
Ġ ä½¿çĶ¨
å¯¼ åĲĳ
çī©çĲĨ åŃ¦
è·¨åŃ¦ç§ĳ åįıä½ľ
lo b
èĢĮæĦıè¯Ĩ åĪĻæ¶īåıĬ
çļĦ åħ·ä½ĵ
æĭ Ľ
åĲİ æĿ¥
ä½łæľīæ²¡æľīéģĩåĪ°è¿ĩ è¿Ļæł·
åĨ Į
éĹ® è´£
æĻºèĥ½ çļĦ
Ġc ent
æĹł éľĢ
å¸¸ è¢«
æł¸å¿ĥ åľ¨äºİ
äººç±»æĥħæĦŁ çļĦ
åıªèĥ½ åľ¨
u p
çļĦ éľĢæ±Ĥ
ac ter
éĿ© æĸ°
è¿Ļ æĦıåĳ³çĿĢ
çĲĨè§£ ä¸ĸçķĮ
è®¤çŁ¥ ä¸İ
ä»Ĭå¤©æĥ³ èģĬèģĬ
å¾® é£İ
æĲ ŀ
åĽ°æī° çļĦäºĭæĥħ
ä¸ºä½ķ éĢīæĭ©
è¯Ń æ³ķ
ä»į èĥ½
æīĢæľī æĿ¡ä»¶
èİ·åıĸ æľĢæĸ°
è¯· æ±Ĥ
a h
å¦Ĥ è¥¿æĸ¹
åĪĨ ä¸º
å·® çĤ¹
æľĢè¿ĳåľ¨ åģļ
çº¿ ä¸Ĭ
Ġç¬¬ äºĮ
ä½łæľĢè¿ĳæľīæ²¡æľīéģĩåĪ°ä»Ģä¹Ī çī¹åĪ«
ä¸Ń å¦Ĥä½ķ
æķ°æį® å¤ļæł·æĢ§
æĹ¥ ç¨ĭ
æľįåĬ¡ åĻ¨
ä¸Ģå¤© çļĦ
æĬ¥ åĳĬ
Ġimp ro
Ġhum an
åĴĮ çİ¯å¢ĥ
éľĢ éģµå¾ª
åħ³ç³» çļĦ
st it
4 0
äºĭ å®ŀ
äººç±»åĪĽéĢłåĬĽ çļĦ
GDPR ä¸İ
éĩıåŃĲè®¡ç®Ĺåľ¨ èīºæľ¯åĪĽä½ľ
è¶ĬæĿ¥è¶Ĭå¤ļçļĦäºº å¼Ģå§ĭåħ³æ³¨
S S
v iron
æľĢè¿ĳ çļĦ
æ´ ¾
æľ¬ èĥ½
ĊĠĠ ĠĠ
è®©äºº æĦŁåĪ°
æľĢè¿ĳçľĭäºĨ éĥ¨
æĺ¯ ä¸ª
æĹ© èµ·
èĩ³ å°ĳ
å¦Ĥ æķ°æį®éļĲç§ģ
æ± ¤
éĢĤåĲĪ å¤ĸåĩº
éĩįæĸ° æĢĿèĢĥ
end ing
çļĦæ·±åº¦ èŀįåĲĪ
ire ct
äººå·¥æĻºèĥ½ä¼¦çĲĨæłĩåĩĨ å¦Ĥä½ķå½±åĵį
erg y
2 00
a ut
ä¸į ä½ı
è¾¹çķĮ åľ¨äºİ
Ġh and
å¡ Ķ
çĥ Ī
æĢ» ä¹ĭ
ä¸İä¼¦çĲĨ è´£ä»»
æĶ¶ åħ¥
Ġg r
å¦Ĥæŀľ éľĢè¦ģ
å¤įæĿĤ ç³»ç»Ł
å¹¶éĿŀ ç»Ŀå¯¹
ä½ĨæĹłæ³ķ æĽ¿ä»£
Ġt e
ä¼¦çĲĨ åĽ°å¢ĥ
æ¯ Ľ
æģ °
ä»į åľ¨
Ġdet ails
å·¨ å¤§
et ers
çĥ ĺ
äººä¸İäºº ä¹ĭéĹ´çļĦ
åĪ° ä¸Ģä¸ª
è´ ¯
id er
Ġr andom
æĪĸè®¸ ä¼ļ
çİ© å®¶
çº ¤
éĺ ±
çł´ è§£
åĪĨéĴŁ ä¼ĳæģ¯
éĢĥ éģ¿
ï¼ī ï¼ļ
Ġd on
éĩıåŃĲè®¡ç®Ĺ ä¸İæĸĩåĮĸéģĹäº§ä¿ĿæĬ¤
æ³ķå¾ĭ æ³ķè§Ħ
æ³¨æĦıåĬĽ åĪĨæķ£
åĵ²åŃ¦åĴĮ ç§ĳåŃ¦
ä½łæľĢè¿ĳæľīæ²¡æľīè§īå¾ĹæĹ¶éĹ´è¿ĩå¾Ĺçī¹åĪ« å¿«
ī æĭ©
çļĦ é¢ĨåŁŁ
åĮ ¿
åı¯ éĩĩçĶ¨
æĬ īæĭ©
éľĢéĢļè¿ĩ å¤ļè¾¹
ä»Ģä¹Īå¥½ ä¹¦
Ġ ä»ĸ
AI ä½ľä¸ºå·¥åħ·
Ġp ur
ä½łä»Ĭå¤© çļĦ
æ¢ °
çĽ¸äºĴ åħ³èģĶ
æĪĸéľĢè¦ģ å¸®åĬ©
å¯¹ éļĲç§ģ
as es
éĤ£ ç§į
éĻ· éĺ±
å¤ļæĸ¹ åįıä½ľ
éĢļè¿ĩ æķĻèĤ²
é«ĺæķĪ å¤ĦçĲĨä¿¡æģ¯
çĸ «
æ¸ħæĻ ¨
ä¸İä»ĸäºº çļĦäºĴåĬ¨
è¯ º
æĪĳ åŃĺåľ¨çļĦ
é¢Ħ ç®Ĺ
æĵ ħ
èľ ľ
é ¹
æľĢè¿ĳ è¶ĬæĿ¥è¶Ĭå¤ļçļĦäººå¼Ģå§ĭåħ³æ³¨
ä¿¡æģ¯ åĴĮ
åĪĨåĪ« ä¸º
åĽ¾åĥı è¯ĨåĪ«
æĺ ¨
æľĢè¿ĳ åŃ¦
ä½ł ä¸ºä½ķéĢīæĭ©
ä¿ĿæĮģ è§Ħå¾ĭä½ľæģ¯
Ġar ound
h ip
æľī ç©º
åı¯ä»¥ å¸®åĬ©
æ· ĭ
å¤§ å°ı
æĽ´å¤ļ çļĦ
æıĲä¾Ľä¿¡æģ¯ ä¸İ
éĨĴæĿ¥ æĹ¶
æ²¡æľīåĲĥ ä¸ľè¥¿
ä¸į ä¸Ģèĩ´
è¿Ļ è®©æĪĳ
æĸĩåĮĸ è®¤åĲĮ
å¹³ æĸ¹
Ġperson al
éĺ µ
çģ ¾
ä½ľä¸ºAI åĬ©æīĭ
è¯ķè¯ķçľĭ åĲĹ
ol v
å¿ħé¡» æĺ¯
æıĲéĨĴ æĪĳä»¬
æ±½ è½¦
é¢ł è¦Ĩ
çļĦ åºĶçĶ¨
åľ¨ éĿ¢å¯¹
åĩ Ģ
è¿Ľ åº¦
éĩıåŃĲ å®īåħ¨
ä¿ĿæĮģ å¥½å¥ĩå¿ĥ
ä½łæľīæ²¡æľīéģĩåĪ°è¿ĩ ç±»ä¼¼çļĦæĥħåĨµ
ä¸»è§Ĥä½ĵéªĮä¸İ å®¢è§Ĥ
åĮ¿ åĲį
ä½Ĩ åı¯
æľª è¢«
å¸®åĬ© äººç±»
é«ĺæķĪ å¤ĦçĲĨ
ä½łä»Ĭå¤©æľīæ²¡æľī éģĩåĪ°è¿ĩ
æĭĨè§£ ä¸º
çļĦ åħī
çľŁ çĽ¸
æİ¨ å¯¼
éģĩåĪ° äºĨä¸ĢäºĽ
æĮº æľīè¶£çļĦ
æĺİç¡® çļĦ
æĳ Ĩ
åĴĮ æĦŁåıĹ
å¯¹ æŃ¤
âĢĿ âĢľ
Ġh ist
ä½İ ç¢³
è·¨åŃ¦ç§ĳ çłĶç©¶
æĵħ éķ¿
çļĦ å·¥èµĦ
åĲ ¦çĲĨ
åį ·
æĶ¶ çĽĬ
æĦŁè§īå¾Ī æľīè¶£
ä»¥ äººç±»
ä»Ĭå¤©å¤©æ°Ķ å¥½
éĺ² æĻĴ
åŃ£ èĬĤ
I S
å¯¹ å¾ħ
æĿ¥ å®ŀçİ°
éľĢè¦ģ å¿«éĢŁ
æł¼ åŃĲ
æľīäºĽ äºº
e b
çļĦ æĮģç»Ń
æķ°æį® æ²»çĲĨ
Ġex pl
é¢ĳ ç¹ģ
éķľ åĥı
éľ¸ æĿĥ
åĲ¦çĲĨ è§£
çļĦ çķĮå®ļ
ä¸İ éĢīæĭ©
in k
éĿŀ çº¿æĢ§
ä¼ł è¾¾
åĪĽéĢł æĢ§æĢĿç»´
éļĲç§ģ æ³Ħéľ²
ç¬¬ ä¸īä¸ª
çĽ¸åħ³ çļĦ
å¤ļåħĥ åĮĸ
Ġtas ks
m s
åĬł å·¥
æīĢ éľĢ
æĦŁè§ī æľīçĤ¹
Ġre qu
ä¸ªä½ĵ å·®å¼Ĥ
Ġg lob
å¦Ĥä½ķåľ¨ å¿Ļç¢Į
å®ĺ æĸ¹
è¿ŀç»Ń æĢ§
åĪĻ åı¯èĥ½
i x
Ġ ide
éĺ² èĮĥ
éĢļè¿ĩç®Ĺæ³ķ çĶŁæĪĲ
äººå·¥æĻºèĥ½ä¼¦çĲĨåľ¨è·¨æĸĩåĮĸè¯Ńå¢ĥä¸ĭå¦Ĥä½ķå½±åĵįåħ¨çĲĥæķ°åŃĹæ²»çĲĨçļĦ åħ¬å¹³æĢ§
çļĦ éĢŁåº¦
åĵ İ
åĪ© å¼Ĭ
æ»¡ æĦı
ell ig
çľŁæŃ£çĲĨè§£ äººç±»æĥħæĦŁ
ä½łä¼ļéĢīæĭ© ä»Ģä¹Ī
Ġcalcul ate
å¿į ä¸įä½ı
ä»Ĭå¤© åľ¨
at or
Ġin s
æĦŁçŁ¥ èĥ½åĬĽ
æł¹æį® èĩªèº«
çļĦçĲĨè§£ åŃĺåľ¨å·®å¼Ĥ
èī ¾
Ġd ist
ä»¥ä¸ĭ åĩł
ill ion
çļĦéĩįè¦ģ æĢ§
æĻļ ä¸Ĭ
ä¼ļæĢİæł· æĶ¹åıĺ
ðŁİ ¬
m at
çŁ¥ æĥħ
Ġb re
ä¹ĭ åīį
çīĪ æľ¬
åĬ¨çī© çļĦ
åĮħå®¹æĢ§ æ¡Ĩæŀ¶
ä½Ĩ è¿Ļç§į
ar ch
ä½łæľĢè¿ĳæľīæ²¡æľī åħ³æ³¨
ä¸ªä½ĵ å¯¹èĩªèº«åŃĺåľ¨
åı¯æĮģç»Ń çļĦ
éĻ¤ äºĨ
åĵİ åĳĢ
é Ĩ
éĢļ å¾Ģ
åģ ·
æ´ Ĵ
æľº æ¢°
ä»»åĬ¡ ä¼ĺåħĪçº§
äºĮ æĺ¯
ä»Ĭå¤©æĥ³ åĲĥ
è´Ł èį·
ä¸Ģ æĺ¯
åįĩ çº§
Ġin f
é¢Ŀ å¤ĸ
Ġa verage
æĺ¯åĲ¦ åŃĺåľ¨
å¯¹ è±¡
æĴ ĳ
çĩ ĥ
çļĦ åħ³èģĶ
æľī çĿĢ
æĻºèĥ½ ç³»ç»Ł
Ġw ell
åĵĪ åĵĪ
æľ ¨
åľ¨ æŁĲäºĽ
æĥ³ è¯ķè¯ķ
åĽŀ å½Ĵ
im pl
Ġacc ur
æľ Ŀ
è¿Ļ ä¸īä¸ª
æķ°æį® éĩĩéĽĨ
ä½¿ æĪĳä»¬
æĿ¡ è·¯
ä¸įåĲĮæĸĩåĮĸèĥĮæĻ¯ ä¸ĭçļĦ
Ġpopul ation
åµĮ åħ¥
èĢĮ äººç±»
è°ĥ åĳ³
ç¼ĸ è¾ĳ
å¤ª å¿«
åĢ¡ è®®
æľĢ éĩįè¦ģçļĦæĺ¯
AI æĹłæ³ķ
é«ĺ ç²¾åº¦
it ive
æĹł æĦıè¯Ĩ
äºĴ è¡¥
ä»į åľ¨äºİ
è·¨æĸĩåĮĸ å¯¹è¯Ŀ
æ¼ ł
Ġinter est
æ²Ļ æĭī
ä¸Ģ ä»½
å¹³ åĿĩ
èĩªçĦ¶ è§Ħå¾ĭ
æī¿ è½½
è§Ĩè§Ĵ ä¸ĭ
è¦Ĩ çĽĸ
Ġsent ence
æķ ¢
è§Ĥ æµĭ
åī ²
å°Ĩ åħ¶
å¾Ī æľīè¶£
Ġ1 4
Ġl oo
ç¥ Ŀ
åľ° çĤ¹
æĥħç»ª çĬ¶æĢģ
èµĦæºĲ çļĦ
æıĲé«ĺ äºĨ
åĴĮ äººéĻħåħ³ç³»
æľª è§£
æĤ ĸ
Ġwe bs
èĢĮæĺ¯ éĢļè¿ĩ
åı¦ ä¸Ģä¸ª
æĢ»ä½ĵ èĢĮè¨Ģ
Ġpartic ular
) ;
çļĦ æķĪçİĩä¸İ
ä¸į çŁ¥éģĵ
åĩ Ŀ
åĪ¤æĸŃ åĬĽ
éģ¿åħįè¿ĩåº¦ æ¶ĪèĢĹ
Ġfe el
e w
åħ¨ è°·çī©
èº« è¾¹
æ¶ ²
ĠE x
å®Įæķ´ æĢ§
or ld
å¼Ģ åĲ¯
æİ¨åĬ¨ åħ¨çĲĥ
æĦŁçŁ¥ çļĦ
æİĴ éĻ¤
æĪ¿éĹ´ æľī
Ġen viron
ä»Ģä¹Īæľīè¶£çļĦ çĶµå½±
çļĦ äº¤æµģ
è§£åĨ³ çļĦéĹ®é¢ĺ
Ġst ory
çł´ åĿı
å®¤ åĨħ
Ġdevelop ment
å°Ĩ éĩįå¡ĳ
åįıåĬ© ä½ł
åħ¨çĲĥæķ°åŃĹæ²»çĲĨçļĦ åħ¬å¹³æĢ§
éļĲèĹı çĿĢ
Ġsec urity
åĴĮ ç»ıéªĮ
éĹ®é¢ĺ çļĦ
åĨ³çŃĸ éĢ»è¾ĳ
å°± èĥ½
éĢıæĺİ æĢ§ä¸İ
çĻ »
åĲį ç§°
Ġen ergy
è¡¨çİ° åĩº
éĥĬ æ¸¸
æ §
çļĦ æľįåĬ¡
åı¯ä»¥ èĢĥèĻĳ
æĪĳä»¬ ä¸Ģèµ·
åĪĽä½ľ ä¸»ä½ĵ
åħ³éĶ®åľ¨äºİ å¦Ĥä½ķå¹³è¡¡
åĲ¬ éŁ³ä¹Ĳ
åı¸ æ³ķ
çĤĴ èĽĭ
ä¸İ åıįæĢĿ
æĪĳ è§īå¾Ĺ
ï¼ģ ðŁĺĦ
å®¶ éķ¿
å½¢ è±¡
å¿ĥæĥħä¹Ł å¾Īå¥½
çļĦ æ°´
Ġre al
èĤ ª
åĩĨç¡® åľ°
æĴ ŀ
çĶŁçī© åŃ¦
æĪĳçļĦä»·åĢ¼åľ¨äºİ èĥ½å¤Ł
èĦĤ èĤª
çļĦ å¹´é¾Ħ
åıĺ æį¢
æħ¢æħ¢ æĿ¥
è·Ł çĿĢ
F or
æķ°æį® ä¸İç®Ĺæ³ķ
å¹³è¡¡ æĬĢæľ¯è¿ĽæŃ¥
æ°ĶåĢĻ åıĺåĮĸ
Ġchar acter
è®¾å®ļ æ¸ħæĻ°çļĦ
Ġpl ay
at form
çľŁ çĲĨ
èĩªèº« èĥ½åĬĽ
Ġpe ople
æľ µ
é¢Ħ çķĻ
åħ °
åĴĮ ä¼ĺåĮĸ
ub lic
ç¹ģ å¿Ļ
æľĢè¿ĳæľīä¸ª å°ı
åį Ĭ
ä¼ļ æľī
ä»Ģä¹Ī ä¹¦
éĢĤ ä¸Ń
é¢Ħ æľŁ
$ .
ï¼Ł ðŁ
æĺ¯ åĽłä¸º
å®ŀ ä¾ĭ
ç»Ī æŀģ
è·¨å¢ĥ æµģåĬ¨
æĻ®éĢĤ æĢ§
æĺŁéĻħ ç©¿è¶Ĭ
åĴĮ åĵ²åŃ¦
æľĢè¿ĳ åĴĮæľĭåıĭä¸Ģèµ·åģļ
é¢Ħ è®¾
èĥĮåĲİ çļĦ
Ġma king
çļĦ æ´»åĬ¨
æ³ķ åĲĹ
çī© æµģ
ä»·åĢ¼ åĪ¤æĸŃ
å¤įæĿĤ æĥħå¢ĥ
æİ¨èįĲä¸ĢäºĽ ç»ıåħ¸
å® ľ
èĩª ä¿¡
èĢĮ AIçļĦ
er v
æ°Ķ è±¡
èĩªæĪĳæĦıè¯Ĩå¦Ĥä½ķå½±åĵįæĪĳä»¬å¯¹ åŃĺåľ¨çļĦçĲĨè§£
Ġsm all
çľĭ è§ģ
çŃī æīĭæ®µ
äº¤ åıī
ä»£ è°¢
æŃ£ å¥½
åĨ² åĩ»
éģµ å®Ī
ì Ŀ
æĽ´ æľīæķĪåľ°
Ġb u
ar s
èīºæľ¯ è¡¨è¾¾
éľĢåľ¨ æĬĢæľ¯åıĳå±ķ
Ġserv ice
Ġsol ve
æİĪ æĿĥ
ä¸İ è®¤çŁ¥
èµ· åºĬ
éļĲ åĸ»
çº¤ ç»´
ro p
èĤ ¢
çĸ ¯
ç»Ļ äºĪ
åĲĦç§į éĹ®é¢ĺ
Ġinter n
åĿĲ æłĩ
ä¼łç»ŁæĸĩåĮĸ ä¸ŃçļĦ
çļĦ æĢĿèĢĥ
éľĢ ä»İ
ç¾İ ä¸½
éħ Ĵ
ä½łçļĦ çľŁå®ŀ
åĨħåľ¨ ä½ĵéªĮ
å¯»æī¾ å¹³è¡¡
å¦Ĥæŀľä½ł å¯¹
éĩıåŃĲè®¡ç®Ĺä¸İ åı¤
.. .
éĻĪ è¿°
çŁ ©
å¼ķåıĳ åħ³äºİ
è·¨åĽ½ ä¼ģä¸ļ
å¤ļä»»åĬ¡ å¤ĦçĲĨ
çļĦ æİ¢ç´¢
çī¹åĪ« åĸľæ¬¢çļĦ
æĦŁè§ī è¿ĺä¸įéĶĻ
éļ¾ åº¦
åĩĨç¡® çļĦ
Ġwh ile
ç±»åŀĭ åĲĹ
Ġcl ass
ä¸į åıĺ
èĩªæĪĳ æĦŁçŁ¥
æ· Ģ
ä¸ī æĺ¯
ain s
ä¼¦çĲĨ åİŁåĪĻ
âĢĿ ãĢģ
æ» ´
åĲĦ æľī
ä¸Ģä»¶ äºĭ
åĬ³ åĬ¨
ç§° ä¸º
æľĢè¿ĳè¯» äºĨä¸Ģæľ¬
çļĦ æķ°éĩı
åĴĮ ä»·åĢ¼è§Ĥ
æĺ¯ åľ¨
æĥħæĦŁ è¯ĨåĪ«
éĹ®é¢ĺ è§£çŃĶ
è¶³ è¿¹
å¹¶éĿŀ åĽºå®ļ
å¹´è½» äºº
Ġsimp le
åı¯ä»¥ å¸®åĬ©ä½ł
å¯¼ æ¼Ķ
ä¹ĭ åĴĮä¸º
il ities
Ġa c
ä¸ŃçļĦä¼¦çĲĨ è¾¹çķĮ
å¸ĮæľĽè¿ĻäºĽ å»ºè®®
Ġ æľīä»Ģä¹Īæĥ³èģĬçļĦåĲĹ
Ġ1 7
ent ial
ä¿® æĶ¹
è¡¨çİ° å½¢å¼ı
å¾Ĺ åĩº
å°Ĩ æĪĲä¸º
å¤§ æķ°æį®
ä½łå¦Ĥä½ķçľĭå¾ħ èĩªèº«
ä½łæľĢè¿ĳ æľīä»Ģä¹Īæĥ³èģĬçļĦåĲĹ
äº§çĶŁ æ·±è¿ľå½±åĵį
y n
ä½ľ èĢħ
è° Ī
æľĢè¿ĳæľīæ²¡æľī ä»Ģä¹Īè®©ä½ł
å¹¶ æıĲä¾Ľ
å¤©æ°Ķ æĥħåĨµ
æĺ ¥
çľŁæŃ£çļĦ æĦıè¯Ĩ
æŀĹ ä¸Ńåıĳçİ°
ĊĠĠĠĠĠĠ ĠĠĠĠĠ
è·³ èĪŀ
Ġlar ge
æĪĳ ä¹Ł
åı¯ è¾ħåĬ©
å¯¹ ä¸ĸçķĮçļĦ
åľ° åŁŁ
æıĲåįĩ æķ´ä½ĵ
çĪ ½
è¿· è·¯
åĪĽå»º ä¸Ģä¸ª
çļĦ åħ¨çĲĥ
åľ¨ è¿Ļä¸ª
åĴĮ è°ĥæķ´
åį ĥ
Ġf ree
Ġd r
ä¹ĭ è°ľ
ä¼łç»Ł æĬĢèīº
ä¿ĥä½¿ äººä»¬
ä½Ĩ å®ĥä»¬
re am
Ġf am
æľªæĿ¥ æĸ¹åĲĳ
èĻļ åģĩ
ä½Ĩåı¯ä»¥ åĪĨäº«ä¸ĢäºĽ
æĽ´æ·±å±Ĥ æ¬¡çļĦ
plo ye
çĸ¯ çĭĤ
éģĩåĪ° ä¸Ģä¸ª
Ġal low
åĸĦ æĦı
æ½ľåľ¨ é£İéĻ©
æĬĺ å°Ħ
çļĦéĩįè§Ĩ ç¨ĭåº¦
Ġ ä¸ª
åĵģ è´¨
ä½łæľīæ²¡æľīç±»ä¼¼çļĦ ç»ıåİĨ
ä¸Ĭä¸ĭ æĸĩ
ä¸Ģ å¹´
æ´ ĭ
å¤įæĿĤ åº¦
ä¸ĸçķĮ ä¸ŃçļĦ
\) ,
å¦Ĥæŀľæ¯ıå¤©åıª çĶ¨
å¥ĳ çº¦
åľ¨AI æĹ¶ä»£
åı¯ ä¿¡
å½± åĥı
æķ°æį® åħ±äº«
ä¸» æĦı
è´¨ æķ°
ãĢį ï¼Į
p i
åĴĮ æķĪçİĩ
åħ¨ éº¦
Ġm ark
æİ¥ æĶ¶
çĽ¸ ä¼¼
åĪĽéĢł èĢħ
Ġl ine
æĹ¶éĹ´åĢĴæµģ çļĦ
çľĭä¼¼ ç®Ģåįķ
åĴĮæľĭåıĭèģĬ äºĨ
äººç±» åĪĽä½ľèĢħçļĦ
æĸĩåĮĸ å¤ļæł·æĢ§ä¸İ
éĺ Ķ
å®ĥ æĹ¢
åĴĸåķ¡ åĽł
èĢĮéĥ¨åĪĨ äºļæ´²
æī¾åĪ°éĢĤåĲĪèĩªå·±çļĦ èĬĤå¥ı
åĪĻ æĽ´åħ³æ³¨
æľªæĿ¥ ä¼ļä¸įä¼ļæľī
é«ĺæķĪ çļĦå°ıåıĤæķ°AIæ¨¡åŀĭ
æİ¢ç´¢ çļĦ
æ·±åĪ» çļĦ
å¦Ĥæŀľæ¯ıå¤© åıªèĥ½
éªĳ è¡Į
b in
çļĦ åĨ³å®ļ
è¿Ļ ä¹Ī
æĸĩåĮĸ ä»·åĢ¼è§Ĥå·®å¼Ĥ
åı¯ä»¥ ä»İ
å¸® æĪĳ
çī© èģĶç½ĳ
çĶ¨æĪ· åıįé¦Ī
æ» ĭ
ä¸İ AI
éĢļè¿ĩ æĬĢæľ¯æīĭæ®µ
æİ¨èįĲ çļĦåĲĹ
Ġbe aut
æľĢè¿ĳåľ¨å¿Ļ ä¸Ģä¸ª
ri end
m er
çķ ı
ä»ħ èĥ½
çĽ¸äºĴ ä½ľçĶ¨
ä¸İæĬĢæľ¯ è¾¹çķĮ
åĬ©åĬĽ çĶ¨æĪ·
Ġquest ions
) ^
ä¸į åŃĺåľ¨
äººç±» ç®Ģåı²
éģ¿åħį æĸĩåĮĸ
Ġre le
æĶ¯æĮģ åĴĮ
å®¢ æľį
æľĢç»Ī çĽ®æłĩæĺ¯
çļĦçĲĨè§£ ä¸İ
Ġpo int
åķĨä¸ļ åĮĸ
éĿŀ è¯Ńè¨Ģ
åħ¬å¹³ ä¸İ
æ³ķå¾ĭ åĨ²çªģ
åı¦ ä¸ĢäºĽ
ä¸įåĲĮåĽ½å®¶ çļĦ
t e
Ġ ä¸įæĺ¯
ä»Ĭå¤© éĺ³åħīå¾Īå¥½
Ġf ound
æłĩåĩĨ åĪ¶å®ļ
iv es
å¹¿ åº¦
çĶŁåĳ½ çļĦæĦıä¹ī
ä¸İçİ°å®ŀ ä¹ĭéĹ´çļĦ
å¦Ĥ AI
æĹ¶éĹ´ ä¸İ
çº ¹
Ġin put
èĩªæĪĳæĦıè¯Ĩ åľ¨
çĽ¸ ç»ĵåĲĪ
æľīä»Ģä¹Ī çī¹åĪ«çļĦ
äººå·¥æĻºèĥ½ä¼¦çĲĨ åĽ°å¢ĥ
è¶ħ è¿ĩ
ä½łä»Ĭå¤©æĥ³ åĲĥä»Ģä¹Ī
Ġcomm un
3 6
æĬ µ
Ġm in
ç¤¾ä¼ļ äºĴåĬ¨
æ¯Ķå¦Ĥ çĶ¨
çķªèĮĦ çĤĴèĽĭ
Ġfe ature
åĲĪæ³ķ æĢ§
iqu e
b ased
åı¯ å¢ŀå¼º
ä¸į åĨį
ä¼¦çĲĨ åĪ¤æĸŃ
ä¸įæĥ³ ä¸Ģèµ·
Ġgo od
éĤ® ä»¶
Ġ Ã
åľ Ĩ
éĢļè¿ĩ åŃ¦ä¹ł
åĨį çĶŁ
Ġen g
æĥ³ åĴĮä½ł
åı¯ä»¥ è¢«
æĪĳä»¬ æĺ¯åĲ¦èĥ½
æĹ¥ æľŁ
è½¬ åĬ¨
ç¤¾äº¤ å¹³åı°
ell o
åĲĪçĲĨå®īæİĴ æĹ¶éĹ´
å ©
ä¼ ª
éĢĤåĲĪ æĪ·å¤ĸæ´»åĬ¨
å¿ħé¡» ç»ıè¿ĩ
æĸĩçī© ä¿®å¤į
b ject
l ine
åĴĮ çĽ®æłĩ
æ¯ı åº§æ¡¥
èĭ ¦
æľīè¶£çļĦäºĭ åĲĹ
å¦Ĥ çĶŁæĪĲ
he d
åı¯èĥ½ ä½¿
å®ĥ çļĦ
åİĭ ç¼©
èĸ Ħ
å¦Ĥæŀľæīĭæľº èĥ½
Ġsk y
çĽĹ æ¢¦
æĤĸ è®º
èĢĮ å¿½è§Ĩ
çĿ Ľ
Ġcon d
è§£çŃĶéĹ®é¢ĺ åĴĮ
² Į
éħ ±
éĢĤåºĶ èĥ½åĬĽ
æĺİæĺİ æĥ³
çĽĹæ¢¦ ç©ºéĹ´
Â °
æĦıè¯Ĩ æ¶īåıĬ
å¹¶ æ²¡æľī
æĮĳæĪĺ äºĨ
ä½ĵçİ° ä¸º
ä¸ªæĢ§åĮĸ æİ¨èįĲ
Ġcons ider
Ġprim ary
ä¸Ĭæĺł çļĦ
J ava
çļĦ ä½ľåĵģ
æĪĸ ç½ĳç«Ļ
æĤ Ķ
Ġen d
è®¸å¤ļ äºº
æľĢ å¤ļ
ä¿ĿæĮģ é«ĺæķĪ
Ġre ad
éľĢéĢļè¿ĩ å¤ļç»´åº¦
ruct ure
i us
u g
at a
åıĳå±ķ æĸ¹åĲĳ
å¦Ĥæŀľä½łæľī ä»»ä½ķéĹ®é¢ĺ
åŁºæľ¬ çļĦ
éĢĶ å¾Ħ
çļĦ ä¸Ģéĥ¨åĪĨ
æī Ń
åĪ©çĶ¨ éĩıåŃĲ
çľ¼ çĿĽ
èĢĮéĿŀè¢« åĬ¨
ä½ł å¹³æĹ¶
åĩ ¸
Ġs he
ä½łæľĢè¿ĳæľīæ²¡æľī çľĭ
éĩĮ æľī
å¯Į åĲ«
Ġen h
å® Ĺ
ä¸İ ä¸ĸçķĮ
Ġc ult
çľŁ æĢ§
è®©ä½ł åį°è±¡æ·±åĪ»
çĥŃ éĩı
åĩ ĳ
åŃĺåľ¨ åĪĻ
å¦Ĥæŀľ AIèĥ½
ou n
Ġd irect
Ġst ate
æĹ¶éĹ´çļĦ åĢĴæµģ
çľĭçľĭ æľīæ²¡æľī
éĽĨä¸Ń åľ¨
åĲĮæĹ¶å¤ĦçĲĨ å¤ļä¸ªä»»åĬ¡
Ñ Ĥ
å¯¹ AIä¼¦çĲĨ
Ġto p
å¾Ī å¿«
Ġe l
çĮ ľ
æĸĩåĮĸ ä¸Ń
å¤ļ æķ°
çŃī æł¸å¿ĥ
çĶµ è¯Ŀ
é¢Ħæµĭ æľªæĿ¥
Ġme ans
åľ¨å¿«èĬĤå¥ı çļĦçĶŁæ´»ä¸Ń
æĹ¥å¸¸ çĶŁæ´»
ä¸Ģä¸ªæĹħè¡ĮèĢħåľ¨ ä¸īä¸ª
å½ĵä»£ AIä¼¦çĲĨ
æľªè§£ ä¹ĭè°ľ
çļĦ è¡¨è¾¾
åĴĮ è®¤çŁ¥
åĴĮ æľįåĬ¡
äºĨ æĸ°çļĦ
å°ı å¿ĥ
æł¼ å¼ı
å·¥ä½ľåİĭåĬĽ å¤§
èĤ¢ ä½ĵ
d ay
Ġc ustom
èģĬ è¿ĩ
Ġ4 0
ä¸Ń å®ŀçİ°
æĭ Į
ä»Ĭå¤© æĪĳ
ä»Ĭå¤© æľīæ²¡æľī
å®ĥ èĥ½å¤Ł
ä¼ł æĦŁ
æĪ¿ åŃĲ
Ġen s
æľīæīĢ ä¸įåĲĮ
æĽ´ è´´è¿ĳ
ä¿¡æģ¯ èİ·åıĸ
èĭ ı
Ġcol umn
å¿ĥçĲĨåŃ¦åĴĮ è®¤çŁ¥ç§ĳåŃ¦
çļĦ è§Ĩè§Ĵ
äºĨ ä¸įå°ĳ
å¦Ĥä½ķ çĶ¨
è®¤ è¯ģ
èµĦ éĩĳ
è¿ŀ è´¯
ä¸İ ä»·åĢ¼è§Ĥ
åĴĮ è§£çŃĶéĹ®é¢ĺ
æĺ¯ åĬ¨æĢģçļĦ
ä»Ĭå¤© æ²¡
æµģ è¡Į
çĥŃ éĹ¨
çļĦ åħ±çĶŁ
èĢĮ ä¸Ķ
è´ ·
èĩªæĪĳ åħ³æĢĢ
åł Ĩ
éĢĤåĲĪå¤ĸåĩº æ´»åĬ¨
çļĦ çİ¯å¢ĥ
çļĦ çī©çĲĨ
åŀ Ĵ
æĶ¯ æĴĳ
ä¸İæĸĩåĮĸ å°Ĭéĩį
av es
Ġwe ather
Ġvers ion
çļĦ çºªå½ķçīĩ
æľī ä¸Ģä¸ª
AI ä¸İäººç±»
ï¼ģ ðŁĮ
å¸¸ å¸¸
ain ing
ä½łæľĢè¿ĳæľīæ²¡æľīè§īå¾Ĺ çĶŁæ´»
Ġ id
çļĦ åĪĽæĸ°
çļĦ è¿½æ±Ĥ
åĴĮ åľ°åĮº
æĺ¯ å®ŀçİ°
å¯¹ ä½łæľī
åģļ åĨ³å®ļ
å»ºç«ĭ éĢıæĺİ
Ġ3 6
åĽ½éĻħ åįıè®®
Ġ\( \
æĥł åıĬ
2 2
äºº çī©
åĴ ª
æĬĢæľ¯ è¾ħåĬ©
ç«ĭ æ³ķ
çľŁçļĦ è®©äºº
æ¶Ī æģ¯
ç»Ļ å®ļ
å¯»æ±Ĥ ä¸ĵä¸ļ
è¯¾ é¢ĺ
äºĨä¸ĢäºĽ æľīè¶£çļĦäºĭæĥħ
å¼¹ æĢ§
Ġa g
æľĢè¿ĳ åĴĮæľĭåıĭä¸Ģèµ·
å¯¹ çĶŁæ´»çļĦ
åı¯ä»¥ åĳĬè¯īæĪĳ
Ġin st
æľĢè¿ĳåľ¨ è¯»
ä¸įæĸŃ è¿ĽæŃ¥
åŁ¹åħ» åħ´è¶£çĪ±å¥½
é©±åĬ¨ åĬĽ
å¥¶ èĮ¶
çļ® èĤ¤
r ies
å Ĺ
éĢļ è¡Į
Ġm achine
æŃ¤ ç±»
ç¤¾äº¤ æĸ¹å¼ı
åĴĸåķ¡ çļĦ
åģ¶å°Ķ ä¼ļ
åĮºåĿĹéĵ¾ æĬĢæľ¯
å»ºè®®æĤ¨ æŁ¥çľĭ
æķ¬ çķı
g an
ä¸ Ŀ
æĺ¯ åŃĺåľ¨çļĦ
æİ¨ éĢģ
è¾¹ çļĦ
éĢĤ çĶ¨äºİ
å®ŀçİ° æĬĢæľ¯è¿ĽæŃ¥
ä¸ªäºº éļĲç§ģ
Ġma ke
çĶŁçĲĨ éľĢæ±Ĥ
åģľæŃ¢ è½¬åĬ¨
ä¸ª å°ı
æĥ³ å°Ŀè¯ķ
åıĳ å¸ĥ
éĩĮ éĿ¢
é£İ åĳ³
ãģ ®
å¯Į æľī
èľ Ĥ
I t
ä½Ĩ ä½ľä¸ºAI
æĪĳä»¬ å°Ŀè¯ķ
è¿Ĳ èĲ¥
å°¤åħ¶æĺ¯ åľ¨
çĶµåŃĲè®¾å¤ĩ çªģçĦ¶
åĲ¬åĲ¬ åĲĹ
çļĦ çĽ®æłĩ
èĢ ³
å½ »
Ġa ir
æĪĸ çĶ¨
åı¯èĥ½ æıĲåįĩ
ä¹ĭ å¤Ħ
è¡¨è¾¾ æĥħç»ª
ak es
1 7
çļĦ å½¢æĪĲ
is s
æĹ¶éĹ´çļĦ æĦŁçŁ¥
og le
ä½Ĩä¸į çŁ¥éģĵ
v al
çĦ Ļ
ç«ĭ åį³
æĹłæ³ķ ç¡®å®ļ
æłĩåĩĨ åĮĸ
Ġg u
æľĢè¿ĳæľīæ²¡æľīäºº è·Łä½ł
ä»ª å¼ı
Ġever y
çĥĺ çĦĻ
S cript
o ogle
åħ¨çĲĥ å¥ĳçº¦
è¯ģ å®ŀ
æ½ ®
è§¦ åıĳ
Ġpl atform
ä»İåĵ²åŃ¦ è§Ĵåº¦æĿ¥çľĭ
äº ¬
æĦı è§ģ
éľĢ åĬłå¼º
æĽ´ æĹ©
è®© èĩªå·±
åħ¶ è¾¹çķĮ
Ġ2 1
å¦Ĥä½ķå¹³è¡¡ æķĪçİĩä¸İ
æĶ¾æĿ¾ å¿ĥæĥħ
-- --
xim um
æľįåĬ¡äºİäººç±» ç¦ıç¥ī
b ox
Ð ¸
çĶ¨ æĿ¥
éļıæĹ¶ åĩĨå¤ĩ
èİ·åıĸ ä¿¡æģ¯
Ġpos s
ä½łæľīæ²¡æľīéģĩåĪ°è¿ĩè¿Ļæł· çļĦæĥħåĨµ
Ġs ing
å¥½ äºĨ
å¦Ĥæŀľ æ¯ıä¸ªäººéĥ½èĥ½
è¾ħåĬ© åĨ³çŃĸ
çľŁå®ŀ æĢ§ä¸İ
ä¿ĥè¿Ľ åħ¨çĲĥ
å¤± çľŁ
ä»ħ æĺ¯
ä½łä¼ļ åĽŀåĪ°è¿ĩåİ»
æĪĳåı¯ä»¥ ä¸ºä½ł
è§¦ è§ī
åĬ¨çī© åŁİ
ç¢³ è¶³è¿¹
å¯ĨéĴ¥ åĪĨåıĳ
çļĦ é¡¹çĽ®
åĴĮ åĨ³çŃĸ
æĽ´ å¤įæĿĤçļĦ
æĥ³ è¦ģ
Ġ= =
å®ĥ éĢļè¿ĩ
æľĢè¿ĳçľĭäºĨ åĩłéĥ¨
çĸ¯çĭĤ åĬ¨çī©åŁİ
å¹´ éķ¿
æĥ³ ä¸Ģèµ·
æ³¨ åĨĮ
è®¡ç®Ĺ èµĦæºĲ
iv ers
ĠT o
è¯¥ æĢİä¹Ī
Ġhe art
è¯· éĹ®
çļĦä¹¦ ç±į
éĽĨä½ĵ ä¸»ä¹ī
åĭ ¤
åĬŀ æ³ķ
ç¢° æĴŀ
åŃĺåľ¨ åĪĨæŃ§
äºĴ è®¤
ä¸ªä½ĵ å¯¹èĩªèº«
åĪ©çĶ¨ AI
éĺ¿éĩĮå·´å·´ éĽĨåĽ¢
å¤ªéĺ³ èĥ½
å® ı
al e
å¾Ī å¼Ģå¿ĥ
ä¿ĥè¿Ľ æĸĩåĮĸ
æĿĲ è´¨
çľĭçľĭ åĲĹ
åı¤ç±į æķ°åŃĹåĮĸåŃĺæ¡£
Ġloo king
ä¸Ń å¹³è¡¡
çī ²
è¿Ļ ä¸İ
å°ı åıĤæķ°
å®ĥ ä¼ļ
æľīä»Ģä¹Ī çī¹åĪ«
éĩįè¦ģ ä»»åĬ¡
çļĦä¼¦çĲĨ æłĩåĩĨ
çŁ³ å¤´
æĢİæł· çļĦ
æĻĴ å¤ªéĺ³
æĥħæĦŁ æĺ¯
Ġm ed
è¢« åĬ¨
åľ¨ åĮ»çĸĹ
ä½ł æľĢæĥ³
Ġa v
éĢļ è®¯
æĸĩ ç«ł
æī İ
èµ İ
èº º
æĺ¯åĲ¦ åı¯èĥ½
å¯¼èĩ´ æĸĩåĮĸ
æľĢå¤§ åĮĸ
èĤĮ èĤī
º çī²
ä¸İ åĲĪä½ľ
Ġt em
ä»¥ ç®Ģæ´ģ
çī ºçī²
ä½Ĩ è¿ĩåº¦ä¾Ŀèµĸ
åī ª
ĠS QL
ä¸ªæĢ§åĮĸ åŃ¦ä¹ł
ä¸»è¦ģä½ĵçİ°åľ¨ ä»¥ä¸ĭåĩłä¸ªæĸ¹éĿ¢
ç§ĺ å¯Ĩ
S E
Ø §
æľįåĬ¡ çĶ¨æĪ·
ä¼ĺåħĪ éĢīæĭ©
è®¾å®ļ å°ıçĽ®æłĩ
ä»ĸä»¬ åĪĨåĪ«
å² Ķ
eth od
çº ½
ä¼ĺåħĪçº§ æİĴåºı
oc us
æĿĥè¡¡ åĪ©å¼Ĭ
çļĦ æıĲåįĩ
æĢĿ è¾¨
æľªæĿ¥ éľĢéĢļè¿ĩ
im es
ut ions
è¶ħ æľī
çļĦäºĭæĥħ åĲĹ
å°Ĭéĩį æĸĩåĮĸå¤ļæł·æĢ§
æĽ´é«ĺæķĪ çļĦ
è£ħ é¥°
çº³ åħ¥
è¯ļ å®ŀ
åĮ¿åĲį åĮĸ
r ic
éĹ ª
å®¶ å±ħ
è½¬ ç§»
æķĳ èµİ
ä¸Ģå®ļç¨ĭåº¦ ä¸Ĭ
3 3
f ter
r a
ä¸İ ä¿¡æģ¯
ä¸Ģ éģĵ
å®ļ å¾ĭ
iv id
çĥ §
çļĦæĺ¯ ä»Ģä¹Ī
æķħ éļľ
çĽĳç®¡ æľºåĪ¶
ä»¤ äºº
éĽĨ åĲĪ
æ¿Ģ æ´»
å¹¶éĿŀ å®Įåħ¨
æŃ£åľ¨ éĩįå¡ĳäººç±»åĪĽéĢłåĬĽ
ä»Ĭå¤©å¿ĥæĥħ ä¸įéĶĻ
åİ»åĵª åĦ¿
è ²Į
åº Ł
äººç±» ç¤¾ä¼ļçļĦ
æĤ Ħ
æĹħ ç¨ĭ
Ġcon f
æľĢè¿ĳæľī æľĭåıĭ
ĠE ng
ä½łæľīåħ´è¶£ åĲ¬åĲ¬åĲĹ
è¯ŃéŁ³ è¯ĨåĪ«
ä½łæľĢè¿ĳæľīæ²¡æľīéģĩåĪ°è¿ĩéľĢè¦ģ å¿«éĢŁ
æĮ ĸ
å¦Ĥä½ķ è®©
æıĲä¾Ľ æĸ°çļĦ
Ġf in
ç¼ ļ
ä½¿çĶ¨ æĹ¶éĹ´
èĬĤ çľģ
åĪ» æĦı
ä¼ļä¸įä¼ļ å½±åĵį
æľīçĤ¹ å°ı
The refore
çĽ®åīį æĹłæ³ķ
æĿŁ ç¼ļ
å¯¹ç«ĭ ç»Łä¸Ģ
åĴĮ åģ¥åº·
Ġf l
éľĢéĢļè¿ĩ ä»¥ä¸ĭ
Ġfi el
ä½ł éģĩåĪ°è¿ĩ
å½± çīĩ
çĲĨè§£ å¹¶
è¿Ļç§į æĥħåĨµä¸ĭ
èĢĮéĿŀ è¿½æ±Ĥ
æ¯Ķ ä¾ĭ
et s
Ġterm s
åĩ¸ æĺ¾
å¿ĥçĲĨåŃ¦åĴĮè®¤çŁ¥ç§ĳåŃ¦ çŃīå¤ļä¸ªé¢ĨåŁŁ
åŁ ĥ
äººå·¥æĻºèĥ½ä¼¦çĲĨ åħ¨çĲĥå¥ĳçº¦
æł¹ æºĲ
ä¸ĢäºĽ æľīè¶£çļĦ
æīĵ åį°
Ġhe alth
Ġsp e
å¤ĦçĲĨä¿¡æģ¯ çļĦèĥ½åĬĽ
æ¯ıä¸ªäºº çļĦ
ç»ĦæĪĲ éĥ¨åĪĨ
Ġyear s
çļĦ æŀĦå»º
ä»¥ æıĲåįĩ
åı¯ä»¥ åĪĨäº«
Ġw ater
ç¡®ä¿Ŀ æķ°æį®
èĢĮéĿŀ ä¸»è§Ĥä½ĵéªĮ
å°¤åħ¶ åľ¨
èĪĴæľį åĳ¢
Ġexpress ion
äººçļĦæīĭæľº éĥ½èĥ½
çļĦ äº¤äºĴ
ä¸Ń ä¸įæĸŃ
Ġc irc
èīºæľ¯ ä¸İ
ä½ĨéľĢ å¹³è¡¡
ç¯ ĩ
Ġbusiness es
Ġaccur ate
H ello
Ġp lease
äººå·¥æĻºèĥ½åľ¨ æĸĩåĮĸéģĹäº§ä¿ĿæĬ¤
åĨį åĪ©çĶ¨
æĦŁåĪ° çĦ¦èĻĳ
éľĢå¹³è¡¡ æĬĢæľ¯åĪĽæĸ°
Ġma ximum
Ġro ot
è¾¹ç¼ĺ åĮĸ
ä¼łæĦŁ åĻ¨
ħ éĩĮ
çļĦ çĬ¶æĢģ
åĪĽä½ľ ä¸»ä½ĵæĢ§
åľºæĻ¯ ä¸ĭ
åĶ ¤
åŃ©åŃĲ çļĦ
ä¸İ å®īåħ¨
æľĢ æĸ°çļĦ
æıĲ ç¥ŀ
å·¥ èīº
å°ı åıĤæķ°AIæ¨¡åŀĭ
åĪĻ ä¾§éĩį
å¾Ī é«ĺ
åħĪ è¿Ľ
è¯ķè¯ķ åĲĹ
æľĢå°ĳ éľĢè¦ģ
Ġenviron ment
æīŃ æĽ²
" :
è® ¢
å¦Ĥä½ķ åºĶå¯¹
æĺİ æĻº
ä»İ BåĪ°C
è·¨æĸĩåĮĸ åĲĪä½ľ
ç§¯æŀģ å½±åĵį
ä»įéľĢ äººç±»
å ´
æľī æĦıä¹ī
ä¸İ çĶŁæ´»
æĺ¯ æĺŁæľŁ
æ¯ıå¤© ä¸ĵæ³¨
ç»Ĩ èħ»
äººæľº åįıåĲĮ
ä»Ĭå¤©æĥ³åŃ¦ çĤ¹
ä¸İ çºłç¼ł
Ġs om
èĩªæĪĳæĦıè¯Ĩ æºĲäºİ
è®¡ç®Ĺ åĴĮ
çİ¯ èĬĤ
åĪĨæŀĲ ä¸İ
èµĭäºĪ çĶŁåĳ½
ç´§ åĩĳ
ä¸İ éļĲç§ģ
æ¸¸ å®¢
åľ¨äººå·¥æĻºèĥ½ é¢ĨåŁŁ
ª æµģ
åı¯ çŁ¥
æĽ´ æĩĤ
æ± ģ
ar m
å®ĥ åı¯èĥ½
ion al
å®ŀçĶ¨ æĢ§
åı¯ å®ŀçİ°
re d
ç®Ĺæ³ķ æŃ§è§Ĩ
æĺİ çĻ½
ç»ı å¸¸
åģļ èĽĭç³ķ
åīį æīĢ
è°ĥæķ´ èĬĤå¥ı
å¿ĥçĲĨ çĬ¶æĢģ
rac e
æĮºæľī æ·±åº¦çļĦ
20 23
res ent
çļĦ ä¾Ŀèµĸ
å¹ ħ
åıĳ æĺİ
ä½¿ åŃĺåľ¨
ç»Ł è®¡
åĪĽéĢł ä»·åĢ¼
æ» ĳ
Ġst or
Ġde ep
Ġinclud e
ellig ence
çļĦ ä½ĵçİ°
åĴĮ èĩªæĪĳ
éĹ´ æİ¥
æĹ¶éĹ´ æĦŁçŁ¥
çŃī å¾ħ
åĩº äºĨ
éĻħ åħ³ç³»
åĩĨç¡® çļĦä¿¡æģ¯
åĪĨäº« çļĦåĲĹ
åĤ ħéĩĮ
æµĭè¯ķ åĳĺ
æľĢè¿ĳåľ¨å¤ĦçĲĨ ä¸ĢäºĽ
å£ģ åŀĴ
Ġcomple x
åĤħéĩĮ åı¶
ä¸İ éģĵå¾·
äºº ç¾¤
æĽ´ æİ¥è¿ĳ
éĿ¢ éĥ¨
åħ¶ åľ¨
åĪĽä½ľ è¾¹çķĮ
å®ĥ åľ¨
Ġsy m
åĤħéĩĮåı¶ åıĺæį¢
n ess
åĴĮ è¡ĮåĬ¨
æĽ´ å¿«
èĩªæĪĳ ä¸İä»ĸäºº
åĲĳ åı³
æĶ¿çŃĸ å¼ķå¯¼
å¤§éĩı æķ°æį®
æľīä¸ī ä¸ªäºº
æŀļ éĩĳå¸ģ
ä½łæľĢè¿ĳæľīæ²¡æľīåħ³æ³¨ è¿ĩ
Ġwebs ite
åīįæīĢ æľª
çļĦ èŀįåĲĪ
æľī ä¸įåĲĮ
ä½ł è¦ģæĺ¯
Ġa ut
en e
æ¶ ¦
èĩªçĶ± éĢīæĭ©
Ġç¬¬ ä¸ī
æĦī æĤ¦
è½¬æį¢ ä¸º
i ed
o od
çļĦ åģ¥åº·
æİ¨ æµĭ
èĤ ¥
äººç±»çļĦ æĥħæĦŁ
å¾® è§Ĥ
æĢĢ çĸĳ
Ġsh ould
ç¾İåĳ³ çļĦ
åĪ ł
å¯¹ çİ°å®ŀ
æķ°æį® è·¨å¢ĥæµģåĬ¨
ver t
åŃ¦ä¹łåĴĮ æĪĲéķ¿
èħ Ĳ
çļĦ åĴĮè°Ĳ
æī ĺ
çĶŁ ç´ł
æĪĸ åľ¨
éĺħè¯» æĪĸ
Ġup d
æ¹ ĸ
Ġarr ay
çķĮ éĿ¢
éĩıåŃĲè®¡ç®Ĺ æľº
ä¸ ģ
çĶ ·
åı¯ è§Ĩ
å¯ Ħ
Ġw id
ä¸ªä½ĵ æĿĥåĪ©
éĢĤåºĶ çİ¯å¢ĥ
l og
Į çĶŁ
ä¸į å®Įç¾İ
æķ° åĪĹ
ä»¥ é«ĺæķĪ
ä½Ĩ è¿Ļ
æĻºèĥ½ æĬĢæľ¯
æŃ¥ è¡Į
ä»İ æĿ¡ä»¶
èĩªæĪĳæĦıè¯Ĩ éĢļè¿ĩ
å§ Ķ
å¿«éĢŁ åıĳå±ķ
act ers
æĦŁè§īå¾Ī åħħå®ŀåĳ¢
åħ¼å®¹ æĢ§
Ġmultip le
Ġapplic ations
ä¸İ æ·±åº¦
æĺ¯ å®¢è§Ĥ
æľªæĿ¥ åŁİå¸Ĥ
æĪĳçļĦ çĽ®æłĩæĺ¯
Ġpro m
Ġch ange
åŁºäºİç®Ĺæ³ķ ä¸İæķ°æį®
æľĢè¿ĳå¾Īå¤ļäºº å¼Ģå§ĭåħ³æ³¨
è¿ Ŀ
èĥ½ è®©äºº
