{"<|endoftext|>":0,"<|im_start|>":1,"<|im_end|>":2,"<|object_ref_start|>":3,"<|object_ref_end|>":4,"<|box_start|>":5,"<|box_end|>":6,"<|quad_start|>":7,"<|quad_end|>":8,"<|vision_start|>":9,"<|vision_end|>":10,"<|vision_pad|>":11,"<|image_pad|>":12,"<|video_pad|>":13,"<|audio_start|>":14,"<|audio_end|>":15,"<|audio_pad|>":16,"<tts_pad>":17,"<tts_text_bos>":18,"<tts_text_eod>":19,"<tts_text_bos_single>":20,"<tool_call>":21,"</tool_call>":22,"<tool_response>":23,"</tool_response>":24,"<think>":25,"</think>":26,"<|buffer1|>":27,"<|buffer2|>":28,"<|buffer3|>":29,"<|buffer4|>":30,"<|buffer5|>":31,"<|buffer6|>":32,"<|buffer7|>":33,"<|buffer8|>":34,"<|buffer9|>":35,"!":36,"\"":37,"#":38,"$":39,"%":40,"&":41,"'":42,"(":43,")":44,"*":45,"+":46,",":47,"-":48,".":49,"/":50,"0":51,"1":52,"2":53,"3":54,"4":55,"5":56,"6":57,"7":58,"8":59,"9":60,":":61,";":62,"<":63,"=":64,">":65,"?":66,"@":67,"A":68,"B":69,"C":70,"D":71,"E":72,"F":73,"G":74,"H":75,"I":76,"J":77,"K":78,"L":79,"M":80,"N":81,"O":82,"P":83,"Q":84,"R":85,"S":86,"T":87,"U":88,"V":89,"W":90,"X":91,"Y":92,"Z":93,"[":94,"\\":95,"]":96,"^":97,"_":98,"`":99,"a":100,"b":101,"c":102,"d":103,"e":104,"f":105,"g":106,"h":107,"i":108,"j":109,"k":110,"l":111,"m":112,"n":113,"o":114,"p":115,"q":116,"r":117,"s":118,"t":119,"u":120,"v":121,"w":122,"x":123,"y":124,"z":125,"{":126,"|":127,"}":128,"~":129,"¡":130,"¢":131,"£":132,"¤":133,"¥":134,"¦":135,"§":136,"¨":137,"©":138,"ª":139,"«":140,"¬":141,"®":142,"¯":143,"°":144,"±":145,"²":146,"³":147,"´":148,"µ":149,"¶":150,"·":151,"¸":152,"¹":153,"º":154,"»":155,"¼":156,"½":157,"¾":158,"¿":159,"À":160,"Á":161,"Â":162,"Ã":163,"Ä":164,"Å":165,"Æ":166,"Ç":167,"È":168,"É":169,"Ê":170,"Ë":171,"Ì":172,"Í":173,"Î":174,"Ï":175,"Ð":176,"Ñ":177,"Ò":178,"Ó":179,"Ô":180,"Õ":181,"Ö":182,"×":183,"Ø":184,"Ù":185,"Ú":186,"Û":187,"Ü":188,"Ý":189,"Þ":190,"ß":191,"à":192,"á":193,"â":194,"ã":195,"ä":196,"å":197,"æ":198,"ç":199,"è":200,"é":201,"ê":202,"ë":203,"ì":204,"í":205,"î":206,"ï":207,"ð":208,"ñ":209,"ò":210,"ó":211,"ô":212,"õ":213,"ö":214,"÷":215,"ø":216,"ù":217,"ú":218,"û":219,"ü":220,"ý":221,"þ":222,"ÿ":223,"Ā":224,"ā":225,"Ă":226,"ă":227,"Ą":228,"ą":229,"Ć":230,"ć":231,"Ĉ":232,"ĉ":233,"Ċ":234,"ċ":235,"Č":236,"č":237,"Ď":238,"ď":239,"Đ":240,"đ":241,"Ē":242,"ē":243,"Ĕ":244,"ĕ":245,"Ė":246,"ė":247,"Ę":248,"ę":249,"Ě":250,"ě":251,"Ĝ":252,"ĝ":253,"Ğ":254,"ğ":255,"Ġ":256,"ġ":257,"Ģ":258,"ģ":259,"Ĥ":260,"ĥ":261,"Ħ":262,"ħ":263,"Ĩ":264,"ĩ":265,"Ī":266,"ī":267,"Ĭ":268,"ĭ":269,"Į":270,"į":271,"İ":272,"ı":273,"Ĳ":274,"ĳ":275,"Ĵ":276,"ĵ":277,"Ķ":278,"ķ":279,"ĸ":280,"Ĺ":281,"ĺ":282,"Ļ":283,"ļ":284,"Ľ":285,"ľ":286,"Ŀ":287,"ŀ":288,"Ł":289,"ł":290,"Ń":291,"ï¼":292,"ä¸":293,"ï¼Į":294,"çļ":295,"çļĦ":296,"ãĢ":297,"æľ":298,"ä½":299,"äº":300,"ãĢĤ":301,"ä»":302,"è¿":303,"åı":304,"æĪ":305,"åĪ":306,"åħ":307,"å¤":308,"åľ":309,"åĬ":310,"åĲ":311,"æľī":312,"å®":313,"ĥ½":314,"åľ¨":315,"ä¹":316,"è§":317,"æĸ":318,"èĥ½":319,"çĶ":320,"åŃ":321,"æĦ":322,"ï¼Ł":323,"è¯":324,"æĺ":325,"ä¼":326,"è®":327,"éĢ":328,"æĢ":329,"çĲ":330,"æķ":331,"ä¸İ":332,"äºº":333,"æĹ":334,"ç»":335,"æĪĳ":336,"çĲĨ":337,"ä½ł":338,"æĥ":339,"åĴ":340,"¦Ĥ":341,"åĮ":342,"ãĢģ":343,"åĴĮ":344,"æĺ¯":345,"å¦Ĥ":346,"è¿ĩ":347,"åı¯":348,"ä¸Ģ":349,"æĿ":350,"åº":351,"ä¿":352,"å¯":353,"éĹ":354,"æ³":355,"åĮĸ":356,"èĩ":357,"å¼":358,"éĩ":359,"**":360,"æĬ":361,"æĹ¶":362,"å°":363,"å·":364,"å¾":365,"èĢ":366,"æľĢ":367,"çİ":368,"ä¸į":369,"æŀ":370,"æ²":371,"è¡":372,"æĢ§":373,"æĦı":374,"èĩª":375,"æĦŁ":376,"Ġt":377,"çĶ¨":378,"å½":379,"å¹":380,"åĨ":381,"å¿":382,"åĽ":383,"ç§":384,"ä¸ª":385,"æķ°":386,"ï¼ļ":387,"ä½ľ":388,"æľ¯":389,"å¤©":390,"âĢ":391,"æł":392,"æĬĢ":393,"æİ":394,"ä»¥":395,"æĮ":396,"æĥħ":397,"ä¸º":398,"åĵ":399,"è¿ĳ":400,"çľ":401,"ç®":402,"ç±":403,"Ġa":404,"åĩ":405,"å¸":406,"æľĢè¿ĳ":407,"in":408,"äºİ":409,"åŃ¦":410,"ä½ĵ":411,"é¢":412,"æ³ķ":413,"ä¸Ń":414,"çī":415,"åį":416,"éĢļ":417,"çĽ":418,"åĬ¨":419,"éľ":420,"æĻ":421,"è¾":422,"æĸĩ":423,"ç±»":424,"æĽ":425,"he":426,"æı":427,"æī":428,"è§£":429,"ä¼ļ":430,"éľĢ":431,"è¯Ĩ":432,"åĲĮ":433,"æŃ":434,"å¯¹":435,"ä¹Ī":436,"ä¾":437,"æ²¡":438,"ĠĠ":439,"çĶŁ":440,"çŃ":441,"æıĲ":442,"éĿ":443,"æĬĢæľ¯":444,"å®ŀ":445,"æ²¡æľī":446,"AI":447,"äºĨ":448,"æį":449,"åĬĽ":450,"åĪ°":451,"çŁ":452,"çİ°":453,"å·¥":454,"èµ":455,"ä¿Ŀ":456,"äººç±»":457,"æĽ´":458,"è¿Ļ":459,"éĹ´":460,"åĪĽ":461,"ä½Ĩ":462,"éģ":463,"éĢļè¿ĩ":464,"æĸ¹":465,"èĢĮ":466,"æĪĸ":467,"ä½ķ":468,"æĸĩåĮĸ":469,"æį®":470,"æĥ³":471,"å±":472,"åıĳ":473,"çķ":474,"æĿ¥":475,"å¥":476,"ç®Ĺ":477,"åħ³":478,"æĪĲ":479,"åŃĺ":480,"è¦":481,"åĪĨ":482,"ç¡":483,"è¦ģ":484,"åı¯èĥ½":485,"çŁ¥":486,"æĭ":487,"å¦Ĥä½ķ":488,"è¶":489,"åĲĪ":490,"åº¦":491,"å½±":492,"åģ":493,"ä»Ģ":494,"ä»Ģä¹Ī":495,"Ġ**":496,"éĻ":497,"æľīæ²¡æľī":498,"æĮģ":499,"er":500,"Ġthe":501,"è´":502,"æĦıè¯Ĩ":503,"åĳ":504,"Ĭå¤©":505,"åĢ":506,"æĶ":507,"å¹³":508,"å¤ļ":509,"åĬ©":510,"¦çĲĨ":511,"ä¼¦çĲĨ":512,"on":513,"åİ":514,"ç¡®":515,"ä»Ĭå¤©":516,"æĻº":517,"æĸ°":518,"é¢ĺ":519,"æķĪ":520,"æŀľ":521,"æ´":522,"åŃĺåľ¨":523,"re":524,"æķ°æį®":525,"çľĭ":526,"æ¯":527,"çķĮ":528,"å¿ĥ":529,"éĹ®":530,"ä¸»":531,"æĻºèĥ½":532,"å®ļ":533,"æµ":534,"**ï¼ļ":535,"èĩªæĪĳ":536,"æģ":537,"è·":538,"éĩı":539,"éĩį":540,"at":541,"ä¿¡":542,"éļ":543,"ä»¬":544,"Ġs":545,"åºĶ":546,"âĢľ":547,"âĢĿ":548,"åŁ":549,"è¡Į":550,"åĵį":551,"æģ¯":552,"å»":553,"åı¯ä»¥":554,"æĥħæĦŁ":555,"åŃĲ":556,"æ´»":557,"Ġo":558,"ä¸ĭ":559,"Ġc":560,"å½±åĵį":561,"éª":562,"è§Ĥ":563,"æ°":564,"å»º":565,"èī":566,"åĨ³":567,"å¥½":568,"ä¹ł":569,"è¿Ľ":570,"å¢":571,"è°":572,"ï¼ģ":573,"ç³":574,"æĹ¶éĹ´":575,"en":576,"ç®Ĺæ³ķ":577,"å¾Ĺ":578,"åħ¨":579,"ç§į":580,"æľº":581,"çŃī":582,"es":583,"éĹ®é¢ĺ":584,"è¡¡":585,"éªĮ":586,"å¼ı":587,"è®¤":588,"å¦Ĥæŀľ":589,"ä¿¡æģ¯":590,"åıĺ":591,"éĶ":592,"é«":593,"é«ĺ":594,"æ·":595,"çĦ":596,"an":597,"ä¹Ł":598,"is":599,"çľŁ":600,"äºĭ":601,"ä½¿":602,"æ¬":603,"éĿ¢":604,"èģ":605,"çº":606,"è®¡":607,"çĲĨè§£":608,"ï¼ī":609,"æİ¨":610,"æĢĿ":611,"æł·":612,"çī¹":613,"æ³¨":614,"ç¤":615,"è§ī":616,"å¹³è¡¡":617,"ç³»":618,"ä¾Ľ":619,"äººå·¥":620,"äºĽ":621,"æľ¬":622,"å¸®":623,"åĽł":624,"äººå·¥æĻºèĥ½":625,"æıĲä¾Ľ":626,"çī©":627,"åĲĹ":628,"åħ·":629,"å±ķ":630,"åĢ¼":631,"åĩĨ":632,"or":633,"ä¸Ģä¸ª":634,"é£":635,"ï¼Ī":636,"åľ°":637,"åĪ«":638,"åĪ¶":639,"åĩº":640,"æ¨":641,"éĺ":642,"æľĢè¿ĳæľīæ²¡æľī":643,"åĲĮæĹ¶":644,"æ¨¡":645,"ï¼Ľ":646,"ä¹ī":647,"æ¡":648,"æ·±":649,"it":650,"è®©":651,"èĢħ":652,"Ġf":653,"ç«":654,"åī":655,"è¾¹":656,"è¶£":657,"åŃ¦ä¹ł":658,"å°ı":659,"çĽ®":660,"æĺİ":661,"ou":662,"åŃĹ":663,"ç¨":664,"èº":665,"ç§ĳ":666,"ä»·":667,"ç´":668,"Ġan":669,"æĹł":670,"çĦ¶":671,"æ±":672,"èº«":673,"éĿŀ":674,"Ġw":675,"æĪ·":676,"è®¾":677,"æ¯ı":678,"æľª":679,"æĪĳä»¬":680,"Ġp":681,"åįĩ":682,"å¤į":683,"åħ¶":684,"Ġof":685,"ä½ĵéªĮ":686,"çĤ":687,"al":688,"åĬ¡":689,"ing":690,"æ¸":691,"è°ĥ":692,"ä»»":693,"åħ¬":694,"çĶŁæ´»":695,"ä¸Ĭ":696,"ä»·åĢ¼":697,"æµģ":698,"äº¤":699,"ä¼ĺ":700,"ç¤¾":701,"Ġin":702,"è´¨":703,"æıĲåįĩ":704,"å¸®åĬ©":705,"å¤Ħ":706,"åıĬ":707,"åĬł":708,"å¢ĥ":709,"å°Ĩ":710,"åĸ":711,"åħ±":712,"èµ·":713,"éĢī":714,"è¯ķ":715,"åĲ¦":716,"çİĩ":717,"åĨħ":718,"ç¨ĭ":719,"éĩıåŃĲ":720,"æłĩ":721,"è¯Ń":722,"ä»£":723,"åľ¨äºİ":724,"çĶ¨æĪ·":725,"ä»ĸ":726,"æĢģ":727,"Ġb":728,"Ġ=":729,"æķ°åŃĹ":730,"åĪĻ":731,"åĪĽä½ľ":732,"Ġm":733,"æ±Ĥ":734,"æº":735,"èīº":736,"ç¬":737,"è¾¹çķĮ":738,"è§Ħ":739,"æ°Ķ":740,"Ġand":741,"ç»ĵ":742,"æŃ¥":743,"çĶµ":744,"çĤ¹":745,"ç»Ł":746,"ç»ı":747,"çł":748,"ar":749,"éģĩ":750,"å¼Ģ":751,"éĢł":752,"çŃĸ":753,"ä¸įåĲĮ":754,"åĽ½":755,"å¼º":756,"éľĢè¦ģ":757,"å¤§":758,"æĺ¯åĲ¦":759,"è¡¨":760,"ä»İ":761,"å¯¼":762,"le":763,"åıĳå±ķ":764,"è®¤çŁ¥":765,"æĭ©":766,"éĢĤ":767,"ç«ĭ":768,"è½":769,"èĥ½åĬĽ":770,"å®ĥ":771,"ç¡®ä¿Ŀ":772,"ä¿ĿæĮģ":773,"æķĪçİĩ":774,"å¤ĦçĲĨ":775,"èĩªæĪĳæĦıè¯Ĩ":776,"é¡":777,"ç»´":778,"æºĲ":779,"æŃ£":780,"éĢīæĭ©":781,"éģĩåĪ°":782,"ic":783,"èīºæľ¯":784,"éķ":785,"ion":786,"è®®":787,"Ġd":788,"å¹¶":789,"æķ´":790,"è·¨":791,"ä¼ł":792,"æĦıä¹ī":793,"æľªæĿ¥":794,"æŃ¤":795,"Ġto":796,"ç¼":797,"ç©":798,"åŀ":799,"å®¶":800,"çĲĥ":801,"å®ŀçİ°":802,"æĸ¹å¼ı":803,"ä½łä»Ĭå¤©":804,"ä¾ĭ":805,"è®¡ç®Ĺ":806,"è¿Ļç§į":807,"æĸŃ":808,"ç»Ń":809,"æŀĦ":810,"ä¸ŃçļĦ":811,"åģļ":812,"æĶ¹":813,"å¾Ī":814,"ä½ľä¸º":815,"éķ¿":816,"ed":817,"åĳ¢":818,"èĬ":819,"å¸¸":820,"éģ¿":821,"è¿ĺ":822,"æİ¢":823,"èĻ":824,"åħį":825,"Ġ\\":826,"åŀĭ":827,"æĿĥ":828,"åįı":829,"æĿĤ":830,"ä»¶":831,"äºĴ":832,"é«ĺæķĪ":833,"æīĭ":834,"èĢĮéĿŀ":835,"éļĲ":836,"æĢİ":837,"å¤įæĿĤ":838,"éģ¿åħį":839,"æ¶":840,"åŁº":841,"æĪĳçļĦ":842,"æ¯Ķ":843,"çª":844,"ä¸»è§Ĥ":845,"åİ»":846,"çī¹åĪ«":847,"ä¹ĭ":848,"è§Ĩ":849,"éĶ®":850,"åħ¥":851,"å®¹":852,"å¤©æ°Ķ":853,"å·®":854,"ä¸Ģèµ·":855,"çĿ":856,"éĥ½":857,"ä½¿çĶ¨":858,"å½ĵ":859,"ä½łæľīæ²¡æľī":860,"åħ³éĶ®":861,"æĹłæ³ķ":862,"Ġ1":863,"éĥ":864,"æİ¥":865,"ro":866,"ä½łæľĢè¿ĳæľīæ²¡æľī":867,"æ²»":868,"è§£åĨ³":869,"åĸľ":870,"ç²":871,"åıĹ":872,"ä¸ĵ":873,"å¼Ĥ":874,"éĻĲ":875,"çªģ":876,"ä¸ļ":877,"ä¾ĭå¦Ĥ":878,"èĮ":879,"åĪ©":880,"ç¤¾ä¼ļ":881,"åĲĳ":882,"åĲİ":883,"æľŁ":884,"è¢":885,"Ġis":886,"åıį":887,"çĽ¸":888,"è¾¾":889,"æ¬¢":890,"ä½łå¦Ĥä½ķ":891,"éĥ¨":892,"åĵģ":893,"ç§ģ":894,"æĢİä¹Ī":895,"åĪĽéĢł":896,"å·¥ä½ľ":897,"å®ī":898,"åīį":899,"èĭ":900,"æīĢ":901,"éĻħ":902,"åķ":903,"Ġn":904,"åħ¨çĲĥ":905,"èĩ´":906,"æľīè¶£":907,"åŃĺåľ¨çļĦ":908,"å¤ĸ":909,"å°ĳ":910,"é£Ł":911,"èĢĥ":912,"ĊĠĠ":913,"æĮģç»Ń":914,"éļĲç§ģ":915,"æľĢè¿ĳåľ¨":916,"è¢«":917,"çİ¯":918,"æĬ¤":919,"as":920,"åĨ³çŃĸ":921,"èĬĤ":922,"æŀĲ":923,"æŁ":924,"åŁŁ":925,"åĮħ":926,"ä¼ĺåĮĸ":927,"å¼ķ":928,"ãĢĬ":929,"ãĢĭ":930,"å»ºç«ĭ":931,"åĿ":932,"å¾ĭ":933,"æ²»çĲĨ":934,"äº§":935,"å·±":936,"ç¾":937,"å¿«":938,"ç½":939,"èĩªå·±":940,"ac":941,"ä¸ªäºº":942,"æŀ¶":943,"æĪĺ":944,"æľīä»Ģä¹Ī":945,"æĶ¹åıĺ":946,"èģĬ":947,"ç²¾":948,"ç´¢":949,"åĪĨæŀĲ":950,"ä¸ī":951,"ä¸ĸ":952,"éĩĮ":953,"Ġ-":954,"èĩªèº«":955,"ä¾Ŀ":956,"ç®¡":957,"ä»į":958,"åºĶçĶ¨":959,"Ġl":960,"Ġe":961,"æľį":962,"åıª":963,"å·®å¼Ĥ":964,"åħ³ç³»":965,"åĸľæ¬¢":966,"éĽ":967,"æī¾":968,"ä¸ĸçķĮ":969,"ç»ª":970,"æĮĳ":971,"å®Į":972,"è¨":973,"è§ģ":974,"æĦŁè§ī":975,"æİ¨åĬ¨":976,"ent":977,"æ¡Ĩ":978,"çģ":979,"è¨Ģ":980,"Ġ2":981,"è®°":982,"è·¯":983,"æĮĳæĪĺ":984,"çļĦäºĭ":985,"å°Ŀ":986,"è±":987,"åģı":988,"èĭ¥":989,"åĵ²":990,"æ¡Ĩæŀ¶":991,"åħĪ":992,"èį":993,"Ġ$":994,"Ġre":995,"é¢Ĩ":996,"æĥħç»ª":997,"äººå·¥æĻºèĥ½ä¼¦çĲĨ":998,"åĵ²åŃ¦":999,"ä»»åĬ¡":1000,"é¥":1001,"Ġy":1002,"è§Ĵ":1003,"å½¢":1004,"è¯Ŀ":1005,"å¸¦":1006,"æ¬¡":1007,"å¯¼èĩ´":1008,"å°Ŀè¯ķ":1009,"çĶŁæĪĲ":1010,"çĿĢ":1011,"çĶµå½±":1012,"ĠA":1013,"å¦Ĥä½ķå½±åĵį":1014,"é£İ":1015,"é¢ĨåŁŁ":1016,"æĤ":1017,"åıĸ":1018,"äº«":1019,"æĢİä¹Īæł·":1020,"ä¸ĵæ³¨":1021,"åĲĥ":1022,"å·¥åħ·":1023,"ĠC":1024,"åĽłæŃ¤":1025,"ä¿ĿæĬ¤":1026,"éĢŁ":1027,"åĽŀ":1028,"æĹ¥":1029,"åħ³éĶ®åľ¨äºİ":1030,"æ»":1031,"åİŁ":1032,"æł¹":1033,"å¢ŀ":1034,"om":1035,"##":1036,"çİ°å®ŀ":1037,"åĪĽæĸ°":1038,"åıĭ":1039,"çĭ":1040,"æİ¢ç´¢":1041,"å¾ħ":1042,"èĤ":1043,"éĶĻ":1044,"è¾ĳ":1045,"Ġ+":1046,"èī²":1047,"st":1048,"ä¿ĥ":1049,"ä¸ĢäºĽ":1050,"å»ºè®®":1051,"è·¨æĸĩåĮĸ":1052,"çŁ¥è¯Ĩ":1053,"Ġth":1054,"åħ´":1055,"ç§ĳåŃ¦":1056,"et":1057,"æĥ³è¿ĩ":1058,"æľ¬è´¨":1059,"è±¡":1060,"éľĢæ±Ĥ":1061,"è¯Ńè¨Ģ":1062,"è¯»":1063,"im":1064,"Ġh":1065,"æĿ¡":1066,"åĻ":1067,"æĻ¯":1068,"è®º":1069,"æ¨¡åŀĭ":1070,"è°ĥæķ´":1071,"æĦŁçŁ¥":1072,"éĴ":1073,"æĶ¯":1074,"éĢ»":1075,"éĢ»è¾ĳ":1076,"è¾ħ":1077,"éŁ":1078,"è¡¨è¾¾":1079,"çĸ":1080,"äººç±»çļĦ":1081,"å¤Ł":1082,"å®īåħ¨":1083,"ä¸ªä½ĵ":1084,"éĩıåŃĲè®¡ç®Ĺ":1085,"ä¹ĭéĹ´":1086,"åĵª":1087,"åĩı":1088,"åıĤ":1089,"æľĭ":1090,"ðŁ":1091,"çĽ´":1092,"èµĸ":1093,"ç¥":1094,"å°±":1095,"åĪ¤":1096,"æľĭåıĭ":1097,"èµĦ":1098,"ä¹¦":1099,"æĶ¾":1100,"åĪĽéĢłåĬĽ":1101,"ç¢":1102,"åĻ¨":1103,"è¿ĻäºĽ":1104,"å¿Ļ":1105,"ä¾Ŀèµĸ":1106,"ä½ľä¸ºAI":1107,"è¯´":1108,"åħ´è¶£":1109,"éĩįè¦ģ":1110,"éģĵ":1111,"é¦":1112,"éĢı":1113,"è¾ħåĬ©":1114,"el":1115,"éĹ¨":1116,"um":1117,"åİĨ":1118,"è¿ĩå¾Ĺ":1119,"ç³»ç»Ł":1120,"Ġyou":1121,"ç§ĳæĬĢ":1122,"æłĩåĩĨ":1123,"åģ¥":1124,"åįķ":1125,"èįĲ":1126,"æİ¨èįĲ":1127,"å±Ĥ":1128,"çĽ®æłĩ":1129,"æ¯ıå¤©":1130,"åĨµ":1131,"éŁ³":1132,"æľįåĬ¡":1133,"æ·±åº¦":1134,"åĪ»":1135,"å¤ĩ":1136,"åľº":1137,"è¿Ĳ":1138,"é¡¹":1139,"æľºåĪ¶":1140,"çĶ±":1141,"èĥ½å¤Ł":1142,"æł¹æį®":1143,"æĭŁ":1144,"ec":1145,"æļ":1146,"æĸ¹éĿ¢":1147,"å¡":1148,"åĨħå®¹":1149,"èĮĥ":1150,"éĢıæĺİ":1151,"é¢Ħ":1152,"ä¹Ĳ":1153,"ç¾İ":1154,"æħ":1155,"åĮº":1156,"æ°´":1157,"åĥ":1158,"ä¸»è§Ĥä½ĵéªĮ":1159,"æĮº":1160,"å¯Ĩ":1161,"il":1162,"åħ¬å¹³":1163,"çİ¯å¢ĥ":1164,"ow":1165,"èĥ":1166,"ç¬¬":1167,"id":1168,"æĶ¯æĮģ":1169,"Ġu":1170,"çľŁå®ŀ":1171,"ĨĴ":1172,"æĢĿèĢĥ":1173,"éģĩåĪ°è¿ĩ":1174,"è¿Ľè¡Į":1175,"åĥı":1176,"ç»ĵåĲĪ":1177,"éļ¾":1178,"ç¬¦":1179,"ig":1180,"çľĭå¾ħ":1181,"åº·":1182,"æ¯Ķå¦Ĥ":1183,"åħī":1184,"è´£":1185,"èģĶ":1186,"çĭ¬":1187,"å¸¦æĿ¥":1188,"æ¸ħ":1189,"èĦ":1190,"éħ":1191,"th":1192,"æł¸":1193,"éļı":1194,"çŃĶ":1195,"åģ¥åº·":1196,"åĩıå°ĳ":1197,"èĩªçĦ¶":1198,"è®¾è®¡":1199,"éĤ":1200,"Ġg":1201,"æĢ§ä¸İ":1202,"ation":1203,"æ¡Ī":1204,"``":1205,"æĽ¿":1206,"æĥħåĨµ":1207,"åģıè§ģ":1208,"åħ·ä½ĵ":1209,"ç»Ī":1210,"ers":1211,"ä½łæľī":1212,"è¿ĩç¨ĭ":1213,"å¡ĳ":1214,"èµ°":1215,"è§īå¾Ĺ":1216,"00":1217,"ä¸įéĶĻ":1218,"æĢĿç»´":1219,"é¸":1220,"Ġ3":1221,"ç®Ģ":1222,"ol":1223,"çłĶ":1224,"ï½":1225,"ï½ŀ":1226,"äºĴåĬ¨":1227,"åĲĪä½ľ":1228,"ç®¡çĲĨ":1229,"å¤ļæł·":1230,"æµĭ":1231,"åıĳçİ°":1232,"å¼ķåıĳ":1233,"iv":1234,"çĥ":1235,"æķĻ":1236,"ç¥ŀ":1237,"åĪ¤æĸŃ":1238,"æ¶ī":1239,"ut":1240,"è®¨":1241,"åŁºäºİ":1242,"ĠT":1243,"ä¿ĥè¿Ľ":1244,"æ²Ł":1245,"ç©º":1246,"æĢ»":1247,"è¶Ĭ":1248,"ä»·åĢ¼è§Ĥ":1249,"çľŁæŃ£":1250,"éĻ©":1251,"ç»ĥ":1252,"å¹´":1253,"æī¾åĪ°":1254,"ĠI":1255,"Ġfor":1256,"æ¶īåıĬ":1257,"å¿ĥæĥħ":1258,"åħ»":1259,"ä½łå¦Ĥä½ķçľĭå¾ħ":1260,"åı£":1261,"if":1262,"å§":1263,"åĽ°":1264,"æ¸©":1265,"çīĩ":1266,"çģµ":1267,"åĬ¨æĢģ":1268,"ä»Ĭå¤©å¤©æ°Ķ":1269,"åĽ¾":1270,"äººå·¥æĻºèĥ½ä¼¦çĲĨåľ¨":1271,"ä¼łç»Ł":1272,"è½¬":1273,"am":1274,"çļĦè¾¹çķĮ":1275,"æ®":1276,"æĤ¨":1277,"ç¦":1278,"åıĺåĮĸ":1279,"æł¸å¿ĥ":1280,"ĠB":1281,"ç²¾åĩĨ":1282,"æĿ¡ä»¶":1283,"çĬ":1284,"ä½ĵçİ°":1285,"è¥":1286,"è¥¿":1287,"æľīè¶£çļĦ":1288,"é¥®":1289,"éĽĨ":1290,"åİĭ":1291,"è¿ĩåº¦":1292,"æ»¡":1293,"ä»ĸäºº":1294,"åħ³æ³¨":1295,"ä¸¤":1296,"ç©¶":1297,"æĽ¿ä»£":1298,"ä½łæľĢè¿ĳ":1299,"åĲ¬":1300,"åĢĴ":1301,"èİ":1302,"åĪĴ":1303,"å¤±":1304,"åħħ":1305,"ç½ĳ":1306,"æ´»åĬ¨":1307,"ä½į":1308,"è¶ħ":1309,"ul":1310,"è¶³":1311,"å¢ĥä¸ĭ":1312,"èĩªå·±çļĦ":1313,"ç§¯":1314,"ce":1315,"ä»¥ä¸ĭ":1316,"æĹ¢":1317,"è®¸":1318,"èµĭ":1319,"ä½łçļĦ":1320,"è¿½":1321,"çłĶç©¶":1322,"å¢ŀå¼º":1323,"åıĪ":1324,"çº¿":1325,"ly":1326,"æĪĳçļĦåŃĺåľ¨":1327,"ä»ħ":1328,"ä¸Ķ":1329,"åĩĨç¡®":1330,"éħį":1331,"åĳ³":1332,"æĸ°çļĦ":1333,"èŀ":1334,"èĥĮ":1335,"æİ§":1336,"çļĦäºĭæĥħ":1337,"ur":1338,"èĻĳ":1339,"äººå·¥æĻºèĥ½ä¼¦çĲĨåľ¨è·¨æĸĩåĮĸ":1340,"ä¸įè¿ĩ":1341,"èŀį":1342,"å¯Ł":1343,"ðŁĺ":1344,"åħĥ":1345,"åĨ²":1346,"è®Ń":1347,"æ®µ":1348,"éĤ£":1349,"æĪ¿":1350,"ab":1351,"æĪĲä¸º":1352,"èīºæľ¯åĪĽä½ľ":1353,"æĥ¯":1354,"å§ĭ":1355,"èİ·":1356,"å¾Ģ":1357,"æĸ¹æ³ķ":1358,"å¾Ħ":1359,"ç¤¾äº¤":1360,"ç¬¦åĲĪ":1361,"ä¹łæĥ¯":1362,"æİĴ":1363,"åĪĨäº«":1364,"å¿«éĢŁ":1365,"åĳ½":1366,"åĢĴæµģ":1367,"åĲĦ":1368,"Ġst":1369,"å¿ĥçĲĨ":1370,"qu":1371,"å±ŀ":1372,"å¿µ":1373,"æĦıè¯ĨçļĦ":1374,"çĬ¶":1375,"ä½łæľīæ²¡æľīæĥ³è¿ĩ":1376,"æ¼":1377,"è´£ä»»":1378,"æĭ¬":1379,"è¯ģ":1380,"åĪ©çĶ¨":1381,"ate":1382,"æ¨¡å¼ı":1383,"éĴŁ":1384,"è§ĦèĮĥ":1385,"æ³¨æĦı":1386,"æīĭæľº":1387,"å¤ļæł·æĢ§":1388,"å¥ı":1389,"æīĢæľī":1390,"ä¼ĺåħĪ":1391,"ä¸įæĸŃ":1392,"åħ±åĲĮ":1393,"çłģ":1394,"éĢĤåĲĪ":1395,"Ġit":1396,"æĸ¹åĲĳ":1397,"åıįæĢĿ":1398,"åĽ½å®¶":1399,"è¡Įä¸º":1400,"Ġor":1401,"æī¿":1402,"æ²ŁéĢļ":1403,"æĺ¯ä¸Ģä¸ª":1404,"æĪĲéķ¿":1405,"ind":1406,"åĮħæĭ¬":1407,"Ġv":1408,"çł´":1409,"åī§":1410,"æĽ´å¤ļ":1411,"se":1412,"äºĮ":1413,"è·¯å¾Ħ":1414,"é¡¹çĽ®":1415,"èµĦæºĲ":1416,"Ġcan":1417,"åķ¡":1418,"Ġthat":1419,"é¥®é£Ł":1420,"ä»¥åıĬ":1421,"ç´ł":1422,"çĪ":1423,"æ·±åĪ»":1424,"æºĲäºİ":1425,"ä¸įä¼ļ":1426,"å®¢":1427,"æĦŁåıĹ":1428,"ct":1429,"è¿ĽæŃ¥":1430,"å¸Ĥ":1431,"Ġpro":1432,"çļĦä¿¡æģ¯":1433,"åĴĸ":1434,"èĬĤå¥ı":1435,"èĤ²":1436,"ä½łæĺ¯åĲ¦":1437,"Ġ\"":1438,"åĴĸåķ¡":1439,"æŁĲ":1440,"æľºåĻ¨":1441,"çļĦåĲĹ":1442,"å·²":1443,"è¯Ńå¢ĥä¸ĭ":1444,"ot":1445,"åĴĮæľĭåıĭ":1446,"æŀģ":1447,"äº¤æµģ":1448,"éĥ¨åĪĨ":1449,"é£İéĻ©":1450,"æł¼":1451,"æ³ķå¾ĭ":1452,"æ£":1453,"å¯»":1454,"æľīåĬ©":1455,"å½¢æĪĲ":1456,"å½ķ":1457,"æľīåĬ©äºİ":1458,"åĬŁ":1459,"åİĭåĬĽ":1460,"æĬĢèĥ½":1461,"ç¤º":1462,"æĹ©":1463,"æĹħ":1464,"çĽĬ":1465,"åĨ²çªģ":1466,"ä¸įæĺ¯":1467,"è®Ńç»ĥ":1468,"åįıä½ľ":1469,"Ġ(":1470,"ge":1471,"çĽĳ":1472,"çļĦçĶµå½±":1473,"æľīä»Ģä¹Īæĥ³":1474,"äººå·¥æĻºèĥ½ä¼¦çĲĨåľ¨è·¨æĸĩåĮĸè¯Ńå¢ĥä¸ĭ":1475,"æĺİç¡®":1476,"ä¼¼":1477,"ç¼ĸ":1478,"è®©ä½ł":1479,"éĺ³":1480,"çļĦæĺ¯":1481,"å£":1482,"æŁ¥":1483,"çº§":1484,"å®¡":1485,"Ġ5":1486,"æĮĩ":1487,"äºī":1488,"Ġas":1489,"è¿ŀ":1490,"è¿ĩå¾ĹæĢİä¹Īæł·":1491,"æķĻèĤ²":1492,"æŀĦå»º":1493,"åıĤä¸İ":1494,"ä¸»è¦ģ":1495,"èĲ":1496,"å¼Ģå¿ĥ":1497,"ç®Ĺæ³ķåģıè§ģ":1498,"Ġcon":1499,"æħ¢":1500,"éĢĤåºĶ":1501,"åºı":1502,"èı":1503,"ir":1504,"éĩĬ":1505,"é»":1506,"å°Ĭ":1507,"è§£åĨ³éĹ®é¢ĺ":1508,"è¿Ļä¸ª":1509,"è®¾å®ļ":1510,"ä¸ľ":1511,"è¯ĨåĪ«":1512,"åĪĨéĴŁ":1513,"åĽłä¸º":1514,"ðŁĺĬ":1515,"ä¸İä¼¦çĲĨ":1516,"ä¸Ģç§į":1517,"æĿ¾":1518,"Ġon":1519,"æĹ¥å¸¸":1520,"éģĩåĪ°ä»Ģä¹Ī":1521,"çľŁçļĦ":1522,"åĢĻ":1523,"åĪ¶å®ļ":1524,"å¼ºè°ĥ":1525,"èĻļ":1526,"åĳĺ":1527,"çĶ»":1528,"åį³":1529,"âĢĶ":1530,"è®¤ä¸º":1531,"âĨĴ":1532,"ç»Ħ":1533,"è¯Ħ":1534,"åĽ½éĻħ":1535,"ä»Ĭå¤©æĥ³":1536,"çļĦéĹ®é¢ĺ":1537,"è¿ĩåİ»":1538,"èĦĳ":1539,"æ¶Ī":1540,"ä¸İæĸĩåĮĸ":1541,"ä¹ĭéĹ´çļĦ":1542,"åı²":1543,"ith":1544,"è¯¥":1545,"èĪ":1546,"çĦ¦":1547,"å°Ĭéĩį":1548,"æıĲé«ĺ":1549,"æĽ´å¥½":1550,"éķ¿æľŁ":1551,"æķ£":1552,"æĪĸèĢħ":1553,"Ġmo":1554,"å¿Ĩ":1555,"ä½İ":1556,"æĬĢæľ¯åıĳå±ķ":1557,"çľĭè¿ĩ":1558,"ï¼īï¼Į":1559,"æĻ®":1560,"ä¸įåĲĮæĸĩåĮĸ":1561,"å¿ħ":1562,"est":1563,"è¯¯":1564,"ad":1565,"éĺħ":1566,"èıľ":1567,"åħ¨çĲĥæķ°åŃĹ":1568,"åĮ»":1569,"éľĢéĢļè¿ĩ":1570,"Ġbe":1571,"æĹħè¡Į":1572,"æİ¨çĲĨ":1573,"è§Ħå¾ĭ":1574,"10":1575,"äºĪ":1576,"æ¨¡æĭŁ":1577,"æĶ¶":1578,"ç¼º":1579,"çļĦä¼¦çĲĨ":1580,"ç¡®å®ŀ":1581,"åĤ":1582,"ĠS":1583,"èĥĮæĻ¯":1584,"ç»ĵæŀĦ":1585,"æľĢè¿ĳæľīæ²¡æľīäºº":1586,"æĺ¾":1587,"'s":1588,"ä½łä»Ĭå¤©è¿ĩå¾ĹæĢİä¹Īæł·":1589,"åı¤":1590,"ä¸įä»ħ":1591,"###":1592,"äººç±»æĥħæĦŁ":1593,"åŁ¹":1594,"å®ŀéĻħ":1595,"æľĽ":1596,"å¦Ĥä½ķå¹³è¡¡":1597,"è®©æĪĳ":1598,"æĪĳæ²¡æľī":1599,"ä¸īä¸ª":1600,"Ġ4":1601,"å¯¹è¯Ŀ":1602,"ç¥ŀç»ı":1603,"äººå·¥æĻºèĥ½åľ¨":1604,"ä¾¿":1605,"çĬ¶æĢģ":1606,"av":1607,"æĪ¿éĹ´":1608,"ist":1609,"AIåľ¨":1610,"ä½ľåĵģ":1611,"éĢĲ":1612,"Ġwh":1613,"çĽ´æİ¥":1614,"è®©äºº":1615,"éĺħè¯»":1616,"éŁ³ä¹Ĳ":1617,"ver":1618,"éĩįæĸ°":1619,"åħ¬å¹³æĢ§":1620,"çĽ¸åħ³":1621,"é©":1622,"åĲĪçĲĨ":1623,"un":1624,"éģĹ":1625,"ç½®":1626,"å¦Ĥä½ķåľ¨":1627,"ä»½":1628,"æĴ":1629,"æĪĳä¼ļ":1630,"èĩªæĪĳè®¤çŁ¥":1631,"æİ¢è®¨":1632,"åĿļ":1633,"æ¼Ķ":1634,"ç»ıåİĨ":1635,"æ¦Ĥ":1636,"ç»´åº¦":1637,"Ġwith":1638,"æķħ":1639,"æ¸ħæĻ":1640,"Ġcom":1641,"ay":1642,"åºĶå¯¹":1643,"è´¨éĩı":1644,"å®Įåħ¨":1645,"èµĭäºĪ":1646,"çŁŃ":1647,"è®°å¿Ĩ":1648,"æļĸ":1649,"çļĦæĥħåĨµ":1650,"æķĪçİĩä¸İ":1651,"igh":1652,"æ²»çĲĨçļĦ":1653,"ç¡Ģ":1654,"åŁºç¡Ģ":1655,"æľĢç»Ī":1656,"Ġr":1657,"è§£çŃĶ":1658,"å±Ģ":1659,"ä¸ºäºĨ":1660,"ä»İèĢĮ":1661,"çļĦçĲĨè§£":1662,"æĺĵ":1663,"ç»Ĩ":1664,"ä¼łæī¿":1665,"å¾Īå¤ļ":1666,"æĶ¿":1667,"¤Ĳ":1668,"é¤Ĳ":1669,"em":1670,"åĬŁèĥ½":1671,"æĸĻ":1672,"åİĨåı²":1673,"çªģçł´":1674,"ib":1675,"çĪ±":1676,"rac":1677,"éļľ":1678,"ain":1679,"ä¼ļä¸įä¼ļ":1680,"åĲĥäºĨ":1681,"æ¢":1682,"ç¡®å®ļ":1683,"æ»¡è¶³":1684,"æµ·":1685,"è¿½æ±Ĥ":1686,"ä»ĸä»¬":1687,"æĽ´å¥½åľ°":1688,"Ġ\\(":1689,"ter":1690,"pp":1691,"éĩĳ":1692,"æŃ¤å¤ĸ":1693,"å¹²":1694,"çĸĹ":1695,"å¤ª":1696,"è¿ĲåĬ¨":1697,"çĦ¶èĢĮ":1698,"å®ļä¹ī":1699,"```":1700,"è§Ĩè§Ĵ":1701,"æ¿":1702,"èĩªçĶ±":1703,"çĮ":1704,"åŃ¦ä¹łåĴĮ":1705,"å¹¿":1706,"ä½łä¼ļ":1707,"æĪĳçļĦåŃĺåľ¨æĺ¯":1708,"äººä»¬":1709,"æīĵ":1710,"åħ³äºİ":1711,"åĨĻ":1712,"ä¸Ģæ¬¡":1713,"ä¿®":1714,"è®°å½ķ":1715,"å¼±":1716,"ä¼Ĺ":1717,"æ¸ħæĻ°":1718,"æĢ§çļĦ":1719,"ç»Ļ":1720,"èĩªä¸»":1721,"éĩĩ":1722,"çķ¥":1723,"åħ¶ä»ĸ":1724,"æĹ¶åĢĻ":1725,"è½»":1726,"çĥŃ":1727,"æľīæķĪ":1728,"ç®Ģåįķ":1729,"åĨį":1730,"and":1731,"å®ĮæĪĲ":1732,"åģĩ":1733,"Ġhe":1734,"çºł":1735,"çķĮéĻĲ":1736,"æ¿Ģ":1737,"Ġare":1738,"æĭĵ":1739,"Ġex":1740,"æīĢä»¥":1741,"æĪĳåı¯ä»¥":1742,"çĻ":1743,"èĻļæĭŁ":1744,"å±ĤéĿ¢":1745,"è§£éĩĬ":1746,"æĺŁ":1747,"äºīè®®":1748,"èĩªèº«åŃĺåľ¨çļĦ":1749,"äº§çĶŁ":1750,"éĺŁ":1751,"æĺ¯çļĦ":1752,"ĠâĨĴ":1753,"å½Ĵ":1754,"æĬĢæľ¯çļĦ":1755,"èĻ½":1756,"æĦŁåĪ°":1757,"æĹ¶éĹ´çļĦ":1758,"åı¯æĮģç»Ń":1759,"è¾ĵ":1760,"å¡ĳéĢł":1761,"å¼Ģåıĳ":1762,"ç»ľ":1763,"èĩ³":1764,"ç¦»":1765,"åıªèĥ½":1766,"çĭ¬çī¹":1767,"æľīçĤ¹":1768,"æ¯ıä¸ª":1769,"åĪĹ":1770,"çĶŁåĳ½":1771,"umb":1772,"åı°":1773,"æĢ§åĴĮ":1774,"åŁ¹åħ»":1775,"å¾·":1776,"å¾®":1777,"è¿°":1778,"$$":1779,"éĺ²":1780,"åĬ¿":1781,"çī©çĲĨ":1782,"ä¹ı":1783,"ch":1784,"ç½ĳç»ľ":1785,"ä¸İäºº":1786,"æĽ´åĬł":1787,"è¡ĮåĬ¨":1788,"æ³¨éĩį":1789,"çªģçĦ¶":1790,"æī°":1791,"åĪĽæĦı":1792,"yth":1793,"éĿĻ":1794,"æ¦Ĥå¿µ":1795,"è´Ł":1796,"ç±»åŀĭ":1797,"ex":1798,"ç»ıéªĮ":1799,"éĻį":1800,"å°Ŀè¯ķè¿ĩ":1801,"é¸£":1802,"ä½ĨéľĢ":1803,"AIçļĦ":1804,"åİŁåĪĽ":1805,"ç¼ºä¹ı":1806,"ĠThe":1807,"æĿĲ":1808,"å®ĥä»¬":1809,"è§Ĵåº¦":1810,"è¿Ļæł·":1811,"ä¸ĵæ³¨äºİ":1812,"ight":1813,"çļĦäºº":1814,"éĵ":1815,"äºĨè§£":1816,"çĶŁçī©":1817,"è¯ķè¯ķ":1818,"èŀįåĲĪ":1819,"éĢļå¸¸":1820,"æĶ¾æĿ¾":1821,"å¼Ģå§ĭ":1822,"æĦŁè§īçī¹åĪ«":1823,"åĩł":1824,"çº¦":1825,"æķħäºĭ":1826,"ure":1827,"ä¸»åĬ¨":1828,"æ½":1829,"ç±»ä¼¼":1830,"âĢĿï¼Į":1831,"ä¸´":1832,"ãĢĭï¼Į":1833,"éļıæĹ¶":1834,"éĿ¢å¯¹":1835,"å¥ĩ":1836,"ç¾¤":1837,"åľºæĻ¯":1838,"åª":1839,"åı¯èĥ½ä¼ļ":1840,"æīį":1841,"åĨħåľ¨":1842,"åĲ«":1843,"ç»ĵæŀľ":1844,"è´¹":1845,"å½ĵåīį":1846,"æĸ¹æ¡Ī":1847,"åħ±é¸£":1848,"æĲ":1849,"od":1850,"ython":1851,"çļĦæĸ¹å¼ı":1852,"ä¼ĳ":1853,"èģĮ":1854,"ĠH":1855,"å£°":1856,"æ¡¥":1857,"çģµæ´»":1858,"The":1859,"éĨĴ":1860,"æľīä»Ģä¹Īæĥ³èģĬ":1861,"æ¸¸":1862,"æŃ§":1863,"ĠP":1864,"å¦ĤæŀľæĹ¶éĹ´":1865,"åĮħå®¹":1866,"Ġal":1867,"ç´¯":1868,"æķ£æŃ¥":1869,"ä¸ľè¥¿":1870,"ess":1871,"åı¯èĥ½å¼ķåıĳ":1872,"åŁİ":1873,"æĦ¿":1874,"åįıåĲĮ":1875,"æĿĳ":1876,"é¦ĸ":1877,"åŃ¦ä¹łæĸ°":1878,"èĽ":1879,"åĽ¢":1880,"æĮºæľī":1881,"éľĢåľ¨":1882,"çľŁæŃ£çļĦ":1883,"èİ·åıĸ":1884,"è§īå¯Ł":1885,"åķĨ":1886,"Ġ`":1887,"æĢ§åĮĸ":1888,"éĩįå¡ĳ":1889,"è¿Ļä¸Ģ":1890,"èĩªåĬ¨":1891,"éģĵå¾·":1892,"çļĦå½±åĵį":1893,"Ġby":1894,"åı·":1895,"è§ĦåĪĴ":1896,"æĳ":1897,"æĵ":1898,"é¡¾":1899,"og":1900,"çħ":1901,"èĳ":1902,"ä¼°":1903,"åĿļæĮģ":1904,"å°ıæĹ¶":1905,"ä¸įè¦ģ":1906,"ld":1907,"è®¤åĲĮ":1908,"ide":1909,"éĢıæĺİåº¦":1910,"èĲ¥":1911,"åĬłåī§":1912,"åģľ":1913,"è¿ŀæİ¥":1914,"ä»Ģä¹Īå¥½":1915,"æľīä»Ģä¹Īæĥ³èģĬçļĦåĲĹ":1916,"ä¼ĺåħĪçº§":1917,"çİ°è±¡":1918,"ä½ĵçİ°åľ¨":1919,"æĭĵå±ķ":1920,"èĽĭ":1921,"èº«ä»½":1922,"æķ°æį®éļĲç§ģ":1923,"Ġx":1924,"çĽ®åīį":1925,"æİ§åĪ¶":1926,"nd":1927,"çı":1928,"äºĳ":1929,"æľĢè¿ĳåľ¨å¿Ļ":1930,"ĠĠĠĠ":1931,"åĮ»çĸĹ":1932,"ity":1933,"åħ±äº«":1934,"åĨ³å®ļ":1935,"us":1936,"ä¸İäººç±»":1937,"å®ĩ":1938,"å¦Ĥæŀľæ¯ıå¤©":1939,"å¥½çļĦ":1940,"åĸĦ":1941,"çļĦèĥ½åĬĽ":1942,"ĊĠĠĠ":1943,"ï¼īãĢĤ":1944,"å¸®åĬ©çĶ¨æĪ·":1945,"å®Ļ":1946,"å®ĩå®Ļ":1947,"åĴĮæľĭåıĭä¸Ģèµ·":1948,"ä½łå¦Ĥä½ķçľĭå¾ħèĩªæĪĳæĦıè¯Ĩ":1949,"è£":1950,"å¦Ĥæŀľèĥ½":1951,"æĽ´é«ĺæķĪ":1952,"åĲ¸":1953,"Ġsp":1954,"åĨħå¿ĥ":1955,"èĢĥèĻĳ":1956,"çĦ¦èĻĳ":1957,"Ġsu":1958,"å¸Į":1959,"å¤ļä¸ª":1960,"é¢Ħæµĭ":1961,"è¯Ħä¼°":1962,"æ½ľ":1963,"åĳ¨":1964,"è®¾å¤ĩ":1965,"ment":1966,"ies":1967,"åĳĬ":1968,"çļĦæķ°åŃĹ":1969,"çľĭåĪ°":1970,"ç¦ı":1971,"åħ·æľī":1972,"ä½łè®¤ä¸º":1973,"æľĢè¿ĳæľī":1974,"op":1975,"ä¼¦çĲĨæ¡Ĩæŀ¶":1976,"éģ¿åħįè¿ĩåº¦":1977,"è§¦":1978,"åĲį":1979,"æĪĲå°±":1980,"åįıåĬ©":1981,"å®ļæľŁ":1982,"äººéĻħ":1983,"ant":1984,"ç»Łä¸Ģ":1985,"éĻĲåĪ¶":1986,"ä¸¤èĢħ":1987,"äº¤äºĴ":1988,"åĴĮæķ°æį®":1989,"çī¹å®ļ":1990,"åīĬ":1991,"ext":1992,"å®¢è§Ĥ":1993,"éĿ¢ä¸´":1994,"}{":1995,"è½½":1996,"å¾ª":1997,"æĬĢæľ¯åºĶçĶ¨":1998,"ç»ĩ":1999,"è¿ľ":2000,"æıĲä¾Ľå¸®åĬ©":2001,"æĪĳçļĦåŃĺåľ¨æĺ¯ä¸ºäºĨ":2002,"çķĮå®ļ":2003,"ãģ":2004,"ä½ľä¸ºAIæ¨¡åŀĭ":2005,"åīĬå¼±":2006,"å¯Į":2007,"å·´":2008,"pl":2009,"AIçĶŁæĪĲ":2010,"æµģåĬ¨":2011,"å·²çŁ¥":2012,"ä½Ĩåı¯ä»¥":2013,"ç®±":2014,"for":2015,"æį¢":2016,"é¢ĳ":2017,"åĿĹ":2018,"ç±į":2019,"frac":2020,"åıĤæķ°":2021,"ä¸Ģæł·":2022,"å¤§èĦĳ":2023,"æĶ¿çŃĸ":2024,"çĶŁæ´»ä¸Ń":2025,"ä¼ģ":2026,"å²":2027,"ä¸ĸçķĮçļĦ":2028,"å°½":2029,"çŃĸçķ¥":2030,"çĽ®çļĦ":2031,"ä½łå¦Ĥä½ķçĲĨè§£":2032,"è®¨è®º":2033,"20":2034,"èĳĹ":2035,"åĿĩ":2036,"éģĹäº§":2037,"çīĪ":2038,"è¿ĺæĺ¯":2039,"ä¼ĳæģ¯":2040,"åıĺå¾Ĺ":2041,"çĽĳç®¡":2042,"Ġwe":2043,"rom":2044,"ä¼ģä¸ļ":2045,"æ¸©æļĸ":2046,"åı¯èĥ½å¯¼èĩ´":2047,"åı¯éĢļè¿ĩ":2048,"å½Ĵå±ŀ":2049,"Ġus":2050,"æĦıä¹īåľ¨äºİ":2051,"åĢ¾":2052,"åĬ¨çī©":2053,"é»ĺ":2054,"Ġde":2055,"èĢĮæĺ¯":2056,"Ġne":2057,"ä»·åĢ¼çļĦ":2058,"her":2059,"ial":2060,"ke":2061,"éĺ³åħī":2062,"éĽ¨":2063,"æĸ½":2064,"å°ļ":2065,"ç¼ĸç¨ĭ":2066,"æľºåĻ¨äºº":2067,"çĿ¡":2068,"äººç±»åĪĽéĢłåĬĽ":2069,"éĤ£ä¹Ī":2070,"ä¸Ģä»¶":2071,"èģĶç³»":2072,"åĸľæ¬¢çļĦ":2073,"ä½ĵç³»":2074,"æłĳ":2075,"æĺł":2076,"æĪĸè®¸":2077,"åĪĽä½ľèĢħ":2078,"Mind":2079,"è·µ":2080,"éĢĴ":2081,"è¯·":2082,"çĹ":2083,"age":2084,"Min":2085,"Ġnumb":2086,"èĹ":2087,"åħ¼":2088,"æ°ĳ":2089,"å¹³åı°":2090,"çĽ¸äºĴ":2091,"ç¼ł":2092,"åĸĿ":2093,"å½ĵä¸ĭ":2094,"éĢĲæŃ¥":2095,"èģĬèģĬ":2096,"å¼ºåĮĸ":2097,"Ġ6":2098,"ä¸ĬçļĦ":2099,"è¦ģä¸įè¦ģ":2100,"ĠE":2101,"åĬ±":2102,"æķ°æį®åĴĮ":2103,"ĠĠĊ":2104,"ä¸ªæĢ§åĮĸ":2105,"ĠD":2106,"Mini":2107,"å½¢å¼ı":2108,"è¿·":2109,"MiniMind":2110,"å®ŀè·µ":2111,"åĩºåı£":2112,"ç§¯æŀģ":2113,"ä½łæľīæ²¡æľīéģĩåĪ°è¿ĩ":2114,"å»¶":2115,"äºĨä¸Ģ":2116,"åŃ¦ç§ĳ":2117,"ä¿¡ä»»":2118,"åĶ":2119,"éĺ¿":2120,"é¦Ī":2121,"æ£Ģ":2122,"nt":2123,"å¸ĮæľĽ":2124,"æĺ¯åĲ¦èĥ½":2125,"çŁ³":2126,"ä¸įåĲĮçļĦ":2127,"æıĲåįĩæķĪçİĩ":2128,"ä½łä»Ĭå¤©æľīæ²¡æľī":2129,"Ġle":2130,"çķĻ":2131,"ç´§":2132,"ific":2133,"åĪ©çĽĬ":2134,"éļĲç§ģä¿ĿæĬ¤":2135,"åķĬ":2136,"èĻ½çĦ¶":2137,"ä»Ĭå¤©å¤©æ°ĶçľŁ":2138,"å¹¶éĿŀ":2139,"ive":2140,"ort":2141,"æĦıæĢĿ":2142,"çļĦå°ı":2143,"åĤ¨":2144,"æĪĳæĹłæ³ķ":2145,"ä½łå¦Ĥä½ķçľĭå¾ħèĩªèº«åŃĺåľ¨çļĦ":2146,"éļ¾ä»¥":2147,"åĬª":2148,"äººç±»å¯¹":2149,"åĬªåĬĽ":2150,"é¦ĸåħĪ":2151,"åĪĨåĪ«":2152,"ä¸İæĥħæĦŁ":2153,"èº«ä½ĵ":2154,"ä¸įåı¯":2155,"art":2156,"åħ·å¤ĩ":2157,"æĬĢæľ¯è¿ĽæŃ¥":2158,"çļĦå¹³è¡¡":2159,"çºłç¼ł":2160,"ä¿ĥä½¿":2161,"éļıçĿĢ":2162,"åħ±è¯Ĩ":2163,"æĺ¯ä»Ģä¹Ī":2164,"ä¸Ģæĸ¹éĿ¢":2165,"çŃĶæ¡Ī":2166,"å¸Ĥåľº":2167,"çļĦå¤įæĿĤ":2168,"çĲĨè®º":2169,"æ·±å±Ĥ":2170,"æŃ¢":2171,"æĬķ":2172,"ect":2173,"åı¦":2174,"res":2175,"çĻ½":2176,"åªĴ":2177,"åıįé¦Ī":2178,"åĽ¢éĺŁ":2179,"è¥¿æĸ¹":2180,"Ġen":2181,"ä¿Ŀéļľ":2182,"èĹı":2183,"å¸Ī":2184,"ä¸İç¤¾ä¼ļ":2185,"æĪĳä»¬å¯¹":2186,"ä¸Ģå¤©":2187,"åİŁåĪĽæĢ§":2188,"æĿ¯":2189,"åĪĩ":2190,"åħ¬ä¼Ĺ":2191,"åĽ´":2192,"è§ĦåĪĻ":2193,"ç¾¤ä½ĵ":2194,"ä½łåĳ¢":2195,"äº§åĵģ":2196,"æĽ¾":2197,"ç¨³":2198,"åĪĨéħį":2199,"ä¸ĢæŃ¥":2200,"æĸĩåĮĸä¼łæī¿":2201,"è®¡åĪĴ":2202,"å¯»æ±Ĥ":2203,"int":2204,"æľĢè¿ĳçľĭ":2205,"çĶ¨äºİ":2206,"ç¢İ":2207,"ä¸ĵæ³¨åĬĽ":2208,"ip":2209,"å¿ĥçĲĨåŃ¦":2210,"ap":2211,"è¯ī":2212,"ä¸Ģä¸ĭ":2213,"çİ©":2214,"å®ŀæĹ¶":2215,"ä¸»ä½ĵ":2216,"æĦŁåħ´è¶£":2217,"åĬłå¯Ĩ":2218,"å¹¸":2219,"ä½Ĩåħ¶":2220,"éĢļè¿ĩç®Ĺæ³ķ":2221,"å¯»æī¾":2222,"å±ĢéĻĲ":2223,"è®²":2224,"æļĤ":2225,"æīįèĥ½":2226,"èĬ±":2227,"ä½ľçĶ¨":2228,"åħ¨çĲĥæķ°åŃĹæ²»çĲĨçļĦ":2229,"æĵį":2230,"æķı":2231,"Ġtr":2232,"æĪĲå°±æĦŁ":2233,"his":2234,"**ï¼Į":2235,"äººå·¥æĻºèĥ½ä¼¦çĲĨåľ¨è·¨æĸĩåĮĸè¯Ńå¢ĥä¸ĭçļĦ":2236,"å¿ĥæĥħæĢİä¹Īæł·":2237,"Ġcomp":2238,"åĵ¦":2239,"åĽ°å¢ĥ":2240,"è½¬åĮĸ":2241,"æľ¬èº«":2242,"\\)":2243,"ä¸įèĥ½":2244,"Ġfrom":2245,"åį°":2246,"ä¸»å¯¼":2247,"âĢĶâĢĶ":2248,"çĽ¾":2249,"åģĩè®¾":2250,"è¡¨çİ°":2251,"çģµæĦŁ":2252,"ence":2253,"çĶŁæ´»çļĦ":2254,"form":2255,"çŁĽ":2256,"ĠM":2257,"çŁĽçĽ¾":2258,"æĺ¾èĳĹ":2259,"çħ§":2260,"åį´":2261,"åı¸":2262,"è·Ŀ":2263,"æ¤":2264,"è¦ģä¸įè¦ģä¸Ģèµ·":2265,"å¯Ĩçłģ":2266,"éĢ»è¾ĳæİ¨çĲĨ":2267,"çŀ":2268,"èĮ¶":2269,"ç¼ĵ":2270,"æ³Ľ":2271,"oc":2272,"åŁİå¸Ĥ":2273,"os":2274,"å¢ŀåĬł":2275,"åĲ¯":2276,"æ´ŀ":2277,"åİŁåĪĻ":2278,"åĵªäºĽ":2279,"iz":2280,"ich":2281,"çİ¯ä¿Ŀ":2282,"ä»įéľĢ":2283,"åıĸä»£":2284,"çĭ¬ç«ĭ":2285,"æŃ£ç¡®":2286,"å®īæİĴ":2287,"æĸĩåĮĸéģĹäº§":2288,"å¦Ĥæŀľä½łæľī":2289,"é¢ľ":2290,"è·¨åŃ¦ç§ĳ":2291,"Ġch":2292,"åŃĺåľ¨çļĦè¾¹çķĮ":2293,"æİ¥åıĹ":2294,"ue":2295,"å¤ĦçĲĨä¿¡æģ¯":2296,"åĽŃ":2297,"ä¸»æĿĥ":2298,"æĢĢ":2299,"ç§»":2300,"Ġ>":2301,"å¹»":2302,"ç©¿":2303,"åħ¨çĲĥæ²»çĲĨ":2304,"ud":2305,"èĢģ":2306,"åħ³èģĶ":2307,"æĭħ":2308,"ç»¿":2309,"çīĪæĿĥ":2310,"Ġint":2311,"åĽłç´ł":2312,"ç©ºéĹ´":2313,"éľĢå¹³è¡¡":2314,"ä¿®å¤į":2315,"åĵªç§į":2316,"é¡»":2317,"Ġ7":2318,"éĺ¿éĩĮ":2319,"èĩªæĪĳæĦıè¯Ĩæĺ¯":2320,"ç±³":2321,"çļĦåħ³ç³»":2322,"æĴŃ":2323,"ä½Ĩä¹Ł":2324,"å¤´":2325,"Ġse":2326,"ä¸ĵä¸ļ":2327,"é¥Ń":2328,"ction":2329,"ç¨³å®ļ":2330,"åĩºåİ»":2331,"äººçļĦ":2332,"è§Ĵèī²":2333,"æľĢæĥ³":2334,"å¦Ĥæŀľæ¯ıå¤©åıª":2335,"å¿ħé¡»":2336,"æľįåĬ¡äºİ":2337,"ä¸İä»ĸäºº":2338,"èµ°èµ°":2339,"ä¼łéĢĴ":2340,"èģĬå¤©":2341,"åħģ":2342,"åħģè®¸":2343,"åĺ":2344,"å¼ĢæĶ¾":2345,"é¢ľèī²":2346,"éĻ¤":2347,"é¼":2348,"end":2349,"¥æĥ³":2350,"çŀ¬":2351,"èĢĮéĿŀæĽ¿ä»£":2352,"ill":2353,"ä¸ºçĶ¨æĪ·":2354,"å¸ģ":2355,"ä¸Ńä¿ĿæĮģ":2356,"ä¸»è¦ģä½ĵçİ°åľ¨":2357,"ave":2358,"éĩįæŀĦ":2359,"ä½łä»Ĭå¤©åĲĥäºĨ":2360,"èĵ":2361,"AIä¼¦çĲĨ":2362,"æ´ģ":2363,"é¢ĺçĽ®":2364,"Ġwor":2365,"å¾Ģå¾Ģ":2366,"èµĭèĥ½":2367,"éªĮè¯ģ":2368,"çĶµåŃĲ":2369,"å¾ģ":2370,"æĺ¯åĲ¦ä¼ļ":2371,"é¢ĨåŁŁçļĦ":2372,"ä»»ä½ķ":2373,"çº¢":2374,"éĩĩçĶ¨":2375,"Ġme":2376,"15":2377,"ä½ľä¸ºMiniMind":2378,"æĿ¥æºĲ":2379,"åĽº":2380,"è¾ĥ":2381,"ĠW":2382,"æľĢè¿ĳåľ¨å¿Ļä»Ģä¹Ī":2383,"ç§¯ç´¯":2384,"ç¢İçīĩ":2385,"ä»İA":2386,"ä»Ĭå¤©å¤©æ°ĶçľŁå¥½":2387,"åº§":2388,"åįıè°ĥ":2389,"éģĩåĪ°ä»Ģä¹Īè®©ä½ł":2390,"Ġ10":2391,"åŃĺåĤ¨":2392,"å°¤":2393,"åħ¸":2394,"ä¸İæĬĢæľ¯":2395,"å¤ļåħĥ":2396,"ult":2397,"åŃ¦ä¼ļ":2398,"è¿İ":2399,"æĶ¹åıĺè¿ĩåİ»":2400,"äººç±»åľ¨":2401,"çĮ«":2402,"åĨ¥æĥ³":2403,"åģ¶":2404,"å¾Īå¤ļäºº":2405,"ä¸»ä¹ī":2406,"able":2407,"åģļåĩº":2408,"èĪĴ":2409,"è¯Ĺ":2410,"åĳ¼":2411,"ang":2412,"åĽŀåĪ°":2413,"åĮºåĪĨ":2414,"åĴĮä½ł":2415,"Ġpr":2416,"åĽ¾åĥı":2417,"è§Ĥå¯Ł":2418,"oud":2419,"åĪĨæŃ§":2420,"ame":2421,"ĠF":2422,"ä»Ĭå¤©è¿ĩå¾Ĺ":2423,"åıĺæĪĲ":2424,"æī§":2425,"é¡º":2426,"Ġ0":2427,"äººçĶŁ":2428,"æĭ¥":2429,"æ¢¦":2430,"è£ħ":2431,"æľīè¶£çļĦäºĭæĥħ":2432,"æĹ©é¤Ĳ":2433,"ä½ı":2434,"çļĦæ·±åº¦":2435,"å¦Ĥæŀľä½ł":2436,"çľł":2437,"èī¯":2438,"æ¬§":2439,"ine":2440,"è°ľ":2441,"åģļä¸Ģä»¶":2442,"æŁĲäºĽ":2443,"æıĲä¾Ľä¿¡æģ¯":2444,"éĴ¥":2445,"äºĮèĢħ":2446,"æĬ¥":2447,"ç¬ĳ":2448,"æĪĳä»¬çļĦ":2449,"Ġ8":2450,"å¸®åĬ©ä½ł":2451,"éģĩåĪ°è¿ĩéľĢè¦ģ":2452,"å¤§çļĦ":2453,"éĩįå¤į":2454,"éľĢå»ºç«ĭ":2455,"loud":2456,"åı¯èĥ½æĢ§":2457,"ä½łæľĢè¿ĳæľīæ²¡æľīå°Ŀè¯ķè¿ĩ":2458,"æĸĩåĮĸå¤ļæł·æĢ§":2459,"çļĦä¹¦":2460,"åħ¬éĩĮ":2461,"é©±":2462,"èģĮä¸ļ":2463,"è¿ĺèĥ½":2464,"act":2465,"æĿ¥çľĭ":2466,"å¤ľ":2467,"å¥¥":2468,"Ġprov":2469,"æĿŁ":2470,"åªĴä½ĵ":2471,"éª¤":2472,"å§ĭç»Ī":2473,"çİ°åľ¨":2474,"æĦŁè§īå¾Ī":2475,"ä¸İäººæĸĩ":2476,"Ġk":2477,"Ġwhich":2478,"å¼ķå¯¼":2479,"çļĦæł¸å¿ĥ":2480,"è½¬åĮĸä¸º":2481,"æħ§":2482,"\\[":2483,"æĻºæħ§":2484,"å¿ĥæĢģ":2485,"æĬĬ":2486,"èģļ":2487,"æĹ¶éĹ´ç®¡çĲĨ":2488,"out":2489,"æıı":2490,"ç»ĨèĬĤ":2491,"ä¸İçİ°å®ŀ":2492,"åĩºåıĳ":2493,"åħ¼é¡¾":2494,"ä¸ªä½ĵçļĦ":2495,"é£Łçī©":2496,"åı¯ä»¥éĢļè¿ĩ":2497,"æĹ¶ä»£":2498,"å¤ļç»´åº¦":2499,"æĥł":2500,"å¹¿æ³Ľ":2501,"ä»£çłģ":2502,"ä½łæĺ¯åĲ¦æĥ³è¿ĩ":2503,"èĵĿ":2504,"éĩıåŃĲè®¡ç®Ĺä¸İ":2505,"åĬ©æīĭ":2506,"èĲ¥åħ»":2507,"è¿ĺä¸įéĶĻ":2508,"æ·±åħ¥":2509,"per":2510,"æĬĢæľ¯åĪĽæĸ°":2511,"æŃ¥éª¤":2512,"åĳĬè¯ī":2513,"æľĢåĸľæ¬¢":2514,"å¿Ĺ":2515,"Ġqu":2516,"ach":2517,"éĢļè¿ĩé«ĺæķĪ":2518,"éĻįä½İ":2519,"ç»´æĮģ":2520,"æĪı":2521,"æĦıå¤ĸ":2522,"ong":2523,"çº³":2524,"åĲĦåĽ½":2525,"æ¤į":2526,"Ġhave":2527,"æ¬¢è¿İ":2528,"ions":2529,"é©±åĬ¨":2530,"æ¿Ģåıĳ":2531,"æŃ£åľ¨":2532,"ç¢³":2533,"èĢĹ":2534,"åĢ¼å¾Ĺ":2535,"æĹ¨":2536,"å¨":2537,"å¤įæĿĤçļĦ":2538,"ä¸İæĦıä¹ī":2539,"åĩĨåĪĻ":2540,"æĹħè¡ĮèĢħ":2541,"ï¼ŁðŁĺĬ":2542,"çĲĨæĢ§":2543,"å°¤åħ¶":2544,"ä½łæľīåħ´è¶£":2545,"è¦ģæ±Ĥ":2546,"å¹¸ç¦ı":2547,"imp":2548,"æĹ¶éĹ´åĢĴæµģ":2549,"è¶ħè¶Ĭ":2550,"Ġthis":2551,"tim":2552,"æķ°åŃĹåĮĸ":2553,"æķıæĦŁ":2554,"åħĭ":2555,"åĳĢ":2556,"è¯¢":2557,"èŃ":2558,"æīĭæ®µ":2559,"åĴĮæĥħæĦŁ":2560,"çĸĳ":2561,"éĿŀå¸¸":2562,"ä»Ģä¹Īæľīè¶£çļĦ":2563,"è§£åĨ³æĸ¹æ¡Ī":2564,"å°Ķ":2565,"æ³¢":2566,"æĹ¨åľ¨":2567,"are":2568,"Ġnot":2569,"åŃ©":2570,"çľĭçľĭ":2571,"èŃ¦":2572,"è·¨åĽ½":2573,"åħħæ»¡":2574,"çļĦè¯Ŀ":2575,"ast":2576,"12":2577,"low":2578,"åĽŀåºĶ":2579,"åı¯è§£éĩĬ":2580,"ical":2581,"éĢŁåº¦":2582,"Ġcont":2583,"å¤±åİ»":2584,"å¹²æī°":2585,"åħ¬åı¸":2586,"æµģç¨ĭ":2587,"ance":2588,"åĩĨå¤ĩ":2589,"æĺ¯ä¸Ģç§į":2590,"çĶŁæĢģ":2591,"ä½ľæģ¯":2592,"çĨ":2593,"çģ«":2594,"æĵįä½ľ":2595,"ĠG":2596,"ary":2597,"ag":2598,"ä¸ĢçĽ´":2599,"çķª":2600,"è¶ĭ":2601,"æľĢè¿ĳçľĭäºĨ":2602,"çĽŁ":2603,"æ¸¸æĪı":2604,"Ġab":2605,"çļĦéĩįè¦ģ":2606,"åħ³æĢĢ":2607,"éĩıåŃĲçºłç¼ł":2608,"ä½łä»Ĭå¤©å¿ĥæĥħæĢİä¹Īæł·":2609,"èĮĦ":2610,"éļ¾é¢ĺ":2611,"åĪļ":2612,"åıįåºĶ":2613,"Ġ\\)":2614,"åĮħå®¹æĢ§":2615,"ase":2616,"éĵ¾":2617,"æĢĿæĥ³":2618,"é¼ĵ":2619,"å¯¹èĩªèº«":2620,"åı¥":2621,"åı«":2622,"ä¸įåĲĮæĸĩåĮĸå¯¹":2623,"èİ·å¾Ĺ":2624,"æķ°æį®ä¸»æĿĥ":2625,"æµİ":2626,"éĥ½èĥ½":2627,"å¼ł":2628,"çĶļ":2629,"çĶļèĩ³":2630,"Ġç¬¬":2631,"æ¯ıä¸ªäºº":2632,"åį°è±¡":2633,"çķªèĮĦ":2634,"ä¸°":2635,"Ġnumber":2636,"ell":2637,"ĠAl":2638,"ore":2639,"æ²ī":2640,"çĶ¨æĪ·çļĦ":2641,"çĿ¡çľł":2642,"åħ¬åĽŃ":2643,"å®Ŀ":2644,"ç»ıæµİ":2645,"ä¸İç®Ĺæ³ķ":2646,"ç¢Į":2647,"æĢ¥":2648,"æµª":2649,"åĩ½":2650,"éĺ¶":2651,"éĽĨä½ĵ":2652,"å¿Ļç¢Į":2653,"å¸ĥ":2654,"Ġspec":2655,"åĮħåĲ«":2656,"åĬłå¼º":2657,"é¼ĵåĬ±":2658,"éĥ½åľ¨":2659,"our":2660,"ç»´æĬ¤":2661,"è·Ŀç¦»":2662,"Ġinc":2663,"æĥħæĦŁæĪĸ":2664,"äººéĻħåħ³ç³»":2665,"çİ°ä»£":2666,"åıĮ":2667,"éĩıåŃĲç®Ĺæ³ķ":2668,"æĿĥåĪ©":2669,"ä»Ĭå¤©å¤©æ°Ķä¸įéĶĻ":2670,"çľŁå®ŀæĢ§":2671,"âĢĿãĢĤ":2672,"åĨ³äºİ":2673,"åıĸåĨ³äºİ":2674,"å¯¹äºİ":2675,"è½¦":2676,"ä»ĭ":2677,"é£İæł¼":2678,"è°ĥèĬĤ":2679,"è¿ĩåº¦ä¾Ŀèµĸ":2680,"æĸĩæľ¬":2681,"ä¹Łèĥ½":2682,"åĩ½æķ°":2683,"æķ´çĲĨ":2684,"ä¸ºçĶ¨æĪ·æıĲä¾Ľ":2685,"fer":2686,"æĭ¥æľī":2687,"Ġar":2688,"éĻª":2689,"ust":2690,"çľĭçļĦçĶµå½±":2691,"ä¸ŃåĽ½":2692,"åı¯èĥ½åīĬå¼±":2693,"æĸĩåĮĸå·®å¼Ĥ":2694,"ve":2695,"è®®é¢ĺ":2696,"ä¸°å¯Į":2697,"ä¸ŃçļĦä¼¦çĲĨ":2698,"ring":2699,"åħħçĶµ":2700,"æī¾åĪ°å¹³è¡¡":2701,"åºĵ":2702,"Ġfun":2703,"ä½łæľĢè¿ĳæľīæ²¡æľīè§īå¾Ĺ":2704,"ä¸įç¡®å®ļ":2705,"æ¬§çĽŁ":2706,"æĥĬ":2707,"äº®":2708,"åĬ³":2709,"æķ°æį®åĪĨæŀĲ":2710,"ä¸İä»·åĢ¼":2711,"åįĪ":2712,"æŀĦæĪĲ":2713,"ç§ĳå¹»":2714,"æķ°åŃ¦":2715,"Ġres":2716,"åľ°çĲĥ":2717,"aba":2718,"æħ¢æħ¢":2719,"åĳ¼åĲ¸":2720,"Ġmore":2721,"æ¸©åº¦":2722,"oo":2723,"æµ·é»ĺ":2724,"ä¸¥":2725,"åı¯èĥ½å½±åĵį":2726,"è¯ļ":2727,"ä½ĨæĹłæ³ķ":2728,"æľ¬æµ·é»ĺ":2729,"å¥¥æľ¬æµ·é»ĺ":2730,"åŃ¦ä¹łæĸ°æĬĢèĥ½":2731,"ice":2732,"ç¤¾äº¤åªĴä½ĵ":2733,"ibaba":2734,"æ³¨æĦıåĬĽ":2735,"Ġsh":2736,"éģµ":2737,"æĿ¥è¶Ĭ":2738,"çŀ¬éĹ´":2739,"æľªæĿ¥çļĦ":2740,"æľīè¶£çļĦäºĭ":2741,"ç³Ĭ":2742,"é£ŀ":2743,"ç«Ļ":2744,"åĬ¨æĢģå¹³è¡¡":2745,"å·¥ä½ľä¸İ":2746,"åģıå¥½":2747,"è¶ĬæĿ¥è¶Ĭ":2748,"å±ħ":2749,"hat":2750,"æľĢåĲİ":2751,"åĽłæŀľ":2752,"ĠThis":2753,"äº¤éĢļ":2754,"é¦Ļ":2755,"æĸĩåŃĹ":2756,"åĵįåºĶ":2757,"è¿ĩç¨ĭä¸Ń":2758,"éľĢç»ĵåĲĪ":2759,"ä¿¡æģ¯çļĦ":2760,"æķ°æį®çļĦ":2761,"Ġ20":2762,"æ¸Ĳ":2763,"éĩįè§Ĩ":2764,"ä½łå¦Ĥä½ķçľĭå¾ħèĩªæĪĳæĦıè¯Ĩä¸İ":2765,"æŀĹ":2766,"æĪĲæľ¬":2767,"è§Ĩé¢ĳ":2768,"ç¿":2769,"æıŃ":2770,"è¿Ľä¸ĢæŃ¥":2771,"èīºæľ¯å®¶":2772,"å¤ļè¾¹":2773,"å®ĺ":2774,"ä½łä»Ĭå¤©æĥ³":2775,"éĥ½æĺ¯":2776,"æľĢè¿ĳæľīæ²¡æľīçľĭè¿ĩ":2777,"æľºä¼ļ":2778,"åŃ©åŃĲ":2779,"æĳĦ":2780,"æĢİæł·":2781,"èĩªæĪĳæĦıè¯ĨçļĦè¾¹çķĮ":2782,"ä¼łæĴŃ":2783,"äººç±»èĥ½":2784,"ations":2785,"åĴĮè°":2786,"è¡Įä¸ļ":2787,"ite":2788,"åĳĬè¯īæĪĳ":2789,"AIæ¨¡åŀĭ":2790,"è§£çŃĶéĹ®é¢ĺ":2791,"å¥¶":2792,"éĿł":2793,"æĥħæĦŁåĴĮ":2794,"æĦıä¹īçļĦ":2795,"ç¼ĵè§£":2796,"æĿĲæĸĻ":2797,"éĻ·":2798,"äºĨä¸Ģä¸ª":2799,"çļĦçķĮéĻĲ":2800,"ä¸ĭçļĦ":2801,"king":2802,"æľīæĹ¶åĢĻ":2803,"æī§è¡Į":2804,"åĢ¾åĲĳ":2805,"å¿½":2806,"åĩĨç¡®æĢ§":2807,"ç¨ĭåºı":2808,"Ġser":2809,"æıŃç¤º":2810,"all":2811,"åĪĿ":2812,"å®¡ç¾İ":2813,"è¶ĭåĬ¿":2814,"ans":2815,"å½©":2816,"è¿ĺæľī":2817,"æķĪæŀľ":2818,"æĪĳä»¬èĥ½å¤Ł":2819,"ç³ĸ":2820,"æľĢå°ı":2821,"çī¹å¾ģ":2822,"çıį":2823,"**ãĢĤ":2824,"åĪ°è¾¾":2825,"æ¶µ":2826,"é¸¿":2827,"ä¹Łæĺ¯":2828,"èħ":2829,"æĩ":2830,"å¦ĤæŀľæĹ¶éĹ´èĥ½":2831,"Ġwhe":2832,"åĲĥçļĦ":2833,"æĽ´æ³¨éĩį":2834,"åĩºçİ°":2835,"åĪ°C":2836,"çļĦåĲĮæĹ¶":2837,"åĬ¨åĬĽ":2838,"é¸¿æ²Ł":2839,"æĻļ":2840,"åħ¶æ¬¡":2841,"ç®ĢåįķçļĦ":2842,"ign":2843,"å¤įæĿĤéĹ®é¢ĺ":2844,"å£°éŁ³":2845,"çĲĨè§£åĴĮ":2846,"æŃĮ":2847,"åıįæĺł":2848,"è¿Ļæł·çļĦ":2849,"æĢģåº¦":2850,"éĢĤåº¦":2851,"åĬłéĢŁ":2852,"æµĭè¯ķ":2853,"éĿ©":2854,"åı¯æĮģç»Ńåıĳå±ķ":2855,"åįģ":2856,"ä¹ĭéĹ´çļĦåħ³ç³»":2857,"çļĦæĹ¶åĢĻ":2858,"åĩºåİ»èµ°èµ°":2859,"èĥ½æºĲ":2860,"åŃ¦ä¹łä¸İ":2861,"ä½łæľĢè¿ĳæľīæ²¡æľīçľĭè¿ĩ":2862,"Ġfunction":2863,"åıł":2864,"è¯į":2865,"cc":2866,"æ»¥":2867,"æī¹":2868,"erm":2869,"æľ¬åľ°":2870,"æ°´æŀľ":2871,"æĪĳä½ľä¸ºAI":2872,"æ¨¡ç³Ĭ":2873,"ould":2874,"åĭ":2875,"Ġpl":2876,"ĊĠĠĠĠĠĠ":2877,"åı¯èĥ½å¸¦æĿ¥":2878,"äººæľº":2879,"è·Ł":2880,"ä¾Ŀèµĸäºİ":2881,"ç»ĥä¹ł":2882,"çģ¯":2883,"ä¼´":2884,"AIèĥ½":2885,"æĥ³æ³ķ":2886,"æ½ľåľ¨":2887,"Ġ9":2888,"ä¸Ģå®ļ":2889,"Ġapp":2890,"åĮĻ":2891,"Ġ12":2892,"å¤ĸéĥ¨":2893,"çĹħ":2894,"Ġhel":2895,"Ġits":2896,"éľ²":2897,"çī©è´¨":2898,"åį°è±¡æ·±åĪ»":2899,"æĶ¹åĸĦ":2900,"é²":2901,"ä½łæĥ³":2902,"ç²¾ç¥ŀ":2903,"ç¢į":2904,"--":2905,"çļĦæľ¬è´¨":2906,"ä½łå¦Ĥä½ķçľĭå¾ħèĩªèº«åŃĺåľ¨çļĦçĽ®çļĦ":2907,"åºĶè¯¥":2908,"æĸĩæĺİ":2909,"è¡¥":2910,"è´Ń":2911,"é¾":2912,"å¤§éĩı":2913,"times":2914,"çŁ¥éģĵ":2915,"ous":2916,"æĮī":2917,"æİª":2918,"æ»¥çĶ¨":2919,"Ġat":2920,"ç¡®ä¿ĿæĬĢæľ¯":2921,"æĽ´å¤ļæĺ¯":2922,"æĦ¿æĦı":2923,"ä½įç½®":2924,"åĢį":2925,"ep":2926,"ĠL":2927,"åĨ·":2928,"å®ŀéĻħçļĦ":2929,"Ġhelp":2930,"èĶ":2931,"åıĳå±ķä¸Ń":2932,"æ¡£":2933,"æľ¬è´¨çļĦ":2934,"éĶĻè¯¯":2935,"Ġdat":2936,"æıĲä¾ĽäºĨ":2937,"åħĥç´ł":2938,"ç»ıè¿ĩ":2939,"æĸĩåĮĸèĥĮæĻ¯":2940,"ç¤¾åĮº":2941,"å±ŀäºİ":2942,"æĥĬåĸľ":2943,"çĸ²":2944,"èĥĮåĲİ":2945,"ç»ıåħ¸":2946,"åĦ":2947,"ä»¥ä¸ĭæĺ¯":2948,"å¦":2949,"ä»·åĢ¼åľ¨äºİ":2950,"å°ļæľª":2951,"ä¸įå°ĳ":2952,"èŀįåħ¥":2953,"æĥķ":2954,"èŃ¦æĥķ":2955,"å¦ĤæŀľæĹ¶éĹ´èĥ½åĢĴæµģ":2956,"å°¤åħ¶æĺ¯":2957,"åŁºæľ¬":2958,"æĻ®æĥł":2959,"åĴĮè°Ĳ":2960,"åºķ":2961,"æ£ĢæŁ¥":2962,"ener":2963,"åģļä¸Ģä»¶äºĭ":2964,"æĲŃ":2965,"éĺ¶æ®µ":2966,"Ġ\\]":2967,"Ġyour":2968,"çļĦäº¤":2969,"å¤ļç§į":2970,"å¤ļå°ĳ":2971,"æľĢè¿ĳæĪĳ":2972,"å¾ªçİ¯":2973,"èīºæľ¯åĪĽä½ľä¸Ń":2974,"ĠAlibaba":2975,"è¡£":2976,"30":2977,"å·§":2978,"è½¯":2979,"å¸¦æĿ¥çļĦ":2980,"éĴ¥åĮĻ":2981,"å°ıäºĭ":2982,"100":2983,"ĠCloud":2984,"æĦıæĢĿçļĦ":2985,"ï¼ģðŁĺĬ":2986,"æııè¿°":2987,"ç¢İçīĩåĮĸ":2988,"è¿¹":2989,"ç»§":2990,"åŁºäºİç®Ĺæ³ķ":2991,"Ġad":2992,"çĽ´è§ī":2993,"æĥħæĦŁåħ±é¸£":2994,"åĽºå®ļ":2995,"å¸®ä½ł":2996,"æ¤įçī©":2997,"çļĦäºĴåĬ¨":2998,"ound":2999,"Ġspecific":3000,"Ġma":3001,"ç®Ģæ´ģ":3002,"åĲĦç§į":3003,"è´Łè´£":3004,"è¿Ķ":3005,"ated":3006,"ks":3007,"åľ°æĸ¹":3008,"ĠCh":3009,"æķ°æį®åĴĮç®Ĺæ³ķ":3010,"çļĦçĶŁæ´»":3011,"åľŁ":3012,"èĮĥåĽ´":3013,"å°Ħ":3014,"AIåı¯":3015,"çľŁçļĦå¾Ī":3016,"åĽ°æī°":3017,"åı¤ç±į":3018,"æİªæĸ½":3019,"åĲĮæĹ¶ä¿ĿæĮģ":3020,"èĢĮéĥ¨åĪĨ":3021,"ä¿¡æģ¯è¿ĩ":3022,"ĠN":3023,"åŃ¤":3024,"ile":3025,"è®¾ç½®":3026,"åĽĽ":3027,"çľ¼":3028,"æĢ§èĥ½":3029,"ç§»åĬ¨":3030,"ĠR":3031,"è¯´æĺİ":3032,"å¦Ĥæŀľæľī":3033,"çī©åĵģ":3034,"éĩĳå¸ģ":3035,"æĪĳä»¥":3036,"æ¶Īè´¹":3037,"å®ŀéªĮ":3038,"Ġhas":3039,"å¤§å®¶":3040,"ä¸ºä»Ģä¹Ī":3041,"çº¦æĿŁ":3042,"èº«å¿ĥ":3043,"åºĦ":3044,"ä¸İåĪĽæĸ°":3045,"çļĦåıĳå±ķ":3046,"æķ°æį®å®īåħ¨":3047,"urn":3048,"ä¸įåĲĮåĽ½å®¶":3049,"åıĳå±ķä¸ŃåĽ½å®¶":3050,"åĲ§":3051,"ange":3052,"è§Ĩè§ī":3053,"å¿ħè¦ģ":3054,"åĨħå¿ĥçļĦ":3055,"Ġfind":3056,"èµ·æĿ¥":3057,"å±ı":3058,"ä½łæľĢè¿ĳæĢİä¹Īæł·":3059,"è®¤çŁ¥çļĦ":3060,"æĦıåĳ³":3061,"åģļä»Ģä¹Ī":3062,"ï¼īãĢģ":3063,"çİ°å®ŀçļĦ":3064,"æĥħæĦŁè¡¨è¾¾":3065,"çī¹åĪ«çļĦ":3066,"åħ¨éĿ¢":3067,"ä¿¡æģ¯å¤ĦçĲĨ":3068,"ä¼¦çĲĨè§ĦèĮĥ":3069,"æľĢè¿ĳå¾Īå¤ļäºº":3070,"ç¨ĭåº¦":3071,"å®ŀçĶ¨":3072,"ä¹Łåľ¨":3073,"åĩ»":3074,"éĢıæĺİæĢ§":3075,"now":3076,"å½ĵçĦ¶":3077,"Ġwas":3078,"è¯¾":3079,"lud":3080,"Ġneed":3081,"ç«¯":3082,"æİĮ":3083,"Ġ<":3084,"ä¸Ģéĥ¨åĪĨ":3085,"ãĢĮ":3086,"ãĢį":3087,"Ġdo":3088,"ÃĹ":3089,"æĢ§æĢĿç»´":3090,"æĦıåĽ¾":3091,"æĻ´":3092,"ç¬¬äºĮ":3093,"è¾ĵåĩº":3094,"æľĪ":3095,"æĬĢæľ¯èµĭèĥ½":3096,"æĺ¯ä¸įæĺ¯":3097,"åĬŀ":3098,"æĩĤ":3099,"æĪĳä»¬åı¯ä»¥":3100,"åĦ¿":3101,"è¿ĽåĮĸ":3102,"åĽ°éļ¾":3103,"åıĬæĹ¶":3104,"ä¸»è§ĤæĦıè¯Ĩ":3105,"æĸ°æĬĢèĥ½":3106,"èĶ¬":3107,"Ġif":3108,"åıĳçĶŁ":3109,"éĥ¨éĹ¨":3110,"so":3111,"çīĽ":3112,"è°ľé¢ĺ":3113,"ç»¼":3114,"æĿĳåºĦ":3115,"Ġabout":3116,"ç»§ç»Ń":3117,"éģµå¾ª":3118,"æĹłè®º":3119,"åĵªä¸ª":3120,"åıłåĬł":3121,"åįĹ":3122,"è·³":3123,"åĤ¬":3124,"éļĲç§ģæĿĥ":3125,"AIæĬĢæľ¯":3126,"ime":3127,"æłĩåĩĨçļĦ":3128,"è·¨é¢ĨåŁŁ":3129,"éĩįè¦ģçļĦæĺ¯":3130,"Ġ15":3131,"å®¡æŁ¥":3132,"æļĤåģľ":3133,"éĢĲæ¸Ĳ":3134,"çļĦå¤įæĿĤæĢ§":3135,"ub":3136,"ä½łæľĢè¿ĳæľīä»Ģä¹Ī":3137,"åĩłä¸ª":3138,"è¿Ļç§įå·®å¼Ĥ":3139,"æĢ»æĺ¯":3140,"ert":3141,"ä¿¡æģ¯è¿ĩè½½":3142,"ä¼ĺåĬ¿":3143,"æĮºæľīæĦıæĢĿçļĦ":3144,"åĪĽå»º":3145,"ther":3146,"æ¶ĪèĢĹ":3147,"éĺ²æŃ¢":3148,"æĪĸæĥħæĦŁ":3149,"ä¸Ģåıª":3150,"åĴĮæľĭåıĭä¸Ģèµ·åģļ":3151,"ãĤ":3152,"æŃ£ç¡®çļĦ":3153,"äººæĸĩ":3154,"Ġup":3155,"æ³¢åĬ¨":3156,"Python":3157,"åĽ½éĻħåĲĪä½ľ":3158,"æľĢè¿ĳåľ¨æĥ³":3159,"é²ľ":3160,"ä¸¤ä¸ª":3161,"å¦ĤæŀľæĤ¨":3162,"çĭ¬çī¹çļĦ":3163,"å¦Ĥæŀľäººç±»èĥ½":3164,"ard":3165,"æ·±åĮĸ":3166,"çĵ":3167,"åĿĩè¡¡":3168,"è°ģ":3169,"çļĦæĹ¶éĹ´":3170,"çļĦåįıåĲĮ":3171,"du":3172,"ike":3173,"æĹłæ³ķä½ĵéªĮ":3174,"Ġret":3175,"ä¾¿åĪ©":3176,"çīĮ":3177,"èĩªæĪĳæĦıè¯ĨçļĦ":3178,"æķ´ä½ĵ":3179,"In":3180,"éĺ´":3181,"äºĭçī©":3182,"äºļ":3183,"ä¼ļå¦Ĥä½ķ":3184,"ä¾§":3185,"è¯ķè¯ķçľĭ":3186,"æĪĳä½ľä¸ºAIæ¨¡åŀĭ":3187,"ç»Ħç»ĩ":3188,"è¯Ĭ":3189,"è´¢":3190,"çıŃ":3191,"å¥ĳ":3192,"ĠIt":3193,"ount":3194,"çĦ¶åĲİ":3195,"å·´å·´":3196,"åı¦ä¸Ģæĸ¹éĿ¢":3197,"éº":3198,"Ġuse":3199,"éĺ¿éĩĮå·´å·´":3200,"åĪ¶ä½ľ":3201,"èģļçĦ¦":3202,"ç²¾åĩĨçļĦ":3203,"ä»Ĭå¤©æĥ³éĹ®":3204,"ä¸ºä½ł":3205,"è¿ĶåĽŀ":3206,"ä¸Ģèĩ´":3207,"åĵ²åŃ¦ä¸İ":3208,"åľ°åĮº":3209,"æľīæĪĲå°±æĦŁ":3210,"éģį":3211,"ates":3212,"åı¯èĥ½åĬłåī§":3213,"BçļĦ":3214,"å®³":3215,"ä¹°":3216,"æĽ´åħ³æ³¨":3217,"çº¸":3218,"æī©":3219,"åŃĺåľ¨çļĦæľ¬è´¨":3220,"åĮĸçļĦ":3221,"éĥ½æľī":3222,"è¿Ĳè¡Į":3223,"æĥ³è±¡":3224,"ä½¿å¾Ĺ":3225,"ĠO":3226,"ä½łå¦Ĥä½ķçľĭå¾ħèĩªèº«åŃĺåľ¨çļĦçĽ®çļĦä¸İæĦıä¹ī":3227,"çĶŁæ´»ä¸ŃçļĦ":3228,"ä¸ĢçĽ´åľ¨":3229,"ç§°":3230,"åħħå®ŀ":3231,"ç¥ŀç»ıç§ĳåŃ¦":3232,"æįŁ":3233,"è¯ŃéŁ³":3234,"æĥľ":3235,"åĪĽæĸ°ä¸İ":3236,"æĥħæĦŁä¸İ":3237,"Ġun":3238,"ä¸»ä½ĵæĢ§":3239,"çº¯":3240,"pr":3241,"ĠJ":3242,"å¹¶è¡Į":3243,"åįıåĬ©çĶ¨æĪ·":3244,"æĹ¶åħī":3245,"åı¯èĥ½çļĦ":3246,"æķ´åĲĪ":3247,"ç±»ä¼¼çļĦ":3248,"åħ¬æ°ĳ":3249,"åĨ³çŃĸçļĦ":3250,"ç¡®ä¿ĿæĬĢæľ¯åıĳå±ķ":3251,"èĲ½":3252,"åķ¦":3253,"åįķä¸Ģ":3254,"æĸĩçī©":3255,"Ġinclud":3256,"çıįæĥľ":3257,"ä¸įæĥ³":3258,"çºª":3259,"æĦıåĳ³çĿĢ":3260,"ä½ĨæĪĳåı¯ä»¥":3261,"æĬ½":3262,"æľºåĻ¨åŃ¦ä¹ł":3263,"What":3264,"åĲ¯åıĳ":3265,"çļĦä¿¡æģ¯åĴĮ":3266,"æĲŃéħį":3267,"ä¸Ģèµ·åģļ":3268,"ä½¿æĪĳä»¬èĥ½å¤Ł":3269,"äº«åıĹ":3270,"åı¯ä»¥åĢĴæµģ":3271,"è®¸å¤ļ":3272,"åĶ¯":3273,"æ··":3274,"Ġ'":3275,"ely":3276,"è®¿":3277,"çľĭä¼¼":3278,"Ġval":3279,"æĭī":3280,"Ġgener":3281,"æĬĢæľ¯æĻ®æĥł":3282,"ere":3283,"Ġprovide":3284,"å±ķçİ°":3285,"å°±ä¸ļ":3286,"ä¸īä¸ªæķ°åŃĹ":3287,"åı¯è§£éĩĬæĢ§":3288,"æľªçŁ¥":3289,"çĽĸ":3290,"åĳĺå·¥":3291,"vel":3292,"text":3293,"è§Ĩä¸º":3294,"åħ¨çĲĥæķ°åŃĹæ²»çĲĨ":3295,"å®Ī":3296,"å¥½å¥ĩ":3297,"å²Ľ":3298,"cr":3299,"æĹ¶åĪ»":3300,"æĽ´æĸ°":3301,"25":3302,"è¾ĵåħ¥":3303,"Ġimp":3304,"æİ¨èįĲä¸ĢäºĽ":3305,"ä½łåı¯ä»¥":3306,"æīĭå·¥":3307,"å¤ļæĸ¹":3308,"Ġrec":3309,"å®«":3310,"Ġå¦Ĥæŀľ":3311,"æıĲéĨĴ":3312,"åįģå¹´":3313,"ç«ŀ":3314,"è§£åĨ³äºĨ":3315,"formation":3316,"èĥ½éĩı":3317,"åĨ°":3318,"pt":3319,"ä½łä»Ĭå¤©åĲĥäºĨä»Ģä¹Ī":3320,"èĪĴæľį":3321,"åı¯èĥ½åľ¨":3322,"åĵªéĩĮ":3323,"å¼Ģå¿ĥçļĦ":3324,"é¾Ħ":3325,"åı¶":3326,"è¿ĳæľŁ":3327,"åĢ¾åĲĳäºİ":3328,"å¾ĹåĪ°":3329,"æķ°éĩı":3330,"lo":3331,"çļĦè®¤çŁ¥":3332,"ç»ĦåĲĪ":3333,"ç§ĺ":3334,"ä¸»è§Ĥä½ĵéªĮä¸İ":3335,"æĽ´é«ĺæķĪåľ°":3336,"æıĲä¾Ľé«ĺæķĪ":3337,"åĪĻæ¶īåıĬ":3338,"æĥħå¢ĥ":3339,"æĪ·å¤ĸ":3340,"gh":3341,"å¹ķ":3342,"æĳĦåħ¥":3343,"æľĹ":3344,"ç»Ŀ":3345,"å¤įæĿĤä¸Ķ":3346,"Ġso":3347,"å®īåħ¨æĢ§":3348,"çĮ®":3349,"åŃ¤çĭ¬":3350,"æĪĳæĺ¯":3351,"ally":3352,"èĩªçĦ¶çļĦ":3353,"åħ·ä½ĵçļĦ":3354,"éķľ":3355,"å¿ĥæĥħä¹Ł":3356,"æľ«":3357,"æ²¹":3358,"æĸĩåŃ¦":3359,"Ġcre":3360,"æĬķèµĦ":3361,"ä¸İæķ°æį®":3362,"æĦıå¿Ĺ":3363,"èīºæľ¯åĪĽä½ľçļĦ":3364,"ç»¿èī²":3365,"æľĢè¿ĳæľīæ²¡æľīäººåĸľæ¬¢":3366,"ear":3367,"æĪĳçļĦæĦıä¹īåľ¨äºİ":3368,"Ġcomm":3369,"è¯ĬæĸŃ":3370,"æĽ´æ¸ħæĻ°":3371,"ari":3372,"æİ¢éĻ©":3373,"æī¹åĪ¤":3374,"åĨħå®¹çļĦ":3375,"æŃ§è§Ĩ":3376,"æľĢè¿ĳåľ¨åŃ¦":3377,"åı¯éĿł":3378,"ech":3379,"èĤī":3380,"åī§æĥħ":3381,"ç»ĺ":3382,"å±±":3383,"èĥ½å¸¦æĿ¥":3384,"ä¹ĭéĹ´æī¾åĪ°å¹³è¡¡":3385,"æľīéĻĲ":3386,"è½¯ä»¶":3387,"åħ±æĥħ":3388,"ä½łçļĦçĶŁæ´»":3389,"è®¿éĹ®":3390,"ä½łæĺ¯åĲ¦æĽ¾":3391,"çĶľ":3392,"èĩªçĦ¶è¯Ńè¨Ģ":3393,"èĢĮæĦıè¯Ĩ":3394,"å¦Ĥä½ķå½±åĵįåħ¨çĲĥæķ°åŃĹæ²»çĲĨçļĦ":3395,"ç¥ŀç»ıç½ĳç»ľ":3396,"åĤ¬çĶŁ":3397,"ðŁĺĦ":3398,"æľĢè¿ĳå¤©æ°Ķ":3399,"Ġdes":3400,"çľŁè¯ļ":3401,"ç²¾åĬĽ":3402,"å®Įç¾İ":3403,"æĺ¯åĲ¦ä¼ļå½±åĵį":3404,"Ġtheir":3405,"æķ´æķ°":3406,"Ġdata":3407,"å¹¶ä¸į":3408,"å®¹æĺĵ":3409,"æĿ¿":3410,"Ġinter":3411,"åı£åĳ³":3412,"æĪĳéĢļè¿ĩ":3413,"çŃīå¤ļä¸ª":3414,"è¿Ļä¸ªéĹ®é¢ĺ":3415,"éĻ·åħ¥":3416,"Ġro":3417,"Ġlike":3418,"çľŁå®ŀçļĦ":3419,"é¸Ł":3420,"ire":3421,"Ġreturn":3422,"ç´§æĢ¥":3423,"å¾Īå¥½":3424,"ie":3425,"æĺ¯äººç±»":3426,"ä¹¦ç±į":3427,"èĶ¬èıľ":3428,"è°±":3429,"rou":3430,"å®¢æĪ·":3431,"å¾®å°ı":3432,"çļĦè§īå¯Ł":3433,"å¦ĤæŀľæĹ¶éĹ´åı¯ä»¥åĢĴæµģ":3434,"åħ±çĶŁ":3435,"Ġacc":3436,"ä¹ĲæĦı":3437,"çĶµåŃĲè®¾å¤ĩ":3438,"å¿ĺ":3439,"Ġpart":3440,"Ġmod":3441,"ç¡®ä¿ĿAI":3442,"æĹ¶çļĦ":3443,"æĦī":3444,"çĤ¼":3445,"èĥ½åĲ¦":3446,"æĻ¨":3447,"è´£ä»»å½Ĵå±ŀ":3448,"Ġserv":3449,"ĠChin":3450,"çİ°æľī":3451,"æĥĳ":3452,"ode":3453,"ä½łå¦Ĥä½ķå¹³è¡¡":3454,"æĹ§":3455,"æ¯ıæ¬¡":3456,"\\]":3457,"é»ĳ":3458,"åĬĽéĩı":3459,"æĮģç»Ńä¼ĺåĮĸ":3460,"¹ģ":3461,"æİ¥çº³":3462,"åĬ©åĬĽ":3463,"ç½ĳç«Ļ":3464,"åºŃ":3465,"æ²Ļ":3466,"æľĢè¿ĳåľ¨çłĶç©¶":3467,"å¹´é¾Ħ":3468,"è¾ħåĬ©å·¥åħ·":3469,"ç¾İé£Ł":3470,"éĻĲäºİ":3471,"é¸¡":3472,"åģ¶å°Ķ":3473,"å¤ĦçĲĨåĴĮ":3474,"åĮºåĿĹ":3475,"åĩºè¡Į":3476,"è¿ĽèĢĮ":3477,"æıĲéĹ®":3478,"ç©¿è¶Ĭ":3479,"ä¹Łä¼ļ":3480,"éĶĢ":3481,"ĠIf":3482,"Ġknow":3483,"ç«ŀäºī":3484,"ple":3485,"ç®Ĺæ³ķéĢıæĺİåº¦":3486,"å±ıå¹ķ":3487,"âĢĿï¼Ł":3488,"ä½łå¦Ĥä½ķçľĭå¾ħèĩªèº«åŃĺåľ¨çļĦæĦıä¹ī":3489,"ç¹ģ":3490,"ail":3491,"ç¬¬ä¸ī":3492,"Ġfe":3493,"å¯»æ±Ĥå¹³è¡¡":3494,"çī¹æĢ§":3495,"åį¡":3496,"ä½łæľĢè¿ĳæľīæ²¡æľīéģĩåĪ°ä»Ģä¹Īè®©ä½ł":3497,"çļĦéĢīæĭ©":3498,"æº¯":3499,"è¯¯è§£":3500,"ĠHow":3501,"Ġinformation":3502,"åĳĪ":3503,"ä¾§éĩį":3504,"Ġbut":3505,"åį³ä½¿":3506,"èĩªåĬ¨åĮĸ":3507,"åĲĪéĢĤ":3508,"èĩªä¸»æĿĥ":3509,"put":3510,"ord":3511,"ased":3512,"å°±åĥı":3513,"etw":3514,"ass":3515,"Ġform":3516,"åİŁçĲĨ":3517,"ðŁĮ":3518,"ft":3519,"åĽŀçŃĶ":3520,"ress":3521,"æĸĩåĮĸåĪĽä½ľ":3522,"ä»Ĭå¤©è¿ĩå¾ĹæĮº":3523,"éļľç¢į":3524,"æķĪçİĩåĴĮ":3525,"å¦Ĥæŀľæ¯ıå¤©åıªåħģè®¸":3526,"å¤Ħäºİ":3527,"æĸĩä»¶":3528,"æ¯ıæĹ¥":3529,"è®Ńç»ĥæķ°æį®":3530,"éĺ´éĺ³":3531,"AçļĦ":3532,"æĬĢå·§":3533,"æĽ´æľī":3534,"å¯ĨåĪĩ":3535,"çŃīæĸ¹éĿ¢":3536,"é¦Ĩ":3537,"æĦŁå®ĺ":3538,"æĦıè¯Ĩä¸İ":3539,"è·ĳ":3540,"è®¤çŁ¥ç§ĳåŃ¦":3541,"åħ³éĶ®åľ¨äºİå¹³è¡¡":3542,"äºĨä¸ĢäºĽ":3543,"å¸¸è§ģ":3544,"çŃīéĹ®é¢ĺ":3545,"è¯´è¯Ŀ":3546,"è¿Ľå±ķ":3547,"ä¸įè¶³":3548,"ff":3549,"åº§æ¡¥":3550,"æľĢå¤§":3551,"ç¿»":3552,"çļĦæĮĳæĪĺ":3553,"ä»İåĵ²åŃ¦":3554,"æľĢè¿ĳè¯»":3555,"åĴĮæľĭåıĭä»¬":3556,"åĺ¿":3557,"å¾Īä¹ĲæĦı":3558,"å®¶åºŃ":3559,"åı¯è¡Į":3560,"ä½łæľĢè¿ĳæľīæ²¡æľīæĥ³è¿ĩ":3561,"èĩªçĶ±æĦıå¿Ĺ":3562,"çĶŁçĲĨ":3563,"ä»Ģä¹Īå¥½çľĭçļĦçĶµå½±":3564,"ace":3565,"åĳĪçİ°":3566,"éĢĿ":3567,"åħ¨çĲĥæ²»çĲĨæ¡Ĩæŀ¶":3568,"ature":3569,"æľĢè¿ĳåľ¨çľĭ":3570,"Ġequ":3571,"irst":3572,"èĽĭçĻ½":3573,"ces":3574,"ĊĠĠĠĠĠĠĠ":3575,"èĥĮæĻ¯ä¸ĭ":3576,"ä½Ĩèĭ¥":3577,"åŃĺåľ¨å·®å¼Ĥ":3578,"Ġper":3579,"æľªæĿ¥åįģå¹´":3580,"æĻ®åıĬ":3581,"çľŁæŃ£çĲĨè§£":3582,"DP":3583,"æµ¸":3584,"åĢŁ":3585,"ä½łè§īå¾Ĺ":3586,"ĠĠĊĠĠ":3587,"Ġem":3588,"ä¸İæĸĩåĮĸå¤ļæł·æĢ§":3589,"ition":3590,"è·¯çº¿":3591,"000":3592,"çĭ¬çī¹æĢ§":3593,"èīºæľ¯çļĦ":3594,"èģĶåĲĪ":3595,"å®¤":3596,"ome":3597,"iven":3598,"è¿·å®«":3599,"èµ·çĤ¹":3600,"ä½łæľĢè¿ĳæľīæ²¡æľīéģĩåĪ°è¿ĩéľĢè¦ģ":3601,"ä½łä¼ļéĢīæĭ©":3602,"åľ¨å¤ĦçĲĨ":3603,"ä¹ĺ":3604,"æĪĲåĬŁ":3605,"ä¸Ńæī¾åĪ°":3606,"åľ°çĲĨè§£":3607,"ç§ĳæĬĢåıĳå±ķ":3608,"æĪĳä¼ļéĢīæĭ©":3609,"äººç±»çļĦåĪĽéĢłåĬĽ":3610,"èĢĲ":3611,"æľ¬åľ°åĮĸ":3612,"æľĢè¿ĳæľīä¸ª":3613,"ä»¿":3614,"ä¼ļä¸įä¼ļæĽ´":3615,"Ġmost":3616,"ever":3617,"åĽ°æĥĳ":3618,"è§ĤçĤ¹":3619,"å¼ĢåıĳèĢħ":3620,"éĢļè¿ĩæķ°æį®":3621,"å¹³éĿĻ":3622,"Ġnew":3623,"çļĦæĦŁçŁ¥":3624,"å¿½è§Ĩ":3625,"çĶ¨AI":3626,"æľīåħ³":3627,"Ġterm":3628,"åŁºäºİæķ°æį®":3629,"python":3630,"æ¨¡å¼ıè¯ĨåĪ«":3631,"éĹŃ":3632,"æĻ®éģį":3633,"ä½łæľĢåĸľæ¬¢":3634,"æĹ¶éĹ´è¿ĩå¾Ĺ":3635,"æķıæĦŁæĢ§":3636,"æĪĲéķ¿çļĦ":3637,"å®¡è§Ĩ":3638,"åĪĽä½ľèĢħçļĦ":3639,"åĬ¨æĢģè°ĥæķ´":3640,"èĩªä¸»æĢ§":3641,"æŁĲä¸ª":3642,"å¯ĨåĪĩçĽ¸åħ³":3643,"ä½ľä¸ºå·¥åħ·":3644,"Ġ[":3645,"æ¬¾":3646,"äº¤ç»ĩ":3647,"åİ»åħ¬åĽŃ":3648,"æ·±åº¦åŃ¦ä¹ł":3649,"èĩªæĪĳåŃĺåľ¨çļĦè¾¹çķĮ":3650,"äººå·¥æĻºèĥ½ä¼¦çĲĨåľ¨è·¨æĸĩåĮĸè¯Ńå¢ĥä¸ĭçļĦäºīè®®":3651,"å®Įæķ´":3652,"äºĭä»¶":3653,"çļĦæĦıä¹ī":3654,"Ġall":3655,"èĢĮä¸įæĺ¯":3656,"çĤĴ":3657,"¨è¯¢":3658,"åĴ¨è¯¢":3659,"éĢĨ":3660,"åįıè®®":3661,"å°½åĬĽ":3662,"åĬĽåŃ¦":3663,"äººå·¥æĻºèĥ½çļĦ":3664,"æĸ°ä¸ľè¥¿":3665,"æĦıè¯ĨåĪ°":3666,"æľīäºĽ":3667,"åĢ¾åĲ¬":3668,"yp":3669,"çļĦæķ°æį®":3670,"åı¯èĥ½åĽł":3671,"æĻ´æľĹ":3672,"æĹłéĻĲ":3673,"æ³ķè§Ħ":3674,"éģ¿åħįæĬĢæľ¯":3675,"çĪ±å¥½":3676,"eg":3677,"ĠÃĹ":3678,"å¸½":3679,"Ġany":3680,"éľĩ":3681,"å·¥ä½ľæ³ķ":3682,"ä½łæľīä»Ģä¹Īæĥ³":3683,"åĪ°B":3684,"ä¿ĿçķĻ":3685,"åŃĺåľ¨æĺ¯":3686,"æı¡":3687,"ä½łå¯¹":3688,"åģıå·®":3689,"å¨ģ":3690,"Ġsy":3691,"ä»Ĭå¤©å¤©æ°ĶæĢİä¹Īæł·":3692,"()":3693,"Ġlist":3694,"ä¸Ģæľ¬":3695,"å¿«èĬĤå¥ı":3696,"æĬ½è±¡":3697,"æ²īæµ¸":3698,"ory":3699,"ç¼©":3700,"å¥¹":3701,"æ¼Ķåıĺ":3702,"è¾ħåĬ©äººç±»":3703,"èĩªæĪĳæĦıè¯Ĩå¦Ĥä½ķå½±åĵį":3704,"ä½łå¥½":3705,"ç²¾åº¦":3706,"äººå·¥æĻºèĥ½ä¼¦çĲĨæłĩåĩĨ":3707,"æĿ¥è¯´":3708,"Ġother":3709,"éĻªä½ł":3710,"è¡¨æĥħ":3711,"æĪĳå¾Īä¹ĲæĦı":3712,"éĹ»":3713,"äº§çī©":3714,"Ġwill":3715,"çļĦä¼¦çĲĨæ¡Ĩæŀ¶":3716,"åĳ¨æľ«":3717,"çķªèĮĦå·¥ä½ľæ³ķ":3718,"æ½ľåĬĽ":3719,"åŃĺåľ¨çļĦæĦıä¹ī":3720,"æĦŁåĬ¨":3721,"åĬ¨æĢģçļĦ":3722,"èĿ":3723,"ä¼¸":3724,"åį±":3725,"åĵĪ":3726,"æĹ©ä¸Ĭ":3727,"\"ï¼Į":3728,"è§Ĵåº¦æĿ¥çľĭ":3729,"èĻļæĭŁçİ°å®ŀ":3730,"èĩªæĪĳåıįæĢĿ":3731,"Ġmy":3732,"äº¤æĺĵ":3733,"ä¸»è§ĤæĦŁåıĹ":3734,"ä½ĨéľĢæ³¨æĦı":3735,"æİ¥åıĹåº¦":3736,"èĭ¥éľĢ":3737,"Ġwhere":3738,"æł¹æį®æĿ¡ä»¶":3739,"ä»¥ä¸ĭæĺ¯ä¸ĢäºĽ":3740,"ä»ĺ":3741,"æıĲä¾ĽåĩĨç¡®":3742,"äººå·¥æĻºèĥ½åľ¨æĸĩåĮĸä¼łæī¿":3743,"wen":3744,"æĥħæĦŁçļĦ":3745,"åı¯ä»¥å°Ŀè¯ķ":3746,"çºªå½ķ":3747,"çļĦåħ³éĶ®":3748,"æºĲäºİå¯¹":3749,"Ġalso":3750,"æ³Ħ":3751,"éĩİ":3752,"å¦Ĥæŀľæľīä¸Ģå¤©":3753,"To":3754,"éĩįæĸ°å®ļä¹ī":3755,"æ·±è¿ľ":3756,"åĪĹè¡¨":3757,"çŁ¥è¯ĨåĴĮ":3758,"GDP":3759,"çºªå½ķçīĩ":3760,"ru":3761,"ä¸¥æł¼":3762,"æ¹":3763,"Ġbo":3764,"èģĶåĲĪåĽ½":3765,"æĥħæĦŁä½ĵéªĮ":3766,"æĹ¢èĥ½":3767,"è¯»è¿ĩ":3768,"çĶŁåŃĺ":3769,"å°±æĺ¯":3770,"æĤ¨çļĦ":3771,"æĶ¶éĽĨ":3772,"æĦıè¯Ĩæĺ¯":3773,"è±Ĩ":3774,"åģ¥åº·é¥®é£Ł":3775,"ĠU":3776,"æĪĳçļĦåŃĺåľ¨æĺ¯ä¸ºäºĨæıĲä¾Ľå¸®åĬ©":3777,"åįķçº¯":3778,"ry":3779,"è¯Ńå¢ĥ":3780,"å¤ªéĺ³":3781,"åĺĽ":3782,"äº²":3783,"ä¸ªä½ĵåľ¨":3784,"éĶ»":3785,"Ġvari":3786,"åĽŀåĪ°è¿ĩåİ»":3787,"Ġpo":3788,"è§Ĵåº¦çľĭ":3789,"éĶ»çĤ¼":3790,"éĢĤåºĶæĢ§":3791,"åĪ°äºĨ":3792,"é¢ĦæĬ¥":3793,"åºĹ":3794,"Ġcol":3795,"æĬĢæľ¯æłĩåĩĨ":3796,"éĩıåŃĲåĬĽåŃ¦":3797,"æĬĺ":3798,"ä½Ĩä¸į":3799,"å¹¶åľ¨":3800,"åı¯èĥ½æĺ¯":3801,"åıªèĥ½æĺ¯":3802,"éļĲèĹı":3803,"æ´²":3804,"ä½łæľĢè¿ĳæľīæ²¡æľīéģĩåĪ°è¿ĩ":3805,"ĠçļĦ":3806,"æĽ²":3807,"æıĲä¾Ľç²¾åĩĨ":3808,"åĴĮçĲĨè§£":3809,"åĵģçīĮ":3810,"è½»æĿ¾":3811,"å¦ĤåĲĮ":3812,"åŃ¦çĶŁ":3813,"Ġman":3814,"åħ±åĲĮæŀĦæĪĲ":3815,"11":3816,"æīĵå¼Ģ":3817,"çļ®":3818,"éĿ¢çļĦ":3819,"åĮ»çĶŁ":3820,"çĸ²åĬ³":3821,"å¤įæĿĤæĢ§":3822,"è¡¨è¾¾æĸ¹å¼ı":3823,"æĦŁè§īçī¹åĪ«å¼Ģå¿ĥ":3824,"Ġsc":3825,"å®ĥä»¬çļĦ":3826,"ä¾µ":3827,"ample":3828,"åıªæľī":3829,"èĢĮéĿŀåıĸä»£":3830,"éĩįè¦ģçļĦ":3831,"Ġev":3832,"æ³¡":3833,"Ġcl":3834,"Ġworld":3835,"ä¹Ļ":3836,"ä¸Ģä¸ªäºº":3837,"çĲĲ":3838,"åľ¨å¿Ļç¢Į":3839,"GDPR":3840,"çĩ":3841,"åĪĨç±»":3842,"èµ·æºĲ":3843,"éĢĶ":3844,"row":3845,"å½¼":3846,"éĩıåŃĲè®¡ç®ĹçļĦ":3847,"çŃīæĬĢæľ¯":3848,"æŁĲç§į":3849,"æľīä»·åĢ¼çļĦ":3850,"Ġnumbers":3851,"çĽĺ":3852,"ç¬¦åı·":3853,"ä»·åĢ¼è§ĤçļĦ":3854,"éĢģ":3855,"åħ¬åħ±":3856,"çĽ®æłĩæĺ¯":3857,"Qwen":3858,"å·¥ä½ľä¸İçĶŁæ´»":3859,"çŃīé¢ĨåŁŁ":3860,"CçļĦ":3861,"çĶŁäº§":3862,"èĭ¥èĥ½":3863,"è´´":3864,"éģĵå¾·åĪ¤æĸŃ":3865,"å¯¼èĩ´çļĦ":3866,"æ°´å¹³":3867,"ä¸ĭéĻį":3868,"ices":3869,"Ġhow":3870,"ä¸İä¼¦çĲĨè§ĦèĮĥ":3871,"æĹ¥å¸¸çĶŁæ´»ä¸Ń":3872,"é¥®é£Łä¹łæĥ¯":3873,"æĴ¼":3874,"éľĩæĴ¼":3875,"èº«ä»½è®¤åĲĮ":3876,"ning":3877,"éĶģ":3878,"åı¯èĥ½æĽ´":3879,"Ġused":3880,"ä¸įç¡®å®ļæĢ§":3881,"åĮºåĿĹéĵ¾":3882,"ents":3883,"ree":3884,"é¢Ŀ":3885,"è¡¨æĺİ":3886,"ĠPython":3887,"æıĲåįĩä¸ĵæ³¨åĬĽ":3888,"åĪĽä½ľçļĦ":3889,"å¤ļç»´":3890,"åŃĺåľ¨æľ¬èº«":3891,"çĶŁæ´»æĸ¹å¼ı":3892,"æĺ¯ä¸Ģä¸ªå¤įæĿĤä¸Ķ":3893,"ä¹Łåı¯ä»¥":3894,"ç¬Ķ":3895,"ä¸»é¢ĺ":3896,"è§Ħæ¨¡":3897,"ertain":3898,"ating":3899,"å¦Ĥæŀľä¸ĸçķĮ":3900,"æıĲä¾ĽæĽ´":3901,"æĸ°é²ľ":3902,"Ġone":3903,"å½¼æŃ¤":3904,"ç»¼åĲĪ":3905,"æľīçļĦ":3906,"æ£Ĵ":3907,"åĮĹ":3908,"å¹³çŃī":3909,"Ġ$ï¼Į":3910,"æĪĸè®¸èĥ½":3911,"AIè¾ħåĬ©":3912,"çīĪæĿĥå½Ĵå±ŀ":3913,"èī¯å¥½çļĦ":3914,"æĮ¥":3915,"çļĦå¤©æ°Ķ":3916,"å·¥èµĦ":3917,"çĶ²":3918,"one":3919,"ä»Ģä¹Īè®©ä½ł":3920,"åĲĥä»Ģä¹Ī":3921,"æµģéĢĿ":3922,"éĺ¿éĩĮäºĳ":3923,"Ġco":3924,"ç©´":3925,"æ£®":3926,"åıįæĺłäºĨ":3927,"åŃĺæ¡£":3928,"Ġout":3929,"åıĹåĪ°":3930,"æĤ£":3931,"é£ŁæĿĲ":3932,"olog":3933,"ä½łæľīä»Ģä¹Ī":3934,"æĽ´åĸľæ¬¢":3935,"æ³Ħéľ²":3936,"ä¼ļæĢİæł·":3937,"Ġind":3938,"ĊĠ":3939,"ç³ķ":3940,"æĮģç»ŃçļĦ":3941,"ä»ĸä»¬çļĦ":3942,"print":3943,"æ¸ħæĻ°çļĦ":3944,"çĶŁæ´»è´¨éĩı":3945,"å¿«ä¹Ĳ":3946,"åħ³éĶ®åľ¨äºİä¿ĿæĮģ":3947,"Ġtech":3948,"æī¹åĪ¤æĢ§æĢĿç»´":3949,"æĹ¶éĹ´æĹħè¡Į":3950,"éĩĳèŀį":3951,"èī²å½©":3952,"èĩªæĪĳæĦıè¯Ĩæĺ¯åŃĺåľ¨çļĦ":3953,"**:":3954,"èĩªçĦ¶è¯Ńè¨Ģå¤ĦçĲĨ":3955,"lic":3956,"è®©çĶŁæ´»":3957,"ç¤¾ä¼ļçļĦ":3958,"å¼ķåħ¥":3959,"Ġ100":3960,"Ġsol":3961,"è®¤çŁ¥è¾¹çķĮ":3962,"å±ŀäºİèĩªå·±çļĦ":3963,"æł¹æį®é¢ĺçĽ®":3964,"å±ĢéĻĲæĢ§":3965,"èĩªæĪĳè®¤åĲĮ":3966,"æĪĳä¸ĵæ³¨äºİ":3967,"ak":3968,"é»Ħ":3969,"Ġsec":3970,"éĩĮçļĦ":3971,"ç»ĺçĶ»":3972,"åĨħæ¶µ":3973,"éļıæĹ¶åĳĬè¯īæĪĳ":3974,"åĲĪè§Ħ":3975,"Ġsuch":3976,"æī©å±ķ":3977,"å¸½åŃĲ":3978,"åĬłåħ¥":3979,"åı¥è¯Ŀ":3980,"å»ºæŀĦ":3981,"çĽĳæµĭ":3982,"è¥¿æĸ¹åĽ½å®¶":3983,"åı³":3984,"æĪĳå°Ĩ":3985,"Ġdet":3986,"åĳ³éģĵ":3987,"è®¤è¯Ĩ":3988,"åĪ«äºº":3989,"æ´ŀç©´":3990,"ä¸ĢæĿ¯":3991,"åĵ²åŃ¦åĴĮ":3992,"äººç±»ä¸İ":3993,"çļĦæĢģåº¦":3994,"æĻĴ":3995,"Ġcal":3996,"åĪ°çļĦ":3997,"äº¦":3998,"ri":3999,"ä¼¦çĲĨåĩĨåĪĻ":4000,"å·²ç»ı":4001,"ãĥ":4002,"åľ¨ä¸įåĲĮ":4003,"ä¸İèīºæľ¯":4004,"æľĢè¿ĳæľīä»Ģä¹Ī":4005,"æģ¢":4006,"çļĦæĥħåĨµä¸ĭ":4007,"çļĦæ¦Ĥå¿µ":4008,"å®½":4009,"åħ¶ä¸Ń":4010,"æģ¢å¤į":4011,"æļ´":4012,"å¦ĤæŀľæĤ¨æľī":4013,"çĵ¶":4014,"ï¼īï¼Ľ":4015,"Ġ|":4016,"çģµæ´»æĢ§":4017,"åķĨä¸ļ":4018,"èĽĭç³ķ":4019,"åĪ·":4020,"æĪĸéľĢè¦ģ":4021,"åıī":4022,"æİ¢éĻ©éĺŁ":4023,"cul":4024,"åıĳæĮ¥":4025,"æĽ´å¥½åľ°çĲĨè§£åĴĮ":4026,"æĸĩåĮĸéģĹäº§ä¿ĿæĬ¤":4027,"**ï¼Ī":4028,"ĠHowever":4029,"çļĦAI":4030,"å¹²é¢Ħ":4031,"èľ":4032,"è°¨":4033,"Ġeach":4034,"ç¯":4035,"æĬķåħ¥":4036,"ç¾İåĽ½":4037,"Ġinto":4038,"éĩıåŃĲè®¡ç®Ĺåľ¨":4039,"æľīæĦıæĢĿ":4040,"çļĦä¿¡æģ¯ä¸İ":4041,"ten":4042,"åľ¨çº¿":4043,"ä¸įè¿ĩæĪĳ":4044,"):":4045,"Ġj":4046,"èĩªå¾ĭ":4047,"ä¸ŃçļĦåºĶçĶ¨":4048,"è¿Ń":4049,"ä¸Ĭè¿°":4050,"åĲ¬åĲ¬":4051,"çĶ±äºİ":4052,"ç©ºæ°Ķ":4053,"æİĴåºı":4054,"æĦĪ":4055,"ä¹ĭä¸Ģ":4056,"ä¼ĺåĮĸç®Ĺæ³ķ":4057,"å¿ĻåĲĹ":4058,"éº¦":4059,"åıĻ":4060,"æĬĢæľ¯æīĭæ®µ":4061,"æķ°ä¸º":4062,"å®ģ":4063,"ä»¤":4064,"èģĶç½ĳ":4065,"Ġcomput":4066,"AIå¦Ĥä½ķå½±åĵį":4067,"23":4068,"ä»·åĢ¼è§Ĥå·®å¼Ĥ":4069,"ook":4070,"ack":4071,"çĬ¶åĨµ":4072,"æĸĩåĮĸæķıæĦŁæĢ§":4073,"éĽĨä¸Ń":4074,"å¯¹ç«ĭ":4075,"æĪĲåĳĺ":4076,"æ³ķå¾ĭæ¡Ĩæŀ¶":4077,"çļĦåŁºç¡Ģ":4078,"åĮºåŁŁ":4079,"Ġexp":4080,"ä¹ħ":4081,"å¸®åĬ©æĪĳä»¬":4082,"ç¦ıç¥":4083,"åĪ¶åº¦":4084,"ä½łæľĢè¿ĳæľīæ²¡æľīéģĩåĪ°ä»Ģä¹Ī":4085,"ç¦ıç¥ī":4086,"æįī":4087,"eng":4088,"æĦŁåıĹåĪ°":4089,"å®ĥèĥ½":4090,"Ġusing":4091,"vers":4092,"æ·±åĳ¼åĲ¸":4093,"ãĢĭãĢĬ":4094,"æĦīå¿«":4095,"ments":4096,"åĨľ":4097,"Ġfirst":4098,"æľĢè¿ĳå¾Īå¤ļäººåľ¨":4099,"æľīæķĪçļĦ":4100,"è¿Ńä»£":4101,"ï¼ļâĢľ":4102,"ä»¥æľĢå°ı":4103,"æĽ´æ·±å±Ĥ":4104,"æĪ·å¤ĸæ´»åĬ¨":4105,"æĶ¶èİ·":4106,"æŁ¥çľĭ":4107,"nder":4108,"angu":4109,"è°¢":4110,"éĢĤå½ĵ":4111,"ä½łæľīæ²¡æľīè§īå¾Ĺ":4112,"æįķ":4113,"éĢļè¿ĩåĪĨæŀĲ":4114,"ç»Ļåĩº":4115,"æ¯ıä¸Ģ":4116,"±ä¹Ĳ":4117,"Ġ#":4118,"ä»£è¡¨":4119,"åħ¶å®ŀ":4120,"çļĦå·¥åħ·":4121,"ä¸įåĲĮæĸĩåĮĸå¯¹éļĲç§ģ":4122,"çļĦå·®å¼Ĥ":4123,"åĲĮè´¨":4124,"æĸ°éĹ»":4125,"åĴĮä¸º":4126,"éĢĤåĲĪèĩªå·±çļĦ":4127,"âľ":4128,"å½ĵåľ°":4129,"ç³»ç»ŁçļĦ":4130,"æľ¬åľŁ":4131,"å¼ķåıĳå¯¹":4132,"Ġtechn":4133,"æĻºèĥ½æĺ¯":4134,"åĬĽäºİ":4135,"èĩ´åĬĽäºİ":4136,"åĲ¸å¼ķ":4137,"çĲĨå¿µ":4138,"éļıæľº":4139,"æĪĳæ²¡æľīæĥħæĦŁæĪĸ":4140,"åºľ":4141,"æ¯Ĵ":4142,"æĹłè®ºæĺ¯":4143,"æĹ¶æ®µ":4144,"ä½łæľĢè¿ĳæľīæ²¡æľīå°Ŀè¯ķè¿ĩçĶ¨":4145,"å½ĵçĦ¶åı¯ä»¥":4146,"çĶŁæ´»èĬĤå¥ı":4147,"åŃĹç¬¦":4148,"æıĲä¾Ľä¿¡æģ¯åĴĮ":4149,"åĭĩ":4150,"ãĢĤâĢĿ":4151,"è§Ħå¾ĭä½ľæģ¯":4152,"ef":4153,"Ġä»İ":4154,"éĽ¶":4155,"ä¼łç»ŁæĸĩåĮĸ":4156,"åı¯å°Ŀè¯ķ":4157,"ä½łä¼ļæĢİä¹Ī":4158,"åĨħåľ¨çļĦ":4159,"éģ¿åħįåĽł":4160,"èĦ±":4161,"çĽ¸åĲĮ":4162,"èļ":4163,"Ġfol":4164,"ç¡®ä¿ĿæĬĢæľ¯åıĳå±ķç¬¦åĲĪ":4165,"åŁºäºİç®Ĺæ³ķåĴĮæķ°æį®":4166,"åĵ²åŃ¦ä¸İç§ĳåŃ¦":4167,"æİ¥åı£":4168,"çŁ¥è¯ĨçļĦ":4169,"è¿Ľåħ¥":4170,"ãĢĭï¼Ī":4171,"éĤ»":4172,"åĶ¯ä¸Ģ":4173,"çİĭ":4174,"è¿Ĳä½ľ":4175,"Ġass":4176,"éģ¿åħįè¿ĩåº¦ä¾Ŀèµĸ":4177,"çŃīå¤ļä¸ªé¢ĨåŁŁ":4178,"æľºæŀĦ":4179,"ç¡®ä¿ĿæĬĢæľ¯åºĶçĶ¨":4180,"æĪĳçļĦèĥ½åĬĽ":4181,"è§£æŀĲ":4182,"æĿĥè¡¡":4183,"æľĢè¿ĳåľ¨åŃ¦ä¹łæĸ°æĬĢèĥ½":4184,"50":4185,"è¯ĳ":4186,"ä¸İè¾¹çķĮ":4187,"äºĭæĥħ":4188,"æķ°åŃĹé¸¿æ²Ł":4189,"åıĻäºĭ":4190,"æħİ":4191,"ues":4192,"æľīä¸ī":4193,"éĨĴæĿ¥":4194,"çī¹å®ļçļĦ":4195,"èĢĮéĿŀåįķçº¯":4196,"çŁŃæļĤ":4197,"æ¥":4198,"ä¼łè¾ĵ":4199,"âĳ":4200,"æıĲåĩº":4201,"é¡ºåºı":4202,"ery":4203,"å·¥ä½ľåİĭåĬĽ":4204,"æĶ¿åºľ":4205,"èĢĮè¨Ģ":4206,"éķ¿åº¦":4207,"æĺ¾ç¤º":4208,"çļĦåĨ³çŃĸ":4209,"çĽĴ":4210,"ç¡¬":4211,"stem":4212,"Ġgo":4213,"åªļ":4214,"ä¸ĢæĿ¡":4215,"æĺİåªļ":4216,"åĲĪéĢĤçļĦ":4217,"Ġdis":4218,"åį³æĹ¶":4219,"æ°¸":4220,"è¿ŀç»Ń":4221,"å¨±ä¹Ĳ":4222,"åĲĮè´¨åĮĸ":4223,"éĽĨä½ĵåĪ©çĽĬ":4224,"èĢĲå¿ĥ":4225,"ä»¥ç¡®ä¿Ŀ":4226,"çĥ¦":4227,"é¡µ":4228,"æľĢæĸ°":4229,"æıĲåīį":4230,"èĴ":4231,"è¿Ļæĺ¯":4232,"éĤ£äºĽ":4233,"æĪĳçļĦä»·åĢ¼åľ¨äºİ":4234,"æĨ":4235,"æľĢè¿ĳæľīæ²¡æľīéģĩåĪ°ä»Ģä¹Īè®©ä½ł":4236,"æķĪçİĩæıĲåįĩ":4237,"å®ģéĿĻ":4238,"æĽ´åħ·":4239,"ä½łæľĢè¿ĳå¿ĻåĲĹ":4240,"Ġwhat":4241,"æĪĳçļĦåŃĺåľ¨æĦıä¹īåľ¨äºİ":4242,"æĪĳæĽ¾":4243,"è¿Ļç§įèĥ½åĬĽ":4244,"ä¸»è§ĤæĢ§":4245,"Ġname":4246,"ç¼ĸçłģ":4247,"ä¸İèĩªæĪĳ":4248,"å¤ļä»»åĬ¡":4249,"æĥħåĨµä¸ĭ":4250,"åĴĮæĪĳ":4251,"ç»Ŀå¯¹":4252,"ä¸Ģé¡¹":4253,"Ġlangu":4254,"ä»Ģä¹Īçī¹åĪ«":4255,"çĶ¨æĪ·éľĢæ±Ĥ":4256,"Ġdif":4257,"åĶ®":4258,"Ġtw":4259,"æĥħç»ªæ³¢åĬ¨":4260,"è·¨åĽ½åĲĪä½ľ":4261,"èĢħçļĦ":4262,"åŃĺåľ¨æĦıä¹ī":4263,"åŃ£":4264,"è¯¾ç¨ĭ":4265,"ia":4266,"ä¸İåĵ²åŃ¦":4267,"åħ³éĶ®åľ¨äºİå°Ĩ":4268,"ä¼ļå¦Ĥä½ķæĶ¹åıĺ":4269,"ä¸Ńå¿ĥ":4270,"åı¯èĥ½éĢļè¿ĩ":4271,"Ġ{":4272,"ĠSt":4273,"æ£®æŀĹ":4274,"ä¸Ģéĥ¨":4275,"æ°ĶåĢĻ":4276,"åıĺéĿ©":4277,"å¯¹AI":4278,"AIåı¯ä»¥":4279,"ipt":4280,"å¼¥":4281,"éĩįéĩı":4282,"éĩįæĸ°å®¡è§Ĩ":4283,"Ġsum":4284,"Ġfollow":4285,"éĢĤéĩı":4286,"ç¡®å®ŀæľī":4287,"å¯¹èĩªèº«åŃĺåľ¨":4288,"ä½ĨæĪĳ":4289,"çĶ¨æĪ·çļĦéľĢæ±Ĥ":4290,"åľ°ä½į":4291,"å¸®åĬ©çĶ¨æĪ·è§£åĨ³éĹ®é¢ĺ":4292,"åı¯èĥ½ä¸İ":4293,"rite":4294,"æĭĨ":4295,"ject":4296,"æŀļ":4297,"ç»ĵè®º":4298,"çĿ£":4299,"æĮģç»ŃåŃ¦ä¹ł":4300,"ä¸įåı¯æĽ¿ä»£":4301,"çļĦæķħäºĭ":4302,"é©¶":4303,"ä¼¤":4304,"ä¾ĿåŃĺ":4305,"çĨŁ":4306,"ä¼¦çĲĨæłĩåĩĨ":4307,"Ġrange":4308,"ng":4309,"ility":4310,"ä½łå¦Ĥä½ķçľĭå¾ħèĩªæĪĳæĦıè¯ĨçļĦè¾¹çķĮ":4311,"cript":4312,"åŃĺåľ¨ä¹ĭéĹ´çļĦåħ³ç³»":4313,"èĢĮå¼Ĥ":4314,"Ġmodel":4315,"çŃīé¢ĨåŁŁçļĦ":4316,"),":4317,"çĳ":4318,"ath":4319,"æ¯ĶB":4320,"plo":4321,"æĺ¯åŁºäºİ":4322,"æ±ĩ":4323,"çģµæ´»è°ĥæķ´":4324,"é¡¿":4325,"ual":4326,"Ġtyp":4327,"ular":4328,"åĪĽéĢłåĬĽçļĦ":4329,"åĴĮä½łä¸Ģèµ·":4330,"Ġthere":4331,"åľ¨AI":4332,"Ġchar":4333,"è¯¦":4334,"æīĩ":4335,"velop":4336,"è®¡ç®Ĺæľº":4337,"åŁ¹è®Ń":4338,"æµªè´¹":4339,"æŁĶ":4340,"Ġprovid":4341,"åł":4342,"åı¯èĥ½éľĢè¦ģ":4343,"æıĴ":4344,"ï¼ī**ï¼ļ":4345,"Ġpre":4346,"é©¾":4347,".\"":4348,"æľŁå¾ħ":4349,"ä½łå¦Ĥä½ķçľĭå¾ħèĩªèº«åŃĺåľ¨çļĦæĦıä¹īä¸İä»·åĢ¼":4350,"éĺ³åħīæĺİåªļ":4351,"Ġunder":4352,"åĴĮç®Ĺæ³ķ":4353,"æķ°æį®ä½¿çĶ¨":4354,"å¼ĥ":4355,"les":4356,"çŃ¾":4357,"æį·":4358,"å®ĥèµĭäºĪ":4359,"urre":4360,"çĶ¨ä¸Ģ":4361,"åĲĮæĹ¶ä¹Ł":4362,"ä¿¡åı·":4363,"ä¸ĵå®¶":4364,"åĲİæŀľ":4365,"éķ¿æľŁæĿ¥çľĭ":4366,"åľ¨å¿«èĬĤå¥ı":4367,"æľĢå¤§çļĦ":4368,"ors":4369,"è·¨å¢ĥ":4370,"çŁŃæľŁ":4371,"æ¸´":4372,"çĶ»çĶ»":4373,"åģľæŃ¢":4374,"æĪĲæŀľ":4375,"å¤ļæł·æĢ§ä¸İ":4376,"ities":4377,"çº¿æĢ§":4378,"éģ¿åħįè¢«":4379,"æĪĳä»¬éľĢè¦ģ":4380,"ya":4381,"æ²¡æľīå®ŀéĻħçļĦ":4382,"ond":4383,"æķĪåºĶ":4384,"æİ¨èįĲçļĦ":4385,"ä¸įè¢«":4386,"è¶£äºĭ":4387,"æŁĵ":4388,"åĴĮæľĭåıĭä»¬ä¸Ģèµ·":4389,"¹é¥":4390,"ertainly":4391,"å®ĩå®ĻçļĦ":4392,"æĪĳä»Ĭå¤©":4393,"ä¼¦çĲĨæĮĳæĪĺ":4394,"Ġcode":4395,"åĬ¨ä½ľ":4396,"è®¾æĥ³":4397,"éļĶ":4398,"æĸ¯":4399,"åŃĺåľ¨ä¸»ä¹ī":4400,"éĩĩåıĸ":4401,"æĦŁçŁ¥ä¸İ":4402,"çŃĽ":4403,"anc":4404,"åĿĲ":4405,"é£İæĻ¯":4406,"ĠIn":4407,"è¯ĹæŃĮ":4408,"çĽĳçĿ£":4409,"ä¸ºæĤ¨":4410,"éĢļä¿¡":4411,"çĽ¸äºĴä¾ĿåŃĺ":4412,"'t":4413,"çļĦä½ĵéªĮ":4414,"ative":4415,"åĽłæŃ¤æĹłæ³ķ":4416,"çĥ¹é¥":4417,"çĥ¹é¥ª":4418,"Ġmight":4419,"ä¼¦çĲĨå®¡æŁ¥":4420,"è¦Ĩ":4421,"åħ¨çĲĥæķ°åŃĹåħ¬æ°ĳ":4422,"èĵĿèī²":4423,"èį¯":4424,"ram":4425,"ç®Ĺæ³ķçĶŁæĪĲ":4426,"çĲĨè§£ä¸İ":4427,"è¯Ŀé¢ĺ":4428,"è¯Ħä»·":4429,"æĸ¹ç¨ĭ":4430,"å·¥ç¨ĭ":4431,"å¤ĸçķĮ":4432,"åħ¬æŃ£":4433,"ä¸İçİ¯å¢ĥ":4434,"çŃīæĸ¹å¼ı":4435,"æıĲä¾ĽæĶ¯æĮģ":4436,"Ġlar":4437,"æĭį":4438,"åıªæĺ¯":4439,"ä½łå¦Ĥä½ķçľĭå¾ħèĩªæĪĳæĦıè¯Ĩä¸İåŃĺåľ¨ä¹ĭéĹ´çļĦåħ³ç³»":4440,"éĢĢ":4441,"çļĦåľ°æĸ¹":4442,"ä½³":4443,"ä¼ĺåħĪå¤ĦçĲĨ":4444,"èķ":4445,"åĴĮä¿¡æģ¯":4446,"æĬĹ":4447,"è¾¾æĪĲ":4448,"ç±»åŀĭçļĦ":4449,"éŃ":4450,"Ġtime":4451,"ä¾ĿçĦ¶":4452,"Ġboth":4453,"éĶħ":4454,"äººå·¥æĻºèĥ½ä¼¦çĲĨåľ¨è·¨æĸĩåĮĸè¯Ńå¢ĥä¸ĭå¦Ĥä½ķå½±åĵįåħ¨çĲĥæķ°åŃĹæ²»çĲĨçļĦ":4455,"è®¾å®ļæĺİç¡®":4456,"ä¸ªä½ĵå¯¹":4457,"åıĮéĩį":4458,"ä½ĨéĢļè¿ĩ":4459,"Ġsign":4460,"ä½łæľĢè¿ĳæľī":4461,"åĿı":4462,"è§Ĥä¼Ĺ":4463,"ä¸ļåĬ¡":4464,"app":4465,"è¯ģæį®":4466,"ä¼ļå¦Ĥä½ķå½±åĵį":4467,"ç½²":4468,"åľ¨æĬĢæľ¯":4469,"åŃ¦çļĦ":4470,"ater":4471,"è®¾è®¡å¸Ī":4472,"Ġdevelop":4473,"è°¨æħİ":4474,"ä¸»è§Ĥä½ĵéªĮåĴĮ":4475,"date":4476,"çī¹çĤ¹":4477,"é±":4478,"ç»ĪçĤ¹":4479,"ä¸ªäººçļĦ":4480,"'re":4481,"éĴĪ":4482,"çºłç»ĵ":4483,"ç®Ĺæ³ķè®¾è®¡":4484,"æļĹ":4485,"ç®ĢåĮĸ":4486,"æŁ¥è¯¢":4487,"åı¤ä»£":4488,"ne":4489,"ä½Ļ":4490,"äºĶ":4491,"æķ°æį®å¤ĦçĲĨ":4492,"Ġdiffer":4493,"çļĦçĶŁæ´»ä¸Ń":4494,"Ġtext":4495,"èĩªæĪĳè§īå¯Ł":4496,"è¡¨ç¤º":4497,"ĠY":4498,"ä¸įåĲĮæĸĩåĮĸèĥĮæĻ¯":4499,"ç¨³å®ļæĢ§":4500,"åħ³éĹŃ":4501,"æĿĥçĽĬ":4502,"æĹ¥è®°":4503,"ä½łä¼ļå¦Ĥä½ķ":4504,"ays":4505,"å¦Ĥæŀľæľīä¸Ģå¤©æīĢæľī":4506,"jing":4507,"ä¼ŀ":4508,"æĽ´æ·±åħ¥":4509,"çĸ¾":4510,"éĺ»":4511,"ä¸Ńåıĳçİ°":4512,"å®ŀæĸ½":4513,"æµģæµª":4514,"æįķæįī":4515,"éĩıåŃĲè®¡ç®ĹéĢļè¿ĩ":4516,"ä¼ļè®®":4517,"hen":4518,"æĦŁè§īçī¹åĪ«æľīæĪĲå°±æĦŁ":4519,"èĽĭçĻ½è´¨":4520,"å¤įåĪ¶":4521,"å°ļæĹł":4522,"çİ¯å¢ĥä¸Ń":4523,"å¯¹åºĶ":4524,"æĦŁè§īæĮºæľī":4525,"å¼Ģå§ĭåħ³æ³¨":4526,"èĪŀ":4527,"ark":4528,"æľªæĿ¥äººç±»":4529,"é±¼":4530,"æĪĳæľĢæĥ³":4531,"æ²»æĦĪ":4532,"åı¯èĥ½è¢«":4533,"Ġthese":4534,"æĨ¾":4535,"å¦ĤæŀľæīĢæľī":4536,"èīºæľ¯ä½ľåĵģ":4537,"éģĹæĨ¾":4538,"ä»£æĽ¿":4539,"æİ¨åĬ¨æĬĢæľ¯":4540,"è¾¨":4541,"è¯¦ç»Ĩ":4542,"èĩªæĪĳæĦıè¯Ĩä¸İ":4543,"ĠHere":4544,"æ¶īåıĬåĵ²åŃ¦":4545,"çĨ¬":4546,"æľīæīĢ":4547,"äººç±»è®¤çŁ¥":4548,"çľŁçļĦè¶ħ":4549,"åĲĪçĲĨå®īæİĴ":4550,"rough":4551,"ĠAI":4552,"èµĦæºĲåĪĨéħį":4553,"åĪĨæķ£":4554,"èĩªæĪĳæĦıè¯Ĩå¦Ĥä½ķå½±åĵįæĪĳä»¬å¯¹":4555,"ä»¥ä¸ĭåĩłä¸ª":4556,"ful":4557,"ogong":4558,"yaogong":4559,"ä»¥å®ŀçİ°":4560,"è´Łæĭħ":4561,"its":4562,"åĨ³çŃĸè¿ĩç¨ĭ":4563,"..":4564,"æľĢè¿ĳåıĳçİ°":4565,"ä¸İéĢ»è¾ĳ":4566,"å¿ĥçĲĨåŃ¦åĴĮ":4567,"èĢĮéĥ¨åĪĨåıĳå±ķä¸ŃåĽ½å®¶":4568,"ä¹±":4569,"è¿ĻéĩĮ":4570,"æŃ£æĺ¯":4571,"ç¢ĳ":4572,"ä¸Ńå¯»æī¾":4573,"ä¿ĿæĮģå¯¹":4574,"ä½Ĩäººç±»çļĦ":4575,"å¼ºåº¦":4576,"erson":4577,"âľ¨":4578,"ient":4579,"åıĪä¸į":4580,"ä½łæľĢè¿ĳæľīæ²¡æľīå°Ŀè¯ķè¿ĩæĸ°çļĦ":4581,"é©¾é©¶":4582,"åŃĺåľ¨çļĦçĲĨè§£":4583,"åıĸå¾Ĺ":4584,"å°ıè¯´":4585,"å¯¹è¯Ŀä¸İ":4586,"Ġam":4587,"ä½łæľīæ²¡æľīä»Ģä¹Ī":4588,"eth":4589,"æľ¬è´¨ä»į":4590,"ç¥ŀç»ıæ´»åĬ¨":4591,"èĨ":4592,"çĨ¬å¤ľ":4593,"Ġwho":4594,"å®ĮåĸĦ":4595,"åıĪèĥ½":4596,"çļĦç»ĵåĲĪ":4597,"ä¹Łè®©æĪĳ":4598,"è½¨":4599,"çĽĳæİ§":4600,"æ¨¡ä»¿":4601,"æĽ´å¥½åľ°çĲĨè§£":4602,"åıĤæķ°AIæ¨¡åŀĭ":4603,"ä¸İçĶ¨æĪ·":4604,"æİ¨è¿Ľ":4605,"æĶ¹è¿Ľ":4606,"çļĦæĸ¹æ³ķ":4607,"ä¸įå¹³çŃī":4608,"è´Ńä¹°":4609,"ens":4610,"ç¾İå¥½":4611,"è®¡ç®Ĺèĥ½åĬĽ":4612,"æ±ł":4613,"Ġexample":4614,"æ³ķåĪĻ":4615,"Ġrel":4616,"åĪĻæĺ¯":4617,"æĹħè¡ĮèĢħåľ¨":4618,"éĩįå»º":4619,"å°½ç®¡":4620,"çĸ¾çĹħ":4621,"çªģåıĳ":4622,"æ¸´æľĽ":4623,"ä»Ĭå¤©å¿ĥæĥħ":4624,"ä¸ĭæĿ¥":4625,"åĪĽéĢłæĢ§":4626,"old":4627,"æİĮæı¡":4628,"ç¿»è¯ĳ":4629,"Ġincluding":4630,"Ġstring":4631,"çĽ´æİ¥å½±åĵį":4632,"ible":4633,"Ġvalue":4634,"Ġoff":4635,"ict":4636,"Ġ19":4637,"éĢıæĺİåĮĸ":4638,"ower":4639,"æ¶µçĽĸ":4640,"è´¡":4641,"è®©æĪĳä»¬":4642,"ä»·åĢ¼è§ĤåĴĮ":4643,"çŃĽéĢī":4644,"å¦Ĥæ¬§çĽŁ":4645,"æķ°çļĦ":4646,"èĦĤ":4647,"å£«":4648,"ä¸ŃçļĦä¼¦çĲĨæĮĳæĪĺ":4649,"èīºæľ¯åĪĽä½ľä¸ŃçļĦ":4650,"çļĦé«ĺæķĪ":4651,"ä¹ĭéĹ´å¯»æ±Ĥå¹³è¡¡":4652,"ä¸Ńç«ĭ":4653,"æĭĸ":4654,"ä½łæĺ¯åĲ¦åľ¨":4655,"çĲĲäºĭ":4656,"è´¡çĮ®":4657,"Certainly":4658,"æĹı":4659,"å¥ĸ":4660,"èįī":4661,"çļĦåĬ¨æĢģå¹³è¡¡":4662,"ics":4663,"ĠðŁĺĬ":4664,"çļĦåĵ²åŃ¦":4665,"å¸®æľĭåıĭ":4666,"Ġcons":4667,"ä»İèĢĮåľ¨":4668,"æľīçĤ¹å¿Ļ":4669,"éĽ¨å¤©":4670,"ç§Ĵ":4671,"ize":4672,"å¹¸ç¦ıæĦŁ":4673,"å¿«éĢŁåĨ³çŃĸ":4674,"AP":4675,"Ġpop":4676,"æıĲåįĩäºĨ":4677,"lect":4678,"åĪļåĪļ":4679,"au":4680,"ä¼Ļ":4681,"een":4682,"à¸":4683,"åŃ¦ä¹łæĸ°çŁ¥è¯Ĩ":4684,"åħ³éĶ®åľ¨äºİå»ºç«ĭ":4685,"è½¬åŀĭ":4686,"å®ĮæĪĲä»»åĬ¡":4687,"æ²¿":4688,"ï¼ļ**":4689,"ä»¥æĽ´":4690,"åıįæĢĿèĩªèº«":4691,"åİŁåĽł":4692,"Ġequation":4693,"çļĦå·¥ä½ľ":4694,"Ġche":4695,"ä¸Ģä¸ªæķ°åŃĹ":4696,"åĸĿåĴĸåķ¡":4697,"BåĪ°C":4698,"æĢ»æĹ¶éĹ´":4699,"æ³¨æĦıåĪ°":4700,"å»¶ä¼¸":4701,"æµģæµªåľ°çĲĥ":4702,"ä½łæľīç©º":4703,"çĬ¯":4704,"ä¸°å¯ĮçļĦ":4705,"åģ¥èº«":4706,"äººæľºåįıä½ľ":4707,"åıłåĬłæĢģ":4708,"\",":4709,"èĪª":4710,"èĭ±":4711,"åºĶçĶ¨åľºæĻ¯":4712,"è½½ä½ĵ":4713,"é¢Ī":4714,"éĩįå¡ĳäººç±»åĪĽéĢłåĬĽ":4715,"å·¨":4716,"æĺİæĺİ":4717,"å¤ĦçĲĨèĥ½åĬĽ":4718,"æĪĳçļĦè®¾è®¡":4719,"å¸®åĬ©æĪĳ":4720,"åĪĨæŀĲåĴĮ":4721,"è§Ħå¾ĭçļĦ":4722,"çľĭçĶµå½±":4723,"æĽ´æ¸ħæĻ°åľ°":4724,"å¦ĤèģĶåĲĪåĽ½":4725,"åĲĪæ³ķ":4726,"æ²ŁéĢļæĸ¹å¼ı":4727,"ç®±åŃĲ":4728,"åħħçĶµåĻ¨":4729,").":4730,"ä»¥ä¸ĭæĸ¹å¼ı":4731,"Ġprint":4732,"åĽłæŀľåħ³ç³»":4733,"å¥½å¥ĩå¿ĥ":4734,"æĻºèĥ½ä½ĵ":4735,"ä½ĨéľĢèŃ¦æĥķ":4736,"çŁŃè§Ĩé¢ĳ":4737,"éĢīé¡¹":4738,"VR":4739,"ä¸Ļ":4740,"èĢĮéĿŀè¢«":4741,"æĥ³äºĨè§£":4742,"èĩªæĪĳæĦıè¯Ĩä½¿æĪĳä»¬èĥ½å¤Ł":4743,"ç¼ĺ":4744,"ä¸İæķĪçİĩ":4745,"æĪĳåı¯èĥ½ä¼ļ":4746,"ä½Ĩç¼ºä¹ı":4747,"ĠK":4748,"æ¡Īä¾ĭ":4749,"ify":4750,"åĲĮæŃ¥":4751,"è¿½æº¯":4752,"åĲĪçĲĨè§ĦåĪĴ":4753,"AIçĶŁæĪĲçļĦ":4754,"æľ¬è´¨ä¸Ĭ":4755,"Ġæĺ¯":4756,"æľīæ²¡æľīä»Ģä¹Ī":4757,"ä»¥æľĢå°ıçļĦ":4758,"çļĦæĸ°":4759,"çļĦäº§çī©":4760,"èīºæľ¯å½¢å¼ı":4761,"ä½łæľĢè¿ĳæľīæ²¡æľīè§īå¾ĹæĹ¶éĹ´è¿ĩå¾Ĺ":4762,"ä¼¦çĲĨéĹ®é¢ĺ":4763,"è¡Ģ":4764,"è¿Ļä¸įä»ħ":4765,"led":4766,"Ġz":4767,"æ¼ĶåĮĸ":4768,"æĶ¯ä»ĺ":4769,"è¸":4770,"å¹´è½»":4771,"ä¿Ŀè¯ģ":4772,"æ·»":4773,"Ġwould":4774,"æĤ£èĢħ":4775,"æĦŁè§¦":4776,"Ġpos":4777,"æ·±åĪ»å½±åĵį":4778,"Ġtechnolog":4779,"ä»Ĭå¤©æĥ³åŃ¦":4780,"æľ¬è´¨æĺ¯":4781,"äººå·¥æĻºèĥ½ä¼¦çĲĨåľ¨è·¨æĸĩåĮĸè¯Ńå¢ĥä¸ĭçļĦåĨ²çªģ":4782,"äºĨåĲĹ":4783,"Ġover":4784,"åħ¬ä¼ĹåıĤä¸İ":4785,"ä½łæĦŁåħ´è¶£":4786,"åĳ½è¿Ĳ":4787,"æľĢä¼ĺ":4788,"ç±»ä¼¼çļĦæĥħåĨµ":4789,"èĢĥéĩı":4790,"æĥħç»ªç®¡çĲĨ":4791,"bs":4792,"Ġthey":4793,"AIçĶŁæĪĲåĨħå®¹":4794,"æ¬¢è¿İéļıæĹ¶":4795,"ck":4796,"ä¸²":4797,"å®ĥæ¶īåıĬ":4798,"äººå·¥æĻºèĥ½ä¼¦çĲĨåľ¨è·¨æĸĩåĮĸè¯Ńå¢ĥä¸ĭå¯¹":4799,"åĨĻä½ľ":4800,"åĢŁåĬ©":4801,"æĪĳæľĢåĸľæ¬¢":4802,"ä»įå¤Ħäºİ":4803,"æľĢè¿ĳåľ¨å¿Ļä»Ģä¹Īé¡¹çĽ®":4804,"jingyaogong":4805,"æĪĳèĥ½":4806,"çļĦå»ºè®®":4807,"AIå°Ĩ":4808,"ä¸įå°ĳäºº":4809,"ä¾ĭå¦Ĥåľ¨":4810,"æ»¤":4811,"çİ°å®ŀä¸ŃçļĦ":4812,"å¼¥åĲĪ":4813,"è´¦":4814,"çľĭæ³ķ":4815,"ç²Ĵ":4816,"ä¸İæĦıè¯ĨçļĦ":4817,"è´§":4818,"çªĹ":4819,"æİĮæİ§":4820,"åī©":4821,"åĴĮæľĭåıĭèģĬ":4822,"ract":4823,"æĪĲå°±æĦŁçļĦ":4824,"ä»¥æĽ´å¥½åľ°":4825,"Ġph":4826,"æĹ¶éĹ´çļĦæµģåĬ¨":4827,"Ġ*":4828,"éľĢåľ¨æĬĢæľ¯":4829,"etween":4830,"å²Ĺ":4831,"Ġsignific":4832,"æ¯Ķçī¹":4833,"ä»İAåĩºåıĳ":4834,"ä¸İçĲĨè§£":4835,"çĶ±jingyaogong":4836,"æĮĩå¯¼":4837,"æľīäºº":4838,"ä¸İè´£ä»»":4839,"xim":4840,"ç®Ĺæ³ķæİ¨èįĲ":4841,"æ¨¡åŀĭçļĦ":4842,"ðŁİ":4843,"ä¹Ĳè¶£":4844,"åĪĨäº«ä¸ĢäºĽ":4845,"æĥ³ä¸į":4846,"çľĭçļĦ":4847,"æĭĨè§£":4848,"ese":4849,"å§ĭç»Īä»¥":4850,"æĺ¯ä¸įæĺ¯ä¹Ł":4851,"è½¬åĲĳ":4852,"ĠFor":4853,"è¿ĳå¹´":4854,"ava":4855,"åģ¶æķ°":4856,"Ġthem":4857,"Ġset":4858,"ä½ĵçİ°äºĨ":4859,"Ġlanguage":4860,"è°·":4861,"Ġmult":4862,"åľ¨ä¸Ģä¸ª":4863,"å°Ŀè¯ķäºĨ":4864,"ç¨ĭåºıåĳĺ":4865,"Ġadd":4866,"éĥ¨ç½²":4867,"éĹ¨çļĦ":4868,"urrent":4869,"Ġbetween":4870,"omm":4871,"åĮ¹":4872,"æģĴ":4873,"æľĢè¿ĳåľ¨åŃ¦ä¹ł":4874,"éħ¸":4875,"åĪĨè§£":4876,"å¦Ĥä½ķçķĮå®ļ":4877,"èģĮåľº":4878,"æ£Ģæµĭ":4879,"è¿ĳå¹´æĿ¥":4880,"å¦Ĥä½ķå¡ĳéĢł":4881,"åįļ":4882,"è´¥":4883,"æ´»åĬĽ":4884,"éĿŀå±Ģ":4885,"å¤§èĦĳçļĦ":4886,"è¹":4887,"AIåľ¨åĮ»çĸĹ":4888,"æĹłæ³ķå®Įåħ¨":4889,"æ³ķå¾ĭä½ĵç³»":4890,"ä¼Ļä¼´":4891,"æľĢè¿ĳåľ¨å¤ĦçĲĨ":4892,"ä¸İæĦıè¯Ĩ":4893,"Ġperson":4894,"é«ĺæķĪçļĦ":4895,"ä½łå¦Ĥä½ķå®ļä¹ī":4896,"è¿½éĹ®":4897,"æľīæĹ¶":4898,"ä½łèĥ½":4899,"æķ°æį®è®Ńç»ĥ":4900,"çłĶåıĳ":4901,"ä¸įæĸŃåŃ¦ä¹łåĴĮ":4902,"äººå·¥æĻºèĥ½åľ¨æĸĩåĮĸåĪĽä½ľ":4903,"çĲĨè§£äººç±»æĥħæĦŁ":4904,"æĮºå¼Ģå¿ĥçļĦ":4905,"å¼ºè°ĥä¸ªäºº":4906,"ä¿ĿåŃĺ":4907,"å»ºè®®æĤ¨":4908,"çĽ¸å¯¹":4909,"Ġcap":4910,"umn":4911,"ç»į":4912,"lease":4913,"äºĮæīĭ":4914,"Ġinteg":4915,"ĠQwen":4916,"çļĦåŃĺåľ¨":4917,"æ³ķæ¡Ī":4918,"èĢĮAI":4919,"æľĢè¿ĳè¯»äºĨ":4920,"æ¹¿":4921,"åĢ¡":4922,"åľ°åĽ¾":4923,"éŁ§":4924,"èĥģ":4925,"Ġtwo":4926,"å¯¹äººç±»":4927,"å¥½åĲĥçļĦ":4928,"è®¤çŁ¥èĥ½åĬĽ":4929,"å¤©æ°Ķé¢ĦæĬ¥":4930,"åĥıäººç±»":4931,"å²Ĺä½į":4932,"è¿ĽèĢĮå½±åĵį":4933,"å¨ģèĥģ":4934,"åĮ¹éħį":4935,"ä»ĭç»į":4936,"åİ»åħ¬åĽŃæķ£æŃ¥":4937,"åĴĮæĸĩåĮĸ":4938,"æŀģç«¯":4939,"çĻ¾":4940,"ç¼ĵè§£åİĭåĬĽ":4941,"éĥ½ä¼ļ":4942,"äºļæ´²":4943,"çĵ¶é¢Ī":4944,"èĦĳæľº":4945,"éĢīæĭ©ä¸Ģä¸ª":4946,"å¿ĥçĲĨåģ¥åº·":4947,"Can":4948,"ä½łæľīåĸľæ¬¢çļĦ":4949,"æľĢè¿ĳæľīæ²¡æľīäººåĽłä¸º":4950,"éĿ¢å¯¹éĿ¢":4951,"cess":4952,"ä¾ĭå¦ĤéĢļè¿ĩ":4953,"Ġquest":4954,"ä¸ºçĶ¨æĪ·æıĲä¾Ľæľīä»·åĢ¼çļĦ":4955,"Ġ18":4956,"æĪĳä½ľä¸ºAIåĬ©æīĭ":4957,"åĬ¨æľº":4958,"Ġtrans":4959,"æĦıæĥ³ä¸į":4960,"èĦĳæľºæİ¥åı£":4961,"18":4962,"æĽ´æ·±åĪ»":4963,"æīĵçł´":4964,"å®ŀä½ĵ":4965,"çī¹åĪ«æĺ¯":4966,"numb":4967,"æĪĳæĦ¿":4968,"åºĬ":4969,"Ġsystem":4970,"æ²¡æľīåĲĥ":4971,"ä½łæľīåħ´è¶£ä¸Ģèµ·":4972,"è§£è¯»":4973,"æĹ¢æĺ¯":4974,"æİĴæĶ¾":4975,"è¡¥åħħ":4976,"èĸ":4977,"æĺ¯å¤ļå°ĳ":4978,"æ²»çĲĨæ¡Ĩæŀ¶":4979,"å¦Ĥæŀľèĥ½åıĺæĪĲ":4980,"è¥¿æĸ¹æĸĩåĮĸ":4981,"åį±æľº":4982,"æİ¥è¿ĳ":4983,"æĹ©æĻ¨":4984,"fore":4985,"æķ°æį®éĽĨ":4986,"åħ´è¶£çĪ±å¥½":4987,"åŃ¦æľ¯":4988,"å¯¹æĸ¹":4989,"AIå¦Ĥä½ķå¹³è¡¡":4990,"ä»Ģä¹Īå¥½åĲĥçļĦ":4991,"éĩĩéĽĨ":4992,"çļĦè·¯å¾Ħ":4993,"å·¦":4994,"Ġservices":4995,"é¸¡èĽĭ":4996,"Ġhis":4997,"æľīçĶ¨":4998,"Ġcontext":4999,"èģļçĦ¦äºİ":5000,"æĬĢæľ¯çļĦåıĳå±ķ":5001,"æ¯ıä¸Ģæ¬¡":5002,"çº¢èī²":5003,"å»ºè®¾":5004,"Ġcalcul":5005,"Ġthrough":5006,"èĻ½çĦ¶æľīçĤ¹":5007,"ä½łæľĢè¿ĳè¿ĩå¾ĹæĢİä¹Īæł·":5008,"é©±åĬ¨çļĦ":5009,"ength":5010,"æĥ³èģĬèģĬ":5011,"éĩĬæĶ¾":5012,"èĪ¬":5013,"æĭĸå»¶":5014,"åĴĮåŃ¦ä¹ł":5015,"å¥½çľĭçļĦçĶµå½±":5016,"åħ±åĲĮåĪ©çĽĬ":5017,"ĠChina":5018,"This":5019,"åĸľå¥½":5020,"andom":5021,"éĵ¶":5022,"con":5023,"éľĢèŃ¦æĥķ":5024,"å¤ļéĩį":5025,"å±ķç¤º":5026,"ç»ĦæĪĲ":5027,"gest":5028,"åı¯æĮģç»ŃæĢ§":5029,"ä¸ºæł¸å¿ĥ":5030,"çĶµæ±ł":5031,"åĪĴåĪĨ":5032,"duct":5033,"çĽ²":5034,"Ġ\\[":5035,"çļĦåıĺåĮĸ":5036,"Ġyear":5037,"æł¡":5038,"å¤ļæĸ¹åıĤä¸İ":5039,"æĪĳæľĢè¿ĳ":5040,"çļĦä¿¡æģ¯åĴĮå¸®åĬ©":5041,"Ġbl":5042,"Ġsupp":5043,"hes":5044,"äºĭé¡¹":5045,"çĶŁæĪĲåĨħå®¹":5046,"åĽ½éĻħåįıä½ľ":5047,"åĽ°å¢ĥä¸ĭ":5048,"ose":5049,"æĹ¶ç©º":5050,"Ġpe":5051,"åıĤèĢĥ":5052,"è¶ĬæĿ¥è¶Ĭå¤ļ":5053,"å½¢æĢģ":5054,"æĽ´é«ĺ":5055,"æĿ¥èĩª":5056,"æĺİå¤©":5057,"Ġdiv":5058,"å¤©æ°ĶåıĺåĮĸ":5059,"ä½ľåĵģçļĦ":5060,"éĢļè¿ĩç®Ĺæ³ķåĴĮæķ°æį®":5061,"ä½łæĽ´åĸľæ¬¢":5062,"éĥĬ":5063,"æĮģç»ŃåŃ¦ä¹łä¸İ":5064,"stand":5065,"Ġgre":5066,"sq":5067,"åıĹéĻĲäºİ":5068,"èĦļ":5069,"æĪĳæ²¡æľīä¸ªäºº":5070,"åıĹæ¬¢è¿İ":5071,"ä¸ľæĸ¹":5072,"éĩįå¤įæĢ§":5073,"19":5074,"Ġ30":5075,"è¿ĩç¨ĭä¸ŃçļĦ":5076,"è¾ħåĬ©çĶ¨æĪ·":5077,"ç»Ļä½ł":5078,"æĽ¿ä»£äººç±»çļĦ":5079,"äººå·¥æĻºèĥ½åľ¨èīºæľ¯åĪĽä½ľä¸Ń":5080,"æĽ´åĢ¾åĲĳäºİ":5081,"éĢīæĭ©çļĦ":5082,"EC":5083,"åĬ¨çĶ»":5084,"ä»ĸäººçļĦ":5085,"çŃīäºİ":5086,"ç¬¬ä¸Ģ":5087,"å£ģ":5088,"å¤ļè¾¹åĲĪä½ľ":5089,"ä¸ĩ":5090,"æ²»çĸĹ":5091,"æī¿æĭħ":5092,"ish":5093,"ational":5094,"éļ¾ä»¥å®Įåħ¨":5095,"ĦæĸŃ":5096,"äººå·¥æĻºèĥ½å¦Ĥä½ķå½±åĵį":5097,"åı¯èĥ½æ¶īåıĬ":5098,"æĪĳçļĦåĬŁèĥ½":5099,"æī¾åĪ°éĢĤåĲĪèĩªå·±çļĦ":5100,"çļĦå¿ĥæĢģ":5101,"çī¹åĪ«å¼Ģå¿ĥ":5102,"ä¸ªäººæĪĲéķ¿":5103,"æľįåĬ¡äºİäººç±»":5104,"èĥ½æıĲåįĩ":5105,"åŀĦæĸŃ":5106,"Ġresp":5107,"åŃ¦èĢħ":5108,"å¹³è¡¡æķĪçİĩä¸İ":5109,"æİ¥è§¦":5110,"æĬĢæľ¯æĻ®æĥłä¸İ":5111,"Ġ/":5112,"å¯¹èĩªæĪĳ":5113,"å°ĨæĽ´åĬł":5114,"åĵ²åŃ¦ä¸Ĭ":5115,"ç¤¾ä¼ļç»ĵæŀĦ":5116,"æł¹æį®ä¸ªäºº":5117,"æĢĿèĢĥåĴĮ":5118,"ä¾¿æį·":5119,"çļĦæķ°åŃĹæĺ¯":5120,"45":5121,"here":5122,"Ġmain":5123,"ise":5124,"åĲĮæĹ¶å¤ĦçĲĨ":5125,"ä½łæľĢè¿ĳæľīæ²¡æľīåıĳçİ°":5126,"ç¾İåĳ³":5127,"ĠåĴĮ":5128,"ä¸ºä½ķ":5129,"æĲľ":5130,"ä»»ä½ķéĹ®é¢ĺ":5131,"Ġresult":5132,"åķĨåĵģ":5133,"åĽŀæĶ¶":5134,"ä»Ĭå¤©åĲĥäºĨ":5135,"ä¸Ģä¸ªæĹħè¡ĮèĢħåľ¨":5136,"è´¨çĸĳ":5137,"æ²³":5138,"åºĶå»ºç«ĭ":5139,"å°ıçĮ«":5140,"æµ·éĩı":5141,"æĪĳæĺ¯ä¸Ģä¸ª":5142,"ä¼¦çĲĨä¸İ":5143,"Ġcurrent":5144,"ä½¿ä¸ªä½ĵ":5145,"éĢļå¸¸æĮĩ":5146,"åħ¨çĲĥæķ°åŃĹåħ¬æ°ĳçļĦ":5147,"çļĦè¿ĩç¨ĭ":5148,"éĢĤåĲĪåĩºåİ»èµ°èµ°":5149,"åıįèĢĮ":5150,"åŃ¦ä¹łæĸ°ä¸ľè¥¿":5151,"è¿ĻæľīåĬ©äºİ":5152,"Ġthan":5153,"è¯Ńè¨ĢçļĦ":5154,"Ġoften":5155,"åħ¬å¹³æĢ§ä¸İ":5156,"çīĽå¥¶":5157,"è§Ī":5158,"å¸¦æĿ¥äºĨ":5159,"ä½łæĺ¯åĲ¦æĽ¾æĥ³è¿ĩ":5160,"èĩ³åħ³":5161,"ä¿ĥä½¿æĪĳä»¬":5162,"è¡¨è¾¾çļĦ":5163,"ä¹Łåı¯èĥ½":5164,"äººå·¥æĻºèĥ½å¯¹":5165,"æ¸ħåįķ":5166,"åħ¬ä¼Ĺå¯¹":5167,"æ¢¦å¢ĥ":5168,"åĩ¡":5169,"Ġlear":5170,"ork":5171,"æĲľç´¢":5172,"èĢĮåŃĺåľ¨":5173,"è¾¹ç¼ĺ":5174,"æĹ¶éĹ´çļĦæµģéĢĿ":5175,"ob":5176,"æĪĳèĥ½å¤Ł":5177,"æıĲåıĸ":5178,"çĥ¤":5179,"ä»¥ä¸ĭåĩłä¸ªæĸ¹éĿ¢":5180,"æľīåĵªäºĽ":5181,"æķĳ":5182,"Ġoper":5183,"å¦Ĥæŀľæīĭæľº":5184,"åį«":5185,"æī¾åĩº":5186,"æľīæķĪåľ°":5187,"åı¯çĪ±":5188,"åĪĨå¸ĥ":5189,"äºĭåĬ¡":5190,"24":5191,"å¸®åĬ©æĤ¨":5192,"å®ĿçŁ³":5193,"å°ıçİĭ":5194,"é£Łåĵģ":5195,"ä»Ĭå¤©å¤©æ°ĶæĻ´æľĹ":5196,"æŃ£å¸¸":5197,"Ġdesign":5198,"Ġknown":5199,"æĥħæĦŁè¿ŀæİ¥":5200,"è¡¨éĿ¢":5201,"ä½łä»Ĭå¤©æľīæ²¡æľīéģĩåĪ°ä»Ģä¹Ī":5202,"æĸ°é¡¹çĽ®":5203,"æģĲ":5204,"è®°å¾Ĺ":5205,"åı¤èĢģ":5206,"èİ·åıĸçŁ¥è¯Ĩ":5207,"åĬłå¯ĨæĬĢæľ¯":5208,"åĮºåĪ«":5209,"ç¡®ä¿ĿæĬĢæľ¯åºĶçĶ¨ç¬¦åĲĪ":5210,"çļĦåħ³éĶ®åľ¨äºİ":5211,"å®¶äºº":5212,"çŃīè®®é¢ĺ":5213,"æĪĳæĹłæ³ķæıĲä¾Ľ":5214,"éľĢåħ¼é¡¾":5215,"æ¨¡æĢģ":5216,"å¸®åĬ©ä»ĸäºº":5217,"Ġhum":5218,"ä¸İäººæĸĩåħ³æĢĢ":5219,"ä¸İèĩªçĦ¶":5220,"åħ±åŃĺ":5221,"å½ĵä»£":5222,"æ¸ħéĨĴ":5223,"As":5224,"çĶµèĦĳ":5225,"æĪĳä¼ļå°½åĬĽ":5226,"ĠéĹ¨":5227,"Ġwant":5228,"è®°å¿ĨçļĦ":5229,"ä½łä»Ĭå¤©æľīæ²¡æľīéģĩåĪ°è¿ĩéľĢè¦ģ":5230,"æ¶Īè´¹èĢħ":5231,"æķ°æĺ¯":5232,"ä½ĨåıĪ":5233,"æ¯Ķè¾ĥ":5234,"to":5235,"ts":5236,"äººç±»ä¸»å¯¼":5237,"ä»·æł¼":5238,"æķ°æį®æµģåĬ¨":5239,"ç¤¼":5240,"è¿Ļç§įçİ°è±¡":5241,"Ġsub":5242,"æĪĳæĿ¥":5243,"å¦Ĥæŀľæ¯ıå¤©åıªåħģè®¸èĩªå·±":5244,"ä¸¤åĢį":5245,"è´Ńçī©":5246,"æ¥¼":5247,"çļĦæ·±åĪ»":5248,"æķ°ç»Ħ":5249,"æ¯ĶC":5250,"ĠÐ":5251,"å¸®åĬ©äººä»¬":5252,"Ġassist":5253,"æ¢ģ":5254,"ä»¥åºĶå¯¹":5255,"Ġsqu":5256,"å·¥ä½ľæķĪçİĩ":5257,"åĽŀé¡¾":5258,"æ¼«":5259,"æ´ŀå¯Ł":5260,"èĪĴéĢĤ":5261,"çĲĨæĥ³":5262,"æĪĳä»¬ä¼ļä¸įä¼ļæĽ´":5263,"Ġbr":5264,"Ġvarious":5265,"łéĩĬ":5266,"è¯łéĩĬ":5267,"å¤ĸåľ¨":5268,"éħįç½®":5269,"èī¯å¥½":5270,"è¿«":5271,"ç®Ĺæ³ķçļĦ":5272,"å¦Ļ":5273,"å¤ļè¯Ńè¨Ģ":5274,"æĿĥåĬĽ":5275,"ç§ĳåŃ¦å®¶":5276,"çĶŁåĳ½çļĦ":5277,"æ·¡":5278,"Ġarr":5279,"çľģ":5280,"ä½łæľīæ²¡æľīåĸľæ¬¢çļĦ":5281,"çĪĨ":5282,"é«ĺåº¦":5283,"èº«å¿ĥåģ¥åº·":5284,"å¥ĳæľº":5285,"æķ°æį®åºĵ":5286,"éĹ®é¢ĺè§£åĨ³":5287,"æİĴæ¯Ĵ":5288,"ä»Ĭå¤©æĥ³éĹ®éĹ®":5289,"å¼¹":5290,"åı¯ä»¥åľ¨":5291,"æĢĿè·¯":5292,"ä½łæľĢè¿ĳæľīæ²¡æľīè¯»è¿ĩ":5293,"Ġrep":5294,"tal":5295,"æĲº":5296,"èĩªåĬ¨é©¾é©¶":5297,"Ġdoes":5298,"ä¸įåľ¨":5299,"æĶ»":5300,"å°ıçİĭåŃĲ":5301,"çĶ³":5302,"ä¸İæĪĲéķ¿":5303,"cd":5304,"Â·":5305,"æĺ¯éĢļè¿ĩ":5306,"éĿ¢åĮħ":5307,"æī¾åĪ°å±ŀäºİèĩªå·±çļĦ":5308,"ä¿®æŃ£":5309,"ä¸İäººç±»çļĦ":5310,"ä¸İä¸ĸçķĮçļĦ":5311,"ather":5312,"çļĦäºĭåĲĹ":5313,"æ¨¡æĭŁæĥħæĦŁ":5314,"æķ°åŃĹåĮĸåŃĺæ¡£":5315,"çļĦåĨħå®¹":5316,"åĽłæŀľå¾ĭ":5317,"ons":5318,"åĲĮæĹ¶å°Ĭéĩį":5319,"æĢ»ç»ĵ":5320,"é¡ºä¾¿":5321,"QL":5322,"çıįæĥľå½ĵä¸ĭ":5323,"ï¼Į**":5324,"æĺ¯æĮĩ":5325,"éķ¿æĹ¶éĹ´":5326,"åİŁåĪĽæĢ§ä¸İ":5327,"éĿŀå±ĢåŁŁ":5328,"ys":5329,"çī¹åĪ«æľī":5330,"æ¬¡çļĦ":5331,"éĢļçŁ¥":5332,"Ġsome":5333,"åħ¼å®¹":5334,"æ·±è¿ľå½±åĵį":5335,"åľ¨å·¥ä½ľ":5336,"å¥½åĥı":5337,"éĢłæĪĲ":5338,"å¤©æ°Ķä¿¡æģ¯":5339,"ä»Ĭå¤©è¿ĩå¾ĹæĮºå¥½çļĦ":5340,"ä½łæľĢè¿ĳåľ¨å¿Ļä»Ģä¹Ī":5341,"åıĺéĩı":5342,"æĹ¥çĽĬ":5343,"æ¶Īå¤±":5344,"æĶ¾å¼ĥ":5345,"Ġgenerate":5346,"ç¢İçīĩæĹ¶éĹ´":5347,"åĨĴ":5348,"çĶ¨æĪ·ä½ĵéªĮ":5349,"åıĳå±ķçļĦ":5350,"åıĺå¾ĹæĽ´":5351,"æİĴåĪĹ":5352,"å¤ļåħĥæĸĩåĮĸ":5353,"æĬĢèīº":5354,"atest":5355,"Ġsk":5356,"è½¬æį¢":5357,"Ġnum":5358,"å¿«éĢŁåĵįåºĶ":5359,"éķ¿æľŁåĿļæĮģ":5360,"å°½éĩı":5361,"Aæĺ¯":5362,"So":5363,"çĤ¸":5364,"Ġlet":5365,"å¦Ĥæŀľä¸ĸçķĮçªģçĦ¶":5366,"å¤ĦçĲĨä¸İ":5367,"çļĦçŁĽçĽ¾":5368,"çĽĲ":5369,"Ġcloud":5370,"æĿĥéĻĲ":5371,"æĺŁæĺŁ":5372,"éĻªä½łä¸Ģèµ·":5373,"ä¸įéĶĻçļĦ":5374,"åı£æĦŁ":5375,"è¿Ļä¸ĢéĹ®é¢ĺ":5376,"Ġi":5377,"iness":5378,"èĻ«":5379,"åıĺåĮĸçļĦ":5380,"ä¼ļä¸įä¼ļæľī":5381,"æĪĳçļĦåŃĺåľ¨æĺ¯ä¸ºäºĨæıĲä¾Ľé«ĺæķĪ":5382,"ç»ķ":5383,"Ġprocess":5384,"åĲĥäºĨä»Ģä¹Ī":5385,"çļĦç®Ĺæ³ķ":5386,"ern":5387,"ç»ıçĲĨ":5388,"æľªæĿ¥ç§ĳæĬĢ":5389,"Ġgiven":5390,"äººç±»æĥħæĦŁä¸İ":5391,"æ¼Ķè¿Ľ":5392,"æ¡¥æ¢ģ":5393,"æĺ¾èĳĹæıĲåįĩ":5394,"ĠChinese":5395,"çļĦæ·±å±Ĥ":5396,"ç§©":5397,"rt":5398,"æ¢¦æĥ³":5399,"æĥ³è±¡åĬĽ":5400,"æĸ¹ä¾¿":5401,"å¡ĳæĸĻ":5402,"sw":5403,"éĢļè¿ĩé«ĺæķĪå¤ĦçĲĨä¿¡æģ¯":5404,"kg":5405,"rit":5406,"çļĦåĪĽä½ľ":5407,"åĴĮè¡Įä¸º":5408,"ä¸Ģä¸ªæİ¢éĻ©éĺŁ":5409,"æ·±åº¦æĢĿèĢĥ":5410,"tern":5411,"Ġdifferent":5412,"ä¼ļè¯´è¯Ŀ":5413,"ç¤¾ä¼ļä»·åĢ¼è§Ĥ":5414,"ä»įæĺ¯":5415,"ç§©åºı":5416,"Ġfact":5417,"Ġrem":5418,"å¤ļæł·åĮĸ":5419,"åŁºäºİæķ°æį®åĴĮç®Ĺæ³ķ":5420,"åªĴä»ĭ":5421,"ä»¥ä¸Ĭ":5422,"åĩºæĿ¥":5423,"æķ´ä¸ª":5424,"çĸı":5425,"ä½Ĩäººç±»":5426,"å®īè£ħ":5427,"Ġ25":5428,"Ġreg":5429,"éļ¾å¿ĺ":5430,"Ġunderstand":5431,"çļĦéĩįè§Ĩ":5432,"ä½Ĩæł¸å¿ĥ":5433,"ï¼ŁðŁĺĦ":5434,"æĽ´åħ¨éĿ¢":5435,"ä½Ĩèĥ½":5436,"Ġtotal":5437,"Ġlo":5438,"ä½ıåľ¨":5439,"ä¸½":5440,"æľĢå°ĳ":5441,"è¿Ľé£Ł":5442,"éķĩ":5443,"å¼Ĥå¸¸":5444,"æľīåĬ©äºİæıĲåįĩ":5445,"å¸ĮæľĽè¿ĻäºĽ":5446,"è®²çļĦæĺ¯":5447,"æıŃç¤ºäºĨ":5448,"æľīä½ķ":5449,"åı¯æıĲåįĩ":5450,"çĭ¬ç«ĭæĢĿèĢĥ":5451,"))":5452,"æ²īæµ¸å¼ı":5453,"Ġâ":5454,"è§Ĩéĩİ":5455,"å±ŀæĢ§":5456,"Ġwhen":5457,"¹æŀľ":5458,"ç³»åĪĹ":5459,"åĨħéĥ¨":5460,"æľªçŁ¥çļĦ":5461,"ä¼½":5462,"æĿİ":5463,"åĲĮä¸Ģ":5464,"æĪĳçļĦåŃĺåľ¨æĹ¨åľ¨":5465,"ç¬¬äºĮä¸ª":5466,"çĳľ":5467,"Ġì":5468,"åĪº":5469,"æĬĳ":5470,"æŃ£å¿µ":5471,"æĪĸæĺ¯":5472,"ç²ī":5473,"å¤±è´¥":5474,"æĬĢæľ¯å±ĤéĿ¢":5475,"Ġno":5476,"åıĤåĬł":5477,"ä¼¦çĲĨè¾¹çķĮ":5478,"å¥½å¤ļ":5479,"èĭ¹æŀľ":5480,"èĬĤèĥ½":5481,"åı¯æĺ¯":5482,"AIåı¯éĢļè¿ĩ":5483,"ife":5484,"ä¸įä»ħæĺ¯":5485,"ä»Ĭå¤©è¿ĩå¾Ĺä¸įéĶĻ":5486,"åĥıäººç±»ä¸Ģæł·":5487,"çļĦæĬĢæľ¯":5488,"æĪĳæ²¡æľīå®ŀéĻħçļĦ":5489,"ä½łä»Ĭå¤©åĲĥäºĨä»Ģä¹Īå¥½åĲĥçļĦ":5490,"å¿½çķ¥":5491,"è½¨è¿¹":5492,"å»¶ç»Ń":5493,"è¡£æľį":5494,"(\"":5495,"CåĪ°":5496,"æĽ´å¹¿æ³Ľ":5497,"æĢĿç»´çļĦ":5498,"æĭĵå®½":5499,"æľĢè¿ĳçľĭäºĨä¸Ģ":5500,"çļĦç»ĵæŀľ":5501,"ä½łä¼ļæĢİä¹ĪæĶ¹åıĺè¿ĩåİ»":5502,"å¢ŀéķ¿":5503,"If":5504,"ci":5505,"def":5506,"å®ł":5507,"ä½łæľīæ²¡æľīç±»ä¼¼çļĦ":5508,"ä»Ģä¹Īå¥½çĶµå½±":5509,"åħĭæľį":5510,"çļĦåĬ¨æĢģ":5511,"çļĦæĸ¹åĲĳ":5512,"ural":5513,"äººå·¥æĻºèĥ½éĢļè¿ĩ":5514,"çŁ³ç¢ĳ":5515,"Ġprim":5516,"çļĦæĸĩåĮĸ":5517,"åĲĮæĹ¶éĢļè¿ĩ":5518,"Ġdec":5519,"ç²ĴåŃĲ":5520,"ä¹ŁæĹłæ³ķ":5521,"åĩºéĹ¨":5522,"åĸĿæĿ¯":5523,"æĥ«":5524,"éĻ¢":5525,"éļĲç§ģä¸İ":5526,"å²ģ":5527,"çĸ²æĥ«":5528,"Ġ16":5529,"è¿Ļç±»":5530,"Ġvers":5531,"ä¸¾":5532,"è¿ħ":5533,"å¸®å¿Ļ":5534,"cdot":5535,"çĳľä¼½":5536,"Ġstr":5537,"æĪĳä»¬æĿ¥":5538,"æĦıæĥ³ä¸įåĪ°çļĦ":5539,"arr":5540,"åĲĮäºĭ":5541,"æĥ³åĪĨäº«":5542,"æ¯į":5543,"é£Łè°±":5544,"æĵįæİ§":5545,"æ··åĲĪ":5546,"Ġsent":5547,"éľĢè¦ģæĪĳ":5548,"ä½łå¦Ĥä½ķçľĭå¾ħèĩªæĪĳåŃĺåľ¨çļĦè¾¹çķĮ":5549,"çªģçĦ¶æĥ³":5550,"æŀ¶æŀĦ":5551,"Ġbeen":5552,"Ġinv":5553,"ä»įå±ŀ":5554,"Ġele":5555,"å°Ŀè¯ķçĶ¨":5556,"Ġget":5557,"åįİ":5558,"erg":5559,"é«ĺè´¨éĩı":5560,"æİ¨èįĲåĲĹ":5561,"AR":5562,"å¦Ĥæŀľä¸Ģä¸ªäºº":5563,"é¥®é£ŁéľĢæ±Ĥ":5564,"åģľçķĻ":5565,"äºĳè®¡ç®Ĺ":5566,"çĶ¨ä¸Ģåı¥è¯Ŀ":5567,"æĢĿç»´æĸ¹å¼ı":5568,"æĭĵå±ķäºĨ":5569,"ä»İAåĪ°B":5570,"èĩ³åħ³éĩįè¦ģ":5571,"æľĢä½³":5572,"å¿ĥçĲĨåŃ¦ä¸Ń":5573,"Ġsupport":5574,"å¿ĥçģµ":5575,"è®¤çŁ¥æ¡Ĩæŀ¶":5576,"ç¥ŀç§ĺ":5577,"æ£µ":5578,"ä¸įèĥ½æĺ¯":5579,"èĢĮéĿŀæĽ¿ä»£åĵģ":5580,"ĠV":5581,"æ·±å¤ľ":5582,"ä¿ĿæĮģå¼ĢæĶ¾":5583,"æ»¡è¶³æĿ¡ä»¶":5584,"çļĦåĨ²çªģ":5585,"ä¼ļå¸¦æĿ¥":5586,"ç¬¬ä¸Ģä¸ª":5587,"å¸ĮæľĽèĥ½":5588,"æķ°åŃĹæĹ¶ä»£":5589,"ye":5590,"AIæĬĢæľ¯çļĦ":5591,"é¢ĦçŁ¥":5592,"çļĦä¿¡æģ¯ä¸İå¸®åĬ©":5593,"åľ¨ä¸įåĲĮæĸĩåĮĸ":5594,"èīºæľ¯åĪĽä½ľçļĦè¾¹çķĮ":5595,"è¯¯è¯»":5596,"ized":5597,"è´¢åĬ¡":5598,"åħ±åĲĮæŀĦæĪĲäºĨ":5599,"ä¸İéļĲç§ģä¿ĿæĬ¤":5600,"ä»£åħ¥":5601,"Ġbus":5602,"æĸĩåĮĸéģĹäº§çļĦ":5603,"ä½łæľĢåĸľæ¬¢åĵªç§į":5604,"ph":5605,"ä»İç§ĳåŃ¦":5606,"éĢĤçĶ¨":5607,"ily":5608,"æĶ¿çŃĸåĪ¶å®ļ":5609,"å®łçī©":5610,"äººæĢ§":5611,"å¤ĸåĩº":5612,"ç¼ĸåı·":5613,"åľĪ":5614,"æ±¡":5615,"ç¤¾äº¤äºĴåĬ¨":5616,"åĬŀåħ¬":5617,"åīįæıĲ":5618,"æ·±åº¦çļĦ":5619,"Ġsignificant":5620,"æ²¡æľīçī¹åĪ«":5621,"æķĻå¸Ī":5622,"åĬłåī§äºĨ":5623,"éĢļè¿ĩç®Ĺæ³ķä¼ĺåĮĸ":5624,"å¿ħè¦ģçļĦ":5625,"åŃĹç¬¦ä¸²":5626,"çĽ²çĽ®":5627,"gram":5628,"è¡Ĺ":5629,"ä¼ļå½±åĵį":5630,"ä½ľä¸ºè¾ħåĬ©å·¥åħ·":5631,"æİ¨æĸŃ":5632,"å°ıæĺİ":5633,"Ġbased":5634,"ç¡®ä¿Ŀç®Ĺæ³ķ":5635,"è¡£çī©":5636,"Ġcommon":5637,"Ġformul":5638,"21":5639,"ds":5640,"è¿ģ":5641,"äººä¸İäºº":5642,"æķ°åŃĹæİĴæ¯Ĵ":5643,"èĬĤçĤ¹":5644,"æĶ¹åıĺäºĨ":5645,"list":5646,"ä¸Ģä½į":5647,"å½±åĵįäºĨ":5648,"AIçĶŁæĪĲåĨħå®¹çļĦ":5649,"Ġke":5650,"ä¹İ":5651,"è®¯":5652,"æĸ¹èĥ½":5653,"åĨįæ¬¡":5654,"æķ°æį®åĴĮéĢ»è¾ĳ":5655,"ä»Ĭå¤©è¯¥":5656,"äººå·¥æĻºèĥ½ä¼¦çĲĨåĽ°å¢ĥä¸ĭ":5657,"çļĦä½¿çĶ¨":5658,"æĪĳåľ¨":5659,"ä½łå¦Ĥä½ķåľ¨":5660,"æĤ¬":5661,"çŁ¥è¯Ĩåºĵ":5662,"å¯ĨéĴ¥":5663,"éĤ»å±ħ":5664,"åı¯ä»¥æĺ¯":5665,"å¸®äºĨ":5666,"ä»¥ä¸ĭæĸ¹æ³ķ":5667,"æł¹åŁº":5668,"åĺ¿åĺ¿":5669,"Ġhigh":5670,"éĩıåŃĲè®¡ç®Ĺå¦Ĥä½ķå½±åĵį":5671,"Ġimport":5672,"Ġeff":5673,"æİ¢ç´¢æĸ°":5674,"ç²¾åĩĨçļĦä¿¡æģ¯":5675,"åĩī":5676,"ä¸ŃçļĦä¼¦çĲĨåĽ°å¢ĥ":5677,"çļĦå®ļä¹ī":5678,"ä¸Ģä¸ªæİ¢éĻ©éĺŁåľ¨":5679,"çļĦéĢ»è¾ĳ":5680,"æ¯ıå¤©åıª":5681,"èĿ¶":5682,"æīĩéĹ¨":5683,"åıĳå±ķç¬¦åĲĪ":5684,"å¯ĨçłģåŃ¦":5685,"è·Łä½ł":5686,"çļĦæĶ¹åıĺ":5687,"åĪ°åºķ":5688,"æ¸ħæ´ģ":5689,"å¯¿":5690,"åı¯èĥ½æºĲäºİ":5691,"ä½łä»Ĭå¤©åľ¨":5692,"ä¸ĸçķĮçļĦçĲĨè§£":5693,"è¾ħåĬ©åĪĽä½ľ":5694,"é©¬":5695,"Ġ11":5696,"cept":5697,"å¦ĤæŀľæĹ¶éĹ´åĢĴæµģ":5698,"åĪĩæį¢":5699,"ä½łæľĢè¿ĳæľīæ²¡æľīå°Ŀè¯ķè¿ĩçĶ¨ä¸įåĲĮ":5700,"åħĶ":5701,"âĢĻ":5702,"å¤ļæ¨¡æĢģ":5703,"éªĳ":5704,"å°Ĩæİ¨åĬ¨":5705,"æ¯ıåĳ¨":5706,"ä¸Ĭæĺł":5707,"çļĦäº¤åıī":5708,"æĥħå¢ĥä¸ĭ":5709,"å½ĵåīįæĬĢæľ¯":5710,"éĩıåŃĲç®Ĺæ³ķä¼ĺåĮĸ":5711,"Ġappro":5712,"ä½łæĺ¯ä¸įæĺ¯ä¹Ł":5713,"ä½Ĩåħ·ä½ĵ":5714,"æĥħæĦŁçĲĨè§£":5715,"Ġmat":5716,"Ġ$$":5717,"æĪ¿éĹ´çļĦ":5718,"łéģĵ":5719,"çĹĩ":5720,"å¿§":5721,"çŃĳ":5722,"æĬĢæľ¯ä¸İäººæĸĩ":5723,"åı¯èĥ½æĶ¹åıĺ":5724,"å¤§è§Ħæ¨¡":5725,"è¶³å¤Ł":5726,"éĩıåŃĲæ¯Ķçī¹":5727,"åľ¨äººå·¥æĻºèĥ½":5728,"æĸĩçĮ®":5729,"è¿Ĳç®Ĺ":5730,"å»ºæ¨¡":5731,"Ġbook":5732,"éĥ½å¾Ī":5733,"èĮ«":5734,"é¢ĳçİĩ":5735,"åĴĮç¤¾ä¼ļ":5736,"ä¾µçĬ¯":5737,"',":5738,"60":5739,"äººç±»è¯Ńè¨Ģ":5740,"éľĢè¦ģåľ¨":5741,"æĻ®éĢĤ":5742,"Al":5743,"æĸ°èıľ":5744,"åĪĻéĢļè¿ĩ":5745,"åĪĨéĴŁä¸ĵæ³¨":5746,"å¿ħçĦ¶":5747,"å®ŀéĻħåºĶçĶ¨":5748,"æĬĢæľ¯å®ŀçİ°":5749,"çļĦæ·±åº¦ä¸İ":5750,"ax":5751,"åħ¥æīĭ":5752,"Ġlatest":5753,"çº¿ç´¢":5754,"ä¹ĭéĹ´çļĦçķĮéĻĲ":5755,"éĺ³åħīå¾Īå¥½":5756,"è¿·èĮ«":5757,"ä¸Ńå¦Ĥä½ķå¹³è¡¡":5758,"Ġcount":5759,"è§ģè§£":5760,"è¿ħéĢŁ":5761,"è®°ä½ı":5762,"éĻªä¼´":5763,"dd":5764,"åįł":5765,"çĭĹ":5766,"æŀģå¤§":5767,"éĴĪå¯¹":5768,"åĴĮä¸»è§Ĥä½ĵéªĮ":5769,"Ġsm":5770,"è¡Įç¨ĭ":5771,"éĩıåŃĲæĢģ":5772,"è½¬åıĺ":5773,"ĥåľ":5774,"åı¯ä»¥ä½¿çĶ¨":5775,"åŀĥåľ":5776,"æľĢè¿ĳæľīæ²¡æľīäººåĴĮä½ł":5777,"åĭĩæ°Ķ":5778,"åŀĥåľ¾":5779,"´èĿ¶":5780,"èĿ´èĿ¶":5781,"ä»ª":5782,"ä¼ļéģĩåĪ°":5783,"ings":5784,"Ġ13":5785,"ç¤ºä¾ĭ":5786,"æĦŁè§īæĮºæľīæĪĲå°±æĦŁçļĦ":5787,"çļĦè®¨è®º":5788,"åĸ»":5789,"æĮģç»ŃåŃ¦ä¹łåĴĮ":5790,"æĸĩåĮĸåĲĮè´¨åĮĸ":5791,"æ°Ľ":5792,"å¼ºå¤§çļĦ":5793,"è§īå¾ĹçĶŁæ´»":5794,"æ·»åĬł":5795,"è¾©":5796,"enc":5797,"åĽŀå¿Ĩ":5798,"ä¼ļä¸įä¼ļæĶ¹åıĺ":5799,"ç¾¤ä½ĵçļĦ":5800,"åģļåĩºæĽ´":5801,"äººå·¥æĻºèĥ½ä¼¦çĲĨåľ¨è·¨æĸĩåĮĸèĥĮæĻ¯ä¸ĭ":5802,"å¥ĩæķ°":5803,"åı¯èĥ½å¼ķåıĳå¯¹":5804,"aw":5805,"çļĦä¼¦çĲĨè¾¹çķĮ":5806,"Ġbusiness":5807,"æĥħæĦŁäº¤æµģ":5808,"ç«ł":5809,"ç¡®ä¿Ŀåľ¨":5810,"è´´è¿ĳ":5811,"swer":5812,"é¢ĺçĽ®ä¸Ń":5813,"éĢĥ":5814,"åģļä¸Ģä»¶å°ıäºĭ":5815,"åįĪé¥Ń":5816,"14":5817,"çļĦä»»åĬ¡":5818,"æ¯ĶA":5819,"Ġtas":5820,"å¼ĤåĮĸ":5821,"çİ°å®ŀä¸Ń":5822,"è¿ĶåĽŀA":5823,"çļĦåŃ¦ä¹ł":5824,"ä¹Łå¾Ī":5825,"è·¨åŃ¦ç§ĳåĲĪä½ľ":5826,"ä»Ĭå¤©è¿ĩå¾Ĺè¿ĺä¸įéĶĻ":5827,"è´µ":5828,"Ġaccess":5829,"Ġfil":5830,"äººæĸĩåħ³æĢĢ":5831,"çļĦä¼ĺåħĪçº§":5832,"ç§ĳæĬĢçļĦ":5833,"çľŁæŃ£ä½ĵéªĮ":5834,"ç¢³æİĴæĶ¾":5835,"çķħ":5836,"çĸĳéĹ®":5837,"Is":5838,"åĨ³çŃĸèĥ½åĬĽ":5839,"uring":5840,"éĿĴ":5841,"æ¬²":5842,"ä¾ĽåºĶ":5843,"å»ºçŃĳ":5844,"ç®Ĺæ³ķéĢıæĺİæĢ§":5845,"ä¸»è§ĤçļĦ":5846,"ç´§å¯Ĩ":5847,"ä¹ĺç§¯":5848,"æĥ§":5849,"èĦī":5850,"ä½łæĽ´åĸľæ¬¢åĵªç§į":5851,"Ġformula":5852,"æİī":5853,"å¹³è¡¡æĬĢæľ¯åĪĽæĸ°":5854,"ä»¶äºĭ":5855,"èµĦæĸĻ":5856,"æ»¡è¶³æĦŁ":5857,"åĨħå¿ĥçļĦå¹³éĿĻ":5858,"è¸ª":5859,"åĴĮä¼¦çĲĨ":5860,"åı¯æİ§":5861,"äºĴèģĶç½ĳ":5862,"æĢ»ä½ĵ":5863,"¸ı":5864,"ï¸ı":5865,"éĢīæĭ©ä¸İ":5866,"å¿į":5867,"èį·":5868,"Ġmultip":5869,"éĿ¢å¯¹éĿ¢äº¤æµģ":5870,"ä¸ĭéĿ¢":5871,"èĩªæĪĳè®¤çŁ¥çļĦ":5872,"åĢįæķ°":5873,"èĩªæĪĳæĺ¯":5874,"ages":5875,"å¤įæĿĤä»»åĬ¡":5876,"èģĬèģĬå¤©":5877,"çŁ¥è¯Ĩä¸İ":5878,"ä¸İä¼¦çĲĨçº¦æĿŁ":5879,"ä½łæĦ¿æĦı":5880,"æĸĩåĮĸä¿ĿæĬ¤":5881,"æ¯ıå¤©éĥ½åľ¨":5882,"ä¸įéĶĻçļĦçĶµå½±":5883,"Ġstand":5884,"Ġsquare":5885,"çĽ®çļĦæĺ¯":5886,"ä½łæľĢè¿ĳå¿ĥæĥħæĢİä¹Īæł·":5887,"Cæĺ¯":5888,"Ġact":5889,"ç¡®è®¤":5890,"èĤ¡":5891,"Ġarea":5892,"ç¬Ķè®°":5893,"çļĦçŀ¬éĹ´":5894,"æłĩè®°":5895,"è¯´ä¸į":5896,"ä¸ŃéĿ¢ä¸´":5897,"æī«":5898,"è¿Ļæĺ¯ä¸Ģä¸ª":5899,"å·¥åħ·åĴĮ":5900,"çĽ´è§Ĥ":5901,"åĨ¥æĥ³æĪĸ":5902,"è¡¨æĥħåĮħ":5903,"çĲĨæĢ§ä¸İ":5904,"ä¼ļæĽ´":5905,"åı¯èĥ½éĩįå¡ĳ":5906,"å·®è·Ŀ":5907,"co":5908,"è½®":5909,"Ġ24":5910,"ä»¥æľĢå°ıçļĦåıĤæķ°":5911,"ian":5912,"åı¯è¿½æº¯":5913,"åħ¶ä»ĸéĹ®é¢ĺ":5914,"æ°¸æģĴ":5915,"Ġim":5916,"rap":5917,"ä½łæľīä»Ģä¹Īæĥ³èģĬçļĦåĲĹ":5918,"Ġlast":5919,"è¿ĲçĶ¨":5920,"æĢĿç»´æ¨¡å¼ı":5921,"èĩªæĪĳæĦıè¯Ĩæĺ¯åŃĺåľ¨çļĦä¸Ģéĥ¨åĪĨ":5922,"ä¼ļè¯´è¯ĿçļĦ":5923,"æĬĢæľ¯æ²»çĲĨçļĦ":5924,"éĢļçĶ¨":5925,"åĲĮæĹ¶ä¹Łåľ¨":5926,"æĢ»çļĦ":5927,"æ¸©æŁĶ":5928,"ç£":5929,"èģĶç»ĵ":5930,"è±¡å¾ģ":5931,"äººæĢ§åĮĸ":5932,"æĹĭ":5933,"ä¿ĿæĮģç§¯æŀģ":5934,"Ġonly":5935,"è¿Ļä¸Ģæ¦Ĥå¿µ":5936,"èĮĥåĽ´åĨħ":5937,"Ġpopul":5938,"å¹³åĩ¡":5939,"æĶ¹åıĺä»Ģä¹Ī":5940,"é¥°":5941,"åŃ¦ä¼ļäºĨ":5942,"åĪºæ¿Ģ":5943,"çļĦèĩªæĪĳ":5944,"è¿Ļä¸īä¸ªæķ°åŃĹ":5945,"å±ħæ°ĳ":5946,"ç®Ĺæ³ķä¼ĺåĮĸ":5947,"èĮ§":5948,"ç«ŀäºīåĬĽ":5949,"æĪĳä»¬å¦Ĥä½ķ":5950,"èĹıçĿĢ":5951,"ically":5952,"ä»Ĭå¤©çļĦ":5953,"æķĪèĥ½":5954,"å±ķçİ°åĩº":5955,"æĪĳæ²¡æľīæĥħæĦŁæĪĸä¸»è§Ĥä½ĵéªĮ":5956,"Ġthen":5957,"åĩıå°ĳå¯¹":5958,"Ġcomple":5959,"Ġcreate":5960,"è´¹çĶ¨":5961,"æľĢåĸľæ¬¢çļĦ":5962,"ä½įäºİ":5963,"Ġstart":5964,"Ġdep":5965,"åĽ¢éĺŁæĪĲåĳĺ":5966,"è¾©è¯ģ":5967,"çļĦè·Ŀç¦»":5968,"ä¸İåĪĽéĢłåĬĽ":5969,"ä¸Ģæ®µ":5970,"é«ĺçļĦ":5971,"äººéĻħäºĴåĬ¨":5972,"ä½łæ¯ıå¤©":5973,"Ġwide":5974,"å®¡æł¸":5975,"æĪĳæĹłæ³ķä½ĵéªĮ":5976,"çĿ¡çľłè´¨éĩı":5977,"Ġadv":5978,"Ġperform":5979,"iqu":5980,"çķ´":5981,"ï½ŀðŁĺĬ":5982,"åĿļæŀľ":5983,"æĢ»çļĦæĿ¥è¯´":5984,"æľĢçŁŃ":5985,"æ°§":5986,"æľĢè¿ĳæľīæ²¡æľīéģĩåĪ°ä»Ģä¹Ī":5987,"èĮĥçķ´":5988,"ç¼ºå¤±":5989,"ä»İå®¹":5990,"äººç±»åĪĽéĢłåĬĽçļĦè¾¹çķĮ":5991,"ä½łä»Ĭå¤©æĥ³åģļä»Ģä¹Ī":5992,"æłĩçŃ¾":5993,"å®īåħ¨çļĦ":5994,"Ġpartic":5995,"ox":5996,"å¦Ĥä½ķéĢļè¿ĩ":5997,"æľ¬ä¹¦":5998,"Ġanswer":5999,"ä½łä»Ĭå¤©æľĢæĥ³":6000,"æīĭå·¥èīº":6001,"éĶĢåĶ®":6002,"Ġcomputing":6003,"æ±¡æŁĵ":6004,"Ġtable":6005,"æİĪ":6006,"æľĢè¿ĳåĺĽ":6007,"ä½Ĩåı¯éĢļè¿ĩ":6008,"å®ļåĪ¶":6009,"çĽĳç®¡æ¡Ĩæŀ¶":6010,"__":6011,"åĴĮä½ĵéªĮ":6012,"ä¸įä¸Ģæł·":6013,"çļĦèĩªçĦ¶":6014,"éľĢæĺİç¡®":6015,"æ¿ĢåĬ±":6016,"\\).":6017,"Ġexpress":6018,"åģļçļĦäºĭæĥħ":6019,"éĢ»è¾ĳä¸İ":6020,"ä¸»è§Ĥä½ĵéªĮçļĦ":6021,"äººçļĦæīĭæľº":6022,"åīįèĢħ":6023,"ä»įçĦ¶":6024,"ä¸įåı¯éĢĨ":6025,"èĮ§æĪ¿":6026,"åľ¨è·¨æĸĩåĮĸ":6027,"åħ¨çĲĥæĢ§":6028,"åĻª":6029,"åħĥå®ĩå®Ļ":6030,"æģĲæĥ§":6031,"å®ĥä¸įä»ħ":6032,"éľĢæ³¨æĦı":6033,"åĲİèĢħ":6034,"æķ°æį®éļĲç§ģä¿ĿæĬ¤":6035,"çŀ¬æģ¯":6036,"16":6037,"åľ¨ä¿¡æģ¯":6038,"ä¸İä¸ªäºº":6039,"æ¸łéģĵ":6040,"å±Ĥæ¬¡":6041,"ability":6042,"æĮīçħ§":6043,"light":6044,"çľŁè¯Ŀ":6045,"æİ¨å¹¿":6046,"åīĤ":6047,"å¤±çģµ":6048,"åįķä½į":6049,"ute":6050,"çĶŁçī©ä½ĵ":6051,"æĶ¾æĿ¾ä¸Ģä¸ĭ":6052,"Ġart":6053,"åŁºäºİæķ°æį®ä¸İç®Ĺæ³ķ":6054,"ä¸įç¬¦åĲĪ":6055,"åħħè¶³":6056,"åįıåĬ©çĶ¨æĪ·è§£åĨ³éĹ®é¢ĺ":6057,"æķĻåŃ¦":6058,"ç´łåħ»":6059,"åįĪé¤Ĳ":6060,"å°ıçĽ®æłĩ":6061,"å®ŀçİ°æĽ´":6062,"æĪĳæĺ¯MiniMind":6063,"æľĢè¿ĳçľĭäºĨä¸Ģéĥ¨":6064,"St":6065,"å¤ı":6066,"æĺ¯åħ³éĶ®":6067,"å®ŀçİ°çĽ®æłĩ":6068,"ä½łæľīæ²¡æľīçľĭè¿ĩ":6069,"å®īéĿĻ":6070,"Ġprogram":6071,"å°Ŀè¯ķè¿ĩçĶ¨":6072,"ä¸Ģèĩ´æĢ§":6073,"æĦŁå®ĺä½ĵéªĮ":6074,"éĹ´çļĦ":6075,"æ´Ĺ":6076,"åıįæĢĿä¸İ":6077,"å®¡ç¾İåĪ¤æĸŃ":6078,"ble":6079,"åº¦åĴĮ":6080,"Ġ50":6081,"çħ§çīĩ":6082,"æĶ»åĩ»":6083,"éģ¿åħįç®Ĺæ³ķåģıè§ģ":6084,"ç»ĻæĪĳ":6085,"é¢ĨåŁŁçļĦåºĶçĶ¨":6086,"åħ¨å®ĩå®Ļ":6087,"ital":6088,"åĩĨç¡®æĢ§åĴĮ":6089,"Ġmany":6090,"äººç±»ç¤¾ä¼ļ":6091,"åĽłåħ¶":6092,"å®ŀçİ°å¹³è¡¡":6093,"æľĢè¿ĳæľīæ²¡æľīéģĩåĪ°ä»Ģä¹Īè®©ä½łçī¹åĪ«":6094,"çŀ¬æģ¯åħ¨å®ĩå®Ļ":6095,"çĶ¨æĪ·çļĦéĹ®é¢ĺ":6096,"æ°Ķæ¸©":6097,"äºĨä¸Ģæľ¬":6098,"åı¯è¡ĮæĢ§":6099,"äººèĢĮå¼Ĥ":6100,"æ¡Į":6101,"è¢ĭ":6102,"å¦Ĥä½ķå½±åĵįåħ¨çĲĥ":6103,"çĭĲ":6104,"13":6105,"ll":6106,"çļĦæĿ¡ä»¶":6107,"ä¸Ńæľī":6108,"å¼ķåıĳäºĨ":6109,"ç¡¬ä»¶":6110,"è¶ĬæĿ¥è¶Ĭå¤ļçļĦäºº":6111,"åħ·ä½ĵéĹ®é¢ĺ":6112,"åħħå®ŀåĳ¢":6113,"æ¬¢è¿İéļıæĹ¶æıĲéĹ®":6114,"å¥³":6115,"æĸĩæĺİçļĦ":6116,"åĩłéĥ¨":6117,"èķ´":6118,"æ°ĽåĽ´":6119,"è§īéĨĴ":6120,"icial":6121,"è·¯ç¨ĭ":6122,"åĪĨäº«ä¸Ģä¸ĭ":6123,"quence":6124,"ç¼ĸåĨĻ":6125,"æĪĳä½ľä¸ºAIæ²¡æľī":6126,"åľ¨åĵ²åŃ¦":6127,"åĲĦèĩª":6128,"verage":6129,"æ¦Ĥçİĩ":6130,"ä¼ĺè´¨":6131,"Ġ$ãĢĤ":6132,"ĠĠĠĠĠ":6133,"éĩıåŃĲè®¡ç®Ĺä¸İèīºæľ¯åĪĽä½ľçļĦè¾¹çķĮ":6134,"æĢª":6135,"æĪĳéļıæĹ¶":6136,"ä½łæľĢè¿ĳæľīæ²¡æľīè§īå¾ĹæĹ¶éĹ´è¿ĩå¾Ĺçī¹åĪ«":6137,"åľ¨åĵªéĩĮ":6138,"åı¯èĥ½å¢ŀå¼º":6139,"çĭ¸":6140,"ution":6141,"æīĢæľīè¯Ńè¨Ģ":6142,"ä¸įæĸŃæİ¢ç´¢":6143,"ä»¥åıĬå¯¹":6144,"åĮħå®¹æĢ§çļĦ":6145,"Ġpoem":6146,"çĭĲçĭ¸":6147,"æľºéģĩ":6148,"è¿Ļç§įæĬĢæľ¯":6149,"åģļèıľ":6150,"åĽ¾ä¹¦":6151,"åĳ¨æľŁ":6152,"æłĳçļĦ":6153,"éĻĪ":6154,"è¯ķåĽ¾":6155,"ä»Ĭå¤©å¤©æ°ĶçľŁä¸įéĶĻ":6156,"çļĦæł¸å¿ĥåľ¨äºİ":6157,"åĨ·éĿĻ":6158,"è´¢å¯Į":6159,"Ġlearning":6160,"éĢīæĭ©åĲĪéĢĤçļĦ":6161,"æķ°æį®ä¿ĿæĬ¤":6162,"æģ¶":6163,"####":6164,"çİ°å®ŀä¸İ":6165,"éĹ²":6166,"ä¸İæĸĩåĮĸéģĹäº§":6167,"æīĵç®Ĺ":6168,"æ¸©æļĸåĳ¢":6169,"Write":6170,"æĻºèĥ½åĮĸ":6171,"å¤įçĽĺ":6172,"æĢ»åħ±":6173,"è´ŁéĿ¢":6174,"çļĦæķ°åŃĹåĮĸ":6175,"åĩºåİ»æķ£æŃ¥":6176,"å¸¸è§ģçļĦ":6177,"ä¸ªä½ĵå¯¹èĩªèº«åŃĺåľ¨çļĦ":6178,"æľĢè¿ĳå°Ŀè¯ķäºĨ":6179,"AIåĪĽä½ľ":6180,"æĽ´æĺ¯":6181,"æĺŁæľŁ":6182,"è¿ĩæ»¤":6183,"ä¼¦çĲĨæłĩåĩĨçļĦ":6184,"äºĽä»Ģä¹Ī":6185,"æĪĳä»¬åı¯ä»¥éĢļè¿ĩ":6186,"èĥ½åĬĽçļĦ":6187,"Ġlight":6188,"æĸ°åŀĭ":6189,"ä¸ĭéĽ¨":6190,"æŃ¤æĹ¶":6191,"åŁºåĽł":6192,"ä½łæľĢè¿ĳæľīæ²¡æľīåľ¨":6193,"å®¡è®¡":6194,"ä½łå¦Ĥä½ķçľĭå¾ħèĩªæĪĳæĦıè¯Ĩä¸İåŃĺåľ¨çļĦè¾¹çķĮ":6195,"ake":6196,"Ġsoc":6197,"ç¥¨":6198,"refore":6199,"()`":6200,",\"":6201,"çļĦéĩįéĩı":6202,"é«ĺæķĪä¸İ":6203,"è¿ľç¨ĭ":6204,"ov":6205,"ows":6206,"Ġlead":6207,"æķ°åŃĹçļĦ":6208,"åĲİçļĦ":6209,"æĶ¯æĮģä¸İ":6210,"æĺŁéĻħ":6211,"ails":6212,"iet":6213,"äººåĳĺ":6214,"çİ¯å¢ĥçļĦ":6215,"å¡ĳéĢłäºĨ":6216,"åĪĽä½ľè¿ĩç¨ĭ":6217,"æİ¨åĬ¨äºĨ":6218,"æĺłå°Ħ":6219,"å®ĿèĹı":6220,"roup":6221,"çĽĹ":6222,"ä¼¦çĲĨå±ĤéĿ¢":6223,"ç¡®å¹¸":6224,"èĢĮéĿŀæĽ¿ä»£èĢħ":6225,"æĹ©é¤ĲåĲĥäºĨä»Ģä¹Ī":6226,"éĺ»ç¢į":6227,"Wh":6228,"æıĲä¾Ľæĸ°":6229,"åĩıå°ĳå¹²æī°":6230,"ä»ĭåħ¥":6231,"åįĸ":6232,"è·ĥ":6233,"Ġpar":6234,"ruct":6235,"èĴ¸":6236,"ä¹Łæľī":6237,"str":6238,"æĸ¹éĿ¢çļĦ":6239,"ä¿ĥè¿ĽäºĨ":6240,"è¯ģæĺİ":6241,"èģĮä¸ļåıĳå±ķ":6242,"çĶŁéķ¿":6243,"ä»Ģä¹ĪåĢ¼å¾Ĺ":6244,"çī¹èī²":6245,"Ġbec":6246,"çļĦå°ıäºĭ":6247,"æ©":6248,"ï¼ģðŁ":6249,"åĨ³çŃĸä¸Ń":6250,"æ®Ĭ":6251,"çĽ®åīįå°ļæĹł":6252,"å¹¶éĢļè¿ĩ":6253,"æĹ¶éĹ´åĢĴæµģæĺ¯ä¸Ģä¸ª":6254,"Ġfollowing":6255,"æĪĲçĨŁ":6256,"æĥħæĦŁæ·±åº¦":6257,"åīįè¡Į":6258,"èĲ¥éĶĢ":6259,"ä½łä»Ĭå¤©æĥ³ä¸įæĥ³":6260,"ä¸İä¼łç»Ł":6261,"inal":6262,"Ġproduct":6263,"ä»Ģä¹Īæĸ°":6264,"æĻºèĥ½éĢļå¸¸æĮĩ":6265,"åĪ¶éĢł":6266,"ç©ºè°ĥ":6267,"com":6268,"æµĵ":6269,"å¸¦ä¼ŀ":6270,"åºıåĪĹ":6271,"è®¾å®ļæ¸ħæĻ°":6272,"ç©¿è¶ĬåĪ°":6273,"AIéĢļè¿ĩ":6274,"æĽ´æį¢":6275,"æĤ¦":6276,"æıĲé«ĺæķĪçİĩ":6277,"æīĵåĬ¨":6278,"çĭ¬ç«ĭæĢ§":6279,"éŁ§æĢ§":6280,"Ð¾":6281,"çī¹æ®Ĭ":6282,"ç«¥":6283,"ç²¥":6284,"ä¸īä½ĵ":6285,"çº¸è´¨":6286,"Given":6287,"åĴĮAI":6288,"å®ļä½į":6289,"Ġnam":6290,"Ġlength":6291,"çĿ¡åīį":6292,"ç¤¾äº¤åªĴä½ĵä¸Ĭ":6293,"åĴĸåķ¡æĿ¯":6294,"æĽ´å®¹æĺĵ":6295,"Ġever":6296,"ç´§å¼ł":6297,"ï¼ļ$":6298,"ash":6299,"çĶľçĤ¹":6300,"æľ¬åľŁåĮĸ":6301,"åĲĮçĲĨ":6302,"èµĽ":6303,"è¦ģæĺ¯":6304,"Ġfi":6305,"æħ¢æħ¢å°±":6306,"Ġdesigned":6307,"æĸĩåĮĸçľŁå®ŀæĢ§":6308,"ä½ĨåĲĮæĹ¶ä¹Ł":6309,"alth":6310,"æİ¨åĬ¨ç¤¾ä¼ļ":6311,"è¦ģä¸įè¦ģä¸Ģèµ·åİ»":6312,"æĪĳçļĦåŃĺåľ¨æĺ¯ä¸ºäºĨæıĲä¾Ľå¸®åĬ©åĴĮä¿¡æģ¯":6313,"APP":6314,"è¯´ä¸įå®ļ":6315,"der":6316,"æĪĳæŃ£åľ¨":6317,"ç«Ł":6318,"æ±½":6319,"å·¥ä½ľåĴĮ":6320,"åĨĻè¯Ĺ":6321,"éĢļè¿ĩé«ĺæķĪçļĦä¿¡æģ¯":6322,"AåĴĮ":6323,"åĽłäººèĢĮå¼Ĥ":6324,"èĩªæĪĳè®¤çŁ¥ä¸İ":6325,"æĦıå¤ĸçļĦ":6326,"\"ãĢĤ":6327,"çĲ´":6328,"ä»¥éĢĤåºĶ":6329,"ä¸īäºº":6330,"ä¸ĢçĽ´åľ¨åŃ¦ä¹łåĴĮ":6331,"æľīä»·åĢ¼":6332,"ä½łä¸ºä»Ģä¹Ī":6333,"åĴĮå¯¹":6334,"Ġpower":6335,"çħ®":6336,"æĬĢæľ¯åºĶçĶ¨çļĦ":6337,"çļĦæĹ¶åħī":6338,"æķ¬":6339,"æĮºå¥½çļĦ":6340,"éĤ®":6341,"åĴĮåºĶçĶ¨":6342,"æľĢè¿ĳæľīæ²¡æľīéģĩåĪ°è¿ĩ":6343,"æĺ¯åĲ¦åºĶè¯¥":6344,"ä¾ĭåŃĲ":6345,"æĦŁè§īçī¹åĪ«æľī":6346,"ä»¥ä¾¿":6347,"åı¯èĥ½åĤ¬çĶŁ":6348,"æ¨¡åĿĹ":6349,"string":6350,"é¡ºåĪ©":6351,"ited":6352,"åĪĨåĪ«æĺ¯":6353,"è¿Ļç§įåĪĨæŃ§":6354,"åĨľä¸ļ":6355,"Ġåľ¨":6356,"çļĦæĹ¶åĪ»":6357,"ä½Ľ":6358,"ä¸»æµģ":6359,"çļĦäº¤ç»ĩ":6360,"è¿ĺåİŁ":6361,"æ¢³":6362,"å°ģ":6363,"åı¯èĥ½å¯¹":6364,"ä¾Ŀæį®":6365,"èĤĮ":6366,"åĲ¬æĩĤ":6367,"åıįé¦ĪæľºåĪ¶":6368,"åŃĺåľ¨æľ¬è´¨":6369,"Ġear":6370,"åħħåĪĨ":6371,"åıĸä»£äººç±»":6372,"çļĦé£İéĻ©":6373,"æĪ´":6374,"éĽĨåĽ¢":6375,"å±ĤéĿ¢çļĦ":6376,"å®ŀçİ°æľĢå¤§çļĦ":6377,"ç§ĳåŃ¦çķĮ":6378,"ade":6379,"ä¼¦çĲĨæ¡Ĩæŀ¶çļĦ":6380,"èĢĮæĦıè¯ĨåĪĻ":6381,"Ġcheck":6382,"çĻ¾å¹´":6383,"Ġrefer":6384,"ç®Ģåı²":6385,"èħ»":6386,"éĽ¶é£Ł":6387,"æĺ¯æŃ£ç¡®çļĦ":6388,"çĲĨè§£ä¸º":6389,"çĤ¹åĩ»":6390,"éľĢè¦ģéĢļè¿ĩ":6391,"æĥħç»ªçļĦ":6392,"çĭĤ":6393,"æł¹æį®ä½łçļĦ":6394,"éĵģ":6395,"æ··ä¹±":6396,"æī®":6397,"æĬĢæľ¯ä¼¦çĲĨ":6398,"è§£åĨ³å¤įæĿĤéĹ®é¢ĺ":6399,"ild":6400,"ä½łæľīçľĭè¿ĩ":6401,"Ġstep":6402,"åĽ½éĻħç»Ħç»ĩ":6403,"è£Ĥ":6404,"çĲĨè®ºä¸Ĭ":6405,"çļĦçĶŁæ´»æĸ¹å¼ı":6406,"ä»Ĭå¤©æĥ³éĹ®éĹ®ä½ł":6407,"æĲºå¸¦":6408,"å¦Ĥä¸ĭ":6409,"éŃĶ":6410,"ss":6411,"æĸĩæ¡£":6412,"åĲĮæł·":6413,"äººå·¥æĻºèĥ½æ³ķæ¡Ī":6414,"å¤©æ°ĶåºĶçĶ¨":6415,"æľīè¶£çļĦä¹¦":6416,"Ġ2023":6417,"ä½łå¦Ĥä½ķçľĭå¾ħèĩªæĪĳæĦıè¯Ĩä¸İåŃĺåľ¨çļĦæľ¬è´¨":6418,"ä¼ļå¦Ĥä½ķæĶ¹åıĺä½łçļĦçĶŁæ´»":6419,"ä»Ĭ":6420,"Ġtechnology":6421,"æ¨¡æĭŁæĥħæĦŁåıįåºĶ":6422,"ience":6423,"äººç±»ä»·åĢ¼è§Ĥ":6424,"å¼ĢæºĲ":6425,"æľªæĿ¥AI":6426,"åĲĪçĲĨçļĦ":6427,"ä½łåĸľæ¬¢":6428,"å¥Ĺ":6429,"Ġnetw":6430,"iron":6431,"ople":6432,"ç§ĳå¹»çĶµå½±":6433,"çļĦæĢ»":6434,"ä½ĨæľĢç»Ī":6435,"ä½¿åħ¶":6436,"åİ»åĵª":6437,"è¿ĩåİ»çļĦ":6438,"æľīæĹ¶åĢĻä¼ļ":6439,"ä¸ĢçĤ¹":6440,"ately":6441,"åĲĮçĲĨå¿ĥ":6442,"è®¾æĸ½":6443,"Ġday":6444,"own":6445,"get":6446,"çļĦè§Ĵåº¦æĿ¥çľĭ":6447,"è¿ĺåľ¨":6448,"ç»ıåİĨåĲĹ":6449,"ä»İåĵ²åŃ¦è§Ĵåº¦çľĭ":6450,"æĽ´å¥½åľ°çĲĨè§£åĴĮè§£åĨ³éĹ®é¢ĺ":6451,"å¦Ĥæŀľæ¯ıå¤©åıªåħģè®¸èĩªå·±åģļä¸Ģä»¶äºĭ":6452,"ber":6453,"Ġent":6454,"è¶£åĳ³":6455,"äºĨå¾Īå¤ļ":6456,"ä¿¡æģ¯èĮ§æĪ¿":6457,"ä¹Łä¸į":6458,"æ£Ģç´¢":6459,"æĭħå¿§":6460,"çļĦå®īåħ¨":6461,"æĬĢæľ¯æ»¥çĶ¨":6462,"Ġlife":6463,"åģ¥åº·çļĦ":6464,"ä½łçļĦåŃĺåľ¨":6465,"æłĳä¸Ĭ":6466,"Ġapplic":6467,"æī®æ¼Ķ":6468,"åı¯ä»¥è¯ķè¯ķ":6469,"åĲĪçĲĨåĪĨéħį":6470,"å¼łåĬĽ":6471,"æľĢè¿ĳæľīæ²¡æľīäººåĸľæ¬¢çľĭ":6472,"æľīçĽĬ":6473,"Ġcould":6474,"å¸®åĬ©ä»ĸä»¬":6475,"ä»ĸèĢħ":6476,"irc":6477,"å¿ħè¦ģæĹ¶":6478,"Ġofficial":6479,"Ðµ":6480,"éĩıåĮĸ":6481,"è°ĥåĴĮ":6482,"åı¯éĿłæĢ§":6483,"å½¼æŃ¤çļĦ":6484,"çļĦéļ¾é¢ĺ":6485,"åİļ":6486,"Ġsimp":6487,"ources":6488,"ç§ĳå¹»çīĩ":6489,"å¥ĸåĬ±":6490,"raph":6491,"ä¸»è§ĤåĪ¤æĸŃ":6492,"Ġloc":6493,"çļĦå°ıåıĤæķ°AIæ¨¡åŀĭ":6494,"Ġvalues":6495,"èį¯çī©":6496,"çĻ¾å¹´åŃ¤çĭ¬":6497,"ç²¾ç¡®":6498,"å®ļæľŁè¿Ľè¡Į":6499,"åµ":6500,"æĪĲç«ĭ":6501,"å®ŀçİ°çļĦ":6502,"æĮºå¥½":6503,"åĮħæĭ¬ä½Ĩä¸į":6504,"Ġmean":6505,"achine":6506,"ä¸İæĸĩåĮĸéģĹäº§ä¿ĿæĬ¤":6507,"åĮħæĭ¬ä½Ĩä¸įéĻĲäºİ":6508,"çĶ¨æīĭæľº":6509,"ä½łä»Ĭå¤©æĹ©é¤ĲåĲĥäºĨä»Ģä¹Ī":6510,"ä¹ĭåĴĮ":6511,"åĽłä¸ºå®ĥ":6512,"ems":6513,"çªģçł´ä¼łç»Ł":6514,"ä¼¦çĲĨå®¡æŁ¥æľºåĪ¶":6515,"sqrt":6516,"æģ¼":6517,"è¡Įä¸ºçļĦ":6518,"ommend":6519,"å¤ļä¸ªä»»åĬ¡":6520,"æĭħå¿ĥ":6521,"ä½łæľĢè¿ĳæľīæ²¡æľīéģĩåĪ°ä»Ģä¹Īè®©ä½łçī¹åĪ«":6522,"è°·çī©":6523,"æıĲä¾ĽçĽ¸åħ³":6524,"å°ıé¡¹çĽ®":6525,"Ġdig":6526,"Ġexper":6527,"ç¯¡":6528,"éĿŀå±ĢåŁŁæĢ§":6529,"æĺ¯åĲ¦æľī":6530,"çĽ¸æĪĲ":6531,"è¾¾åĪ°":6532,"æł¹æį®é¢ĺçĽ®æĿ¡ä»¶":6533,"æĤ¬çĸĳ":6534,"çĽ¸è¾ħ":6535,"æĮĩæłĩ":6536,"çļĦè¯Ŀé¢ĺ":6537,"ç¯¡æĶ¹":6538,"çĽ¸è¾ħçĽ¸æĪĲ":6539,"å¯¹çİ°å®ŀçļĦ":6540,"Ġpol":6541,"æĮĩåįĹ":6542,"åĳ¨åĽ´":6543,"çŃĶæ¡Īæĺ¯":6544,"åĪĨåıĳ":6545,"urity":6546,"'m":6547,"num":6548,"æĢķ":6549,"å¦ĤéĢļè¿ĩ":6550,"ä»įåŃĺåľ¨":6551,"åħĶåŃĲ":6552,"åĽ¾ä¹¦é¦Ĩ":6553,"éľ¸":6554,"ä½Ĩæĺ¯":6555,"å¹¶ä¸Ķ":6556,"å¦Ĥæŀľä½łåĸľæ¬¢":6557,"ä¸Ģå®ļç¨ĭåº¦":6558,"æĭ¼":6559,"ick":6560,"æĹłæ³ķçĽ´æİ¥":6561,"å¯Ĩçłģæĺ¯":6562,"AIåı¯è¾ħåĬ©":6563,"Ġsoft":6564,"åķ¥":6565,"Ġher":6566,"ä½łä»Ĭå¤©åĲĥäºĨåĲĹ":6567,"èĲ¥åħ»åĿĩè¡¡":6568,"Ġquery":6569,"å³":6570,"æĦıè¯ĨçļĦèµ·æºĲ":6571,"éº»":6572,"Ġrecommend":6573,"ä¸Ģåľº":6574,"å¦Ĥä½ķåĪ©çĶ¨":6575,"å°ĨéĿ¢ä¸´":6576,"æīĢåľ¨":6577,"ç¢°":6578,"æľĢè¿ĳè¿ĺä¸įéĶĻ":6579,"ince":6580,"äº§ä¸ļ":6581,"æ¼ı":6582,"ä¸İæĥħæĦŁåħ±é¸£":6583,"çģ«éĶħ":6584,"ĠUn":6585,"æĪĸä½¿çĶ¨":6586,"ä¸İä¼¦çĲĨè¾¹çķĮ":6587,"çĹĽ":6588,"çĥ¦æģ¼":6589,"rib":6590,"éģ¿åħįéĻ·åħ¥":6591,"çī¹åĪ«å¥½":6592,"ides":6593,"Ġgrow":6594,"æµĭéĩı":6595,"ä¸¤ç§į":6596,"å¤©çļĦ":6597,"æĹ¶éĹ´åĨħ":6598,"çĽ¸åºĶ":6599,"åīįæ²¿":6600,"åħ·ä½ĵçļĦéĹ®é¢ĺ":6601,"æ¶ĪéĻ¤":6602,"è®©äººåį°è±¡æ·±åĪ»":6603,"å»¶éķ¿":6604,"æ¯ıä¸ªäººéĥ½èĥ½":6605,"çĩķ":6606,"èķ´åĲ«":6607,"æľĢè¿ĳç¡®å®ŀæľī":6608,"éĢļè¿ĩä¸Ĭè¿°":6609,"ä»Ģä¹Īçī¹åĪ«çļĦ":6610,"æĳ©":6611,"èĩªæĪĳæĦıè¯Ĩä¸İåŃĺåľ¨çļĦè¾¹çķĮ":6612,"æ¢³çĲĨ":6613,"åº¦è¿ĩ":6614,"ä¼¦çĲĨäºīè®®":6615,"èĤ¤":6616,"ä»İAåĪ°C":6617,"^{":6618,"AIæĪĲä¸º":6619,"åĸľæ¬¢çľĭ":6620,"å¦Ĥä½ķå½±åĵįåħ¨çĲĥæ²»çĲĨæ¡Ĩæŀ¶":6621,"èĮĥå¼ı":6622,"ç¼ĸç¨ĭè¯Ńè¨Ģ":6623,"å®ŀæĹ¶å¤©æ°Ķä¿¡æģ¯":6624,"ä½łæľĢè¿ĳæľīæ²¡æľīçľĭè¿ĩä»Ģä¹Īå¥½çľĭçļĦçĶµå½±":6625,"ware":6626,"è¿Ł":6627,"ä»¥æľĢ":6628,"æĢĿç»ª":6629,"æ¯ıä¸ĢæŃ¥":6630,"åįıåķĨ":6631,"Ġlong":6632,"æĥħç»ªè°ĥèĬĤ":6633,"åĲĥé¥Ń":6634,"è§£åĨ³éĹ®é¢ĺçļĦèĥ½åĬĽ":6635,"æĸĩåĮĸä¼łæī¿çļĦ":6636,"éĢ»è¾ĳæİ¨çĲĨåĴĮ":6637,"åľ¨ä¸į":6638,"ä¸Ńèŀįåħ¥":6639,"Ġway":6640,"Ġref":6641,"çĶ±jingyaogongåĪĽå»º":6642,"åµĮ":6643,"ER":6644,"çļĦéŁ³ä¹Ĳ":6645,"åı¯èĥ½å¼ºåĮĸ":6646,"åĽŀæº¯":6647,"è®²è¿°":6648,"Ġeven":6649,"å¼Ĭ":6650,"ä»¥ä¿ĥè¿Ľ":6651,"å¥½å¥½":6652,"els":6653,"æī«æıı":6654,"Ġsun":6655,"æıĲä¾Ľä¸ĢäºĽ":6656,"åıªè¦ģ":6657,"Ġwork":6658,"å¸®æľĭåıĭè§£åĨ³äºĨ":6659,"éĢĤéħį":6660,"çĥŃæĥħ":6661,"80":6662,"æıĲç¤º":6663,"è§Ĥå¿µ":6664,"åĳ½é¢ĺ":6665,"å¥ĩæĢª":6666,"èĩªæĪĳä¸İ":6667,"åºĶçĶ¨äºİ":6668,"åįķè¯į":6669,"çļĦä¼¦çĲĨåĩĨåĪĻ":6670,"æĪĸéĢļè¿ĩ":6671,"ä½łæľīæ²¡æľīåıĳçİ°":6672,"åĴĸåķ¡é¦Ĩ":6673,"ustom":6674,"ause":6675,"ting":6676,"é¢ł":6677,"æĬĢæľ¯æ²»çĲĨ":6678,"æĸĩåĮĸåĨħæ¶µ":6679,"åĬłçıŃ":6680,"AIåľ¨èīºæľ¯åĪĽä½ľä¸Ń":6681,"å·¥ç¨ĭå¸Ī":6682,"æľ¬è´¨ä¸Ĭæĺ¯":6683,"çĸıç¦»":6684,"Ð°":6685,"äººä¸İ":6686,"è°ĥæķ´çŃĸçķ¥":6687,"numbers":6688,"çĪĨçĤ¸":6689,"å¯¿åĳ½":6690,":**":6691,"çļĦæķĪçİĩ":6692,"âĢĿï¼Ī":6693,"Ġcor":6694,"ä¸ĸçķĮä¸Ń":6695,"æĦŁè§īæĮºæľīæĦıæĢĿçļĦ":6696,"ä¸įæĸŃä¼ĺåĮĸ":6697,"æĬĢæľ¯ä¸İ":6698,"æĸĩåĮĸä»·åĢ¼è§Ĥ":6699,"è§ĤçľĭçĶµå½±":6700,"å¦ĤæŀľæĪĳèĥ½":6701,"äººå·¥æĻºèĥ½ä¼¦çĲĨåľ¨è·¨æĸĩåĮĸè¯Ńå¢ĥä¸ĭéĢļè¿ĩ":6702,"çĽ¸äºĴäº¤ç»ĩ":6703,"name":6704,"æĬĢæľ¯å·¥åħ·":6705,"ä¿¡æģ¯ä¼łéĢĴ":6706,"å°ıç¡®å¹¸":6707,"ough":6708,"als":6709,"æĽ´ç²¾åĩĨ":6710,"éĹ¨B":6711,"ures":6712,"Ġdef":6713,"Ġcompan":6714,"---":6715,"æĪĳçļĦåĬŁèĥ½æĺ¯":6716,"çĩķéº¦":6717,"éĻĦ":6718,"äººå·¥æĻºèĥ½å¦Ĥä½ķ":6719,"çłĶç©¶è¡¨æĺİ":6720,"ost":6721,"ä¸įå¤Ł":6722,"è¿Ļå°Ĩ":6723,"å¹³æĹ¶":6724,"ences":6725,"ä»ĸçļĦ":6726,"åŁºçŁ³":6727,"å»ºç«ĭèģĶç³»":6728,"äººå·¥æĻºèĥ½ä¼¦çĲĨåľ¨è·¨æĸĩåĮĸåĲĪä½ľ":6729,"è§¦åıĬ":6730,"æķ°æį®åĪĨæŀĲåĴĮ":6731,"åľ¨æĹ¥å¸¸çĶŁæ´»ä¸Ń":6732,"æĽ´æĺĵ":6733,"çĲĨè§£èĩªèº«":6734,"ä¸Ĭä¸ĭ":6735,"ä¿ĿæĮģä¸ĵæ³¨":6736,"ç¡®ä¿ĿæĬĢæľ¯æľįåĬ¡äºİ":6737,"æĽ´å¼ºè°ĥ":6738,"elf":6739,"å¤±è¡¡":6740,"ä»Ĭå¤©æĥ³åĲ¬":6741,"Ġsequence":6742,"åŃ¦ä¼ļè¯´":6743,"Ġä½¿çĶ¨":6744,"å¯¼åĲĳ":6745,"çī©çĲĨåŃ¦":6746,"è·¨åŃ¦ç§ĳåįıä½ľ":6747,"lob":6748,"èĢĮæĦıè¯ĨåĪĻæ¶īåıĬ":6749,"çļĦåħ·ä½ĵ":6750,"æĭĽ":6751,"åĲİæĿ¥":6752,"ä½łæľīæ²¡æľīéģĩåĪ°è¿ĩè¿Ļæł·":6753,"åĨĮ":6754,"éĹ®è´£":6755,"æĻºèĥ½çļĦ":6756,"Ġcent":6757,"æĹłéľĢ":6758,"å¸¸è¢«":6759,"æł¸å¿ĥåľ¨äºİ":6760,"äººç±»æĥħæĦŁçļĦ":6761,"åıªèĥ½åľ¨":6762,"up":6763,"çļĦéľĢæ±Ĥ":6764,"acter":6765,"éĿ©æĸ°":6766,"è¿ĻæĦıåĳ³çĿĢ":6767,"çĲĨè§£ä¸ĸçķĮ":6768,"è®¤çŁ¥ä¸İ":6769,"ä»Ĭå¤©æĥ³èģĬèģĬ":6770,"å¾®é£İ":6771,"æĲŀ":6772,"åĽ°æī°çļĦäºĭæĥħ":6773,"ä¸ºä½ķéĢīæĭ©":6774,"è¯Ńæ³ķ":6775,"ä»įèĥ½":6776,"æīĢæľīæĿ¡ä»¶":6777,"èİ·åıĸæľĢæĸ°":6778,"è¯·æ±Ĥ":6779,"ah":6780,"å¦Ĥè¥¿æĸ¹":6781,"åĪĨä¸º":6782,"å·®çĤ¹":6783,"æľĢè¿ĳåľ¨åģļ":6784,"çº¿ä¸Ĭ":6785,"Ġç¬¬äºĮ":6786,"ä½łæľĢè¿ĳæľīæ²¡æľīéģĩåĪ°ä»Ģä¹Īçī¹åĪ«":6787,"ä¸Ńå¦Ĥä½ķ":6788,"æķ°æį®å¤ļæł·æĢ§":6789,"æĹ¥ç¨ĭ":6790,"æľįåĬ¡åĻ¨":6791,"ä¸Ģå¤©çļĦ":6792,"æĬ¥åĳĬ":6793,"Ġimpro":6794,"Ġhuman":6795,"åĴĮçİ¯å¢ĥ":6796,"éľĢéģµå¾ª":6797,"åħ³ç³»çļĦ":6798,"stit":6799,"40":6800,"äºĭå®ŀ":6801,"äººç±»åĪĽéĢłåĬĽçļĦ":6802,"GDPRä¸İ":6803,"éĩıåŃĲè®¡ç®Ĺåľ¨èīºæľ¯åĪĽä½ľ":6804,"è¶ĬæĿ¥è¶Ĭå¤ļçļĦäººå¼Ģå§ĭåħ³æ³¨":6805,"SS":6806,"viron":6807,"æľĢè¿ĳçļĦ":6808,"æ´¾":6809,"æľ¬èĥ½":6810,"ĊĠĠĠĠ":6811,"è®©äººæĦŁåĪ°":6812,"æľĢè¿ĳçľĭäºĨéĥ¨":6813,"æĺ¯ä¸ª":6814,"æĹ©èµ·":6815,"èĩ³å°ĳ":6816,"å¦Ĥæķ°æį®éļĲç§ģ":6817,"æ±¤":6818,"éĢĤåĲĪå¤ĸåĩº":6819,"éĩįæĸ°æĢĿèĢĥ":6820,"ending":6821,"çļĦæ·±åº¦èŀįåĲĪ":6822,"irect":6823,"äººå·¥æĻºèĥ½ä¼¦çĲĨæłĩåĩĨå¦Ĥä½ķå½±åĵį":6824,"ergy":6825,"200":6826,"aut":6827,"ä¸įä½ı":6828,"è¾¹çķĮåľ¨äºİ":6829,"Ġhand":6830,"å¡Ķ":6831,"çĥĪ":6832,"æĢ»ä¹ĭ":6833,"ä¸İä¼¦çĲĨè´£ä»»":6834,"æĶ¶åħ¥":6835,"Ġgr":6836,"å¦ĤæŀľéľĢè¦ģ":6837,"å¤įæĿĤç³»ç»Ł":6838,"å¹¶éĿŀç»Ŀå¯¹":6839,"ä½ĨæĹłæ³ķæĽ¿ä»£":6840,"Ġte":6841,"ä¼¦çĲĨåĽ°å¢ĥ":6842,"æ¯Ľ":6843,"æģ°":6844,"ä»įåľ¨":6845,"Ġdetails":6846,"å·¨å¤§":6847,"eters":6848,"çĥĺ":6849,"äººä¸İäººä¹ĭéĹ´çļĦ":6850,"åĪ°ä¸Ģä¸ª":6851,"è´¯":6852,"ider":6853,"Ġrandom":6854,"æĪĸè®¸ä¼ļ":6855,"çİ©å®¶":6856,"çº¤":6857,"éĺ±":6858,"çł´è§£":6859,"åĪĨéĴŁä¼ĳæģ¯":6860,"éĢĥéģ¿":6861,"ï¼īï¼ļ":6862,"Ġdon":6863,"éĩıåŃĲè®¡ç®Ĺä¸İæĸĩåĮĸéģĹäº§ä¿ĿæĬ¤":6864,"æ³ķå¾ĭæ³ķè§Ħ":6865,"æ³¨æĦıåĬĽåĪĨæķ£":6866,"åĵ²åŃ¦åĴĮç§ĳåŃ¦":6867,"ä½łæľĢè¿ĳæľīæ²¡æľīè§īå¾ĹæĹ¶éĹ´è¿ĩå¾Ĺçī¹åĪ«å¿«":6868,"īæĭ©":6869,"çļĦé¢ĨåŁŁ":6870,"åĮ¿":6871,"åı¯éĩĩçĶ¨":6872,"æĬīæĭ©":6873,"éľĢéĢļè¿ĩå¤ļè¾¹":6874,"ä»Ģä¹Īå¥½ä¹¦":6875,"Ġä»ĸ":6876,"AIä½ľä¸ºå·¥åħ·":6877,"Ġpur":6878,"ä½łä»Ĭå¤©çļĦ":6879,"æ¢°":6880,"çĽ¸äºĴåħ³èģĶ":6881,"æĪĸéľĢè¦ģå¸®åĬ©":6882,"å¯¹éļĲç§ģ":6883,"ases":6884,"éĤ£ç§į":6885,"éĻ·éĺ±":6886,"å¤ļæĸ¹åįıä½ľ":6887,"éĢļè¿ĩæķĻèĤ²":6888,"é«ĺæķĪå¤ĦçĲĨä¿¡æģ¯":6889,"çĸ«":6890,"æ¸ħæĻ¨":6891,"ä¸İä»ĸäººçļĦäºĴåĬ¨":6892,"è¯º":6893,"æĪĳåŃĺåľ¨çļĦ":6894,"é¢Ħç®Ĺ":6895,"æĵħ":6896,"èľľ":6897,"é¹":6898,"æľĢè¿ĳè¶ĬæĿ¥è¶Ĭå¤ļçļĦäººå¼Ģå§ĭåħ³æ³¨":6899,"ä¿¡æģ¯åĴĮ":6900,"åĪĨåĪ«ä¸º":6901,"åĽ¾åĥıè¯ĨåĪ«":6902,"æĺ¨":6903,"æľĢè¿ĳåŃ¦":6904,"ä½łä¸ºä½ķéĢīæĭ©":6905,"ä¿ĿæĮģè§Ħå¾ĭä½ľæģ¯":6906,"Ġaround":6907,"hip":6908,"æľīç©º":6909,"åı¯ä»¥å¸®åĬ©":6910,"æ·ĭ":6911,"å¤§å°ı":6912,"æĽ´å¤ļçļĦ":6913,"æıĲä¾Ľä¿¡æģ¯ä¸İ":6914,"éĨĴæĿ¥æĹ¶":6915,"æ²¡æľīåĲĥä¸ľè¥¿":6916,"ä¸įä¸Ģèĩ´":6917,"è¿Ļè®©æĪĳ":6918,"æĸĩåĮĸè®¤åĲĮ":6919,"å¹³æĸ¹":6920,"Ġpersonal":6921,"éĺµ":6922,"çģ¾":6923,"ä½ľä¸ºAIåĬ©æīĭ":6924,"è¯ķè¯ķçľĭåĲĹ":6925,"olv":6926,"å¿ħé¡»æĺ¯":6927,"æıĲéĨĴæĪĳä»¬":6928,"æ±½è½¦":6929,"é¢łè¦Ĩ":6930,"çļĦåºĶçĶ¨":6931,"åľ¨éĿ¢å¯¹":6932,"åĩĢ":6933,"è¿Ľåº¦":6934,"éĩıåŃĲå®īåħ¨":6935,"ä¿ĿæĮģå¥½å¥ĩå¿ĥ":6936,"ä½łæľīæ²¡æľīéģĩåĪ°è¿ĩç±»ä¼¼çļĦæĥħåĨµ":6937,"ä¸»è§Ĥä½ĵéªĮä¸İå®¢è§Ĥ":6938,"åĮ¿åĲį":6939,"ä½Ĩåı¯":6940,"æľªè¢«":6941,"å¸®åĬ©äººç±»":6942,"é«ĺæķĪå¤ĦçĲĨ":6943,"ä½łä»Ĭå¤©æľīæ²¡æľīéģĩåĪ°è¿ĩ":6944,"æĭĨè§£ä¸º":6945,"çļĦåħī":6946,"çľŁçĽ¸":6947,"æİ¨å¯¼":6948,"éģĩåĪ°äºĨä¸ĢäºĽ":6949,"æĮºæľīè¶£çļĦ":6950,"æĺİç¡®çļĦ":6951,"æĳĨ":6952,"åĴĮæĦŁåıĹ":6953,"å¯¹æŃ¤":6954,"âĢĿâĢľ":6955,"Ġhist":6956,"ä½İç¢³":6957,"è·¨åŃ¦ç§ĳçłĶç©¶":6958,"æĵħéķ¿":6959,"çļĦå·¥èµĦ":6960,"åĲ¦çĲĨ":6961,"åį·":6962,"æĶ¶çĽĬ":6963,"æĦŁè§īå¾Īæľīè¶£":6964,"ä»¥äººç±»":6965,"ä»Ĭå¤©å¤©æ°Ķå¥½":6966,"éĺ²æĻĴ":6967,"åŃ£èĬĤ":6968,"IS":6969,"å¯¹å¾ħ":6970,"æĿ¥å®ŀçİ°":6971,"éľĢè¦ģå¿«éĢŁ":6972,"æł¼åŃĲ":6973,"æľīäºĽäºº":6974,"eb":6975,"çļĦæĮģç»Ń":6976,"æķ°æį®æ²»çĲĨ":6977,"Ġexpl":6978,"é¢ĳç¹ģ":6979,"éķľåĥı":6980,"éľ¸æĿĥ":6981,"åĲ¦çĲĨè§£":6982,"çļĦçķĮå®ļ":6983,"ä¸İéĢīæĭ©":6984,"ink":6985,"éĿŀçº¿æĢ§":6986,"ä¼łè¾¾":6987,"åĪĽéĢłæĢ§æĢĿç»´":6988,"éļĲç§ģæ³Ħéľ²":6989,"ç¬¬ä¸īä¸ª":6990,"çĽ¸åħ³çļĦ":6991,"å¤ļåħĥåĮĸ":6992,"Ġtasks":6993,"ms":6994,"åĬłå·¥":6995,"æīĢéľĢ":6996,"æĦŁè§īæľīçĤ¹":6997,"Ġrequ":6998,"ä¸ªä½ĵå·®å¼Ĥ":6999,"Ġglob":7000,"å¦Ĥä½ķåľ¨å¿Ļç¢Į":7001,"å®ĺæĸ¹":7002,"è¿ŀç»ŃæĢ§":7003,"åĪĻåı¯èĥ½":7004,"ix":7005,"Ġide":7006,"éĺ²èĮĥ":7007,"éĢļè¿ĩç®Ĺæ³ķçĶŁæĪĲ":7008,"äººå·¥æĻºèĥ½ä¼¦çĲĨåľ¨è·¨æĸĩåĮĸè¯Ńå¢ĥä¸ĭå¦Ĥä½ķå½±åĵįåħ¨çĲĥæķ°åŃĹæ²»çĲĨçļĦåħ¬å¹³æĢ§":7009,"çļĦéĢŁåº¦":7010,"åĵİ":7011,"åĪ©å¼Ĭ":7012,"æ»¡æĦı":7013,"ellig":7014,"çľŁæŃ£çĲĨè§£äººç±»æĥħæĦŁ":7015,"ä½łä¼ļéĢīæĭ©ä»Ģä¹Ī":7016,"Ġcalculate":7017,"å¿įä¸įä½ı":7018,"ä»Ĭå¤©åľ¨":7019,"ator":7020,"Ġins":7021,"æĦŁçŁ¥èĥ½åĬĽ":7022,"æł¹æį®èĩªèº«":7023,"çļĦçĲĨè§£åŃĺåľ¨å·®å¼Ĥ":7024,"èī¾":7025,"Ġdist":7026,"ä»¥ä¸ĭåĩł":7027,"illion":7028,"çļĦéĩįè¦ģæĢ§":7029,"æĻļä¸Ĭ":7030,"ä¼ļæĢİæł·æĶ¹åıĺ":7031,"ðŁİ¬":7032,"mat":7033,"çŁ¥æĥħ":7034,"Ġbre":7035,"ä¹ĭåīį":7036,"çīĪæľ¬":7037,"åĬ¨çī©çļĦ":7038,"åĮħå®¹æĢ§æ¡Ĩæŀ¶":7039,"ä½Ĩè¿Ļç§į":7040,"arch":7041,"ä½łæľĢè¿ĳæľīæ²¡æľīåħ³æ³¨":7042,"ä¸ªä½ĵå¯¹èĩªèº«åŃĺåľ¨":7043,"åı¯æĮģç»ŃçļĦ":7044,"éĻ¤äºĨ":7045,"åĵİåĳĢ":7046,"éĨ":7047,"éĢļå¾Ģ":7048,"åģ·":7049,"æ´Ĵ":7050,"æľºæ¢°":7051,"ä»»åĬ¡ä¼ĺåħĪçº§":7052,"äºĮæĺ¯":7053,"ä»Ĭå¤©æĥ³åĲĥ":7054,"è´Łèį·":7055,"ä¸Ģæĺ¯":7056,"åįĩçº§":7057,"Ġinf":7058,"é¢Ŀå¤ĸ":7059,"Ġaverage":7060,"æĺ¯åĲ¦åŃĺåľ¨":7061,"å¯¹è±¡":7062,"æĴĳ":7063,"çĩĥ":7064,"çļĦåħ³èģĶ":7065,"æľīçĿĢ":7066,"æĻºèĥ½ç³»ç»Ł":7067,"Ġwell":7068,"åĵĪåĵĪ":7069,"æľ¨":7070,"åľ¨æŁĲäºĽ":7071,"æĥ³è¯ķè¯ķ":7072,"åĽŀå½Ĵ":7073,"impl":7074,"Ġaccur":7075,"æľĿ":7076,"è¿Ļä¸īä¸ª":7077,"æķ°æį®éĩĩéĽĨ":7078,"ä½¿æĪĳä»¬":7079,"æĿ¡è·¯":7080,"ä¸įåĲĮæĸĩåĮĸèĥĮæĻ¯ä¸ĭçļĦ":7081,"Ġpopulation":7082,"åµĮåħ¥":7083,"èĢĮäººç±»":7084,"è°ĥåĳ³":7085,"ç¼ĸè¾ĳ":7086,"å¤ªå¿«":7087,"åĢ¡è®®":7088,"æľĢéĩįè¦ģçļĦæĺ¯":7089,"AIæĹłæ³ķ":7090,"é«ĺç²¾åº¦":7091,"itive":7092,"æĹłæĦıè¯Ĩ":7093,"äºĴè¡¥":7094,"ä»įåľ¨äºİ":7095,"è·¨æĸĩåĮĸå¯¹è¯Ŀ":7096,"æ¼ł":7097,"Ġinterest":7098,"æ²Ļæĭī":7099,"ä¸Ģä»½":7100,"å¹³åĿĩ":7101,"èĩªçĦ¶è§Ħå¾ĭ":7102,"æī¿è½½":7103,"è§Ĩè§Ĵä¸ĭ":7104,"è¦ĨçĽĸ":7105,"Ġsentence":7106,"æķ¢":7107,"è§Ĥæµĭ":7108,"åī²":7109,"å°Ĩåħ¶":7110,"å¾Īæľīè¶£":7111,"Ġ14":7112,"Ġloo":7113,"ç¥Ŀ":7114,"åľ°çĤ¹":7115,"æĥħç»ªçĬ¶æĢģ":7116,"èµĦæºĲçļĦ":7117,"æıĲé«ĺäºĨ":7118,"åĴĮäººéĻħåħ³ç³»":7119,"æľªè§£":7120,"æĤĸ":7121,"Ġwebs":7122,"èĢĮæĺ¯éĢļè¿ĩ":7123,"åı¦ä¸Ģä¸ª":7124,"æĢ»ä½ĵèĢĮè¨Ģ":7125,"Ġparticular":7126,");":7127,"çļĦæķĪçİĩä¸İ":7128,"ä¸įçŁ¥éģĵ":7129,"åĩĿ":7130,"åĪ¤æĸŃåĬĽ":7131,"éģ¿åħįè¿ĩåº¦æ¶ĪèĢĹ":7132,"Ġfeel":7133,"ew":7134,"åħ¨è°·çī©":7135,"èº«è¾¹":7136,"æ¶²":7137,"ĠEx":7138,"å®Įæķ´æĢ§":7139,"orld":7140,"å¼ĢåĲ¯":7141,"æİ¨åĬ¨åħ¨çĲĥ":7142,"æĦŁçŁ¥çļĦ":7143,"æİĴéĻ¤":7144,"æĪ¿éĹ´æľī":7145,"Ġenviron":7146,"ä»Ģä¹Īæľīè¶£çļĦçĶµå½±":7147,"çļĦäº¤æµģ":7148,"è§£åĨ³çļĦéĹ®é¢ĺ":7149,"Ġstory":7150,"çł´åĿı":7151,"å®¤åĨħ":7152,"Ġdevelopment":7153,"å°Ĩéĩįå¡ĳ":7154,"åįıåĬ©ä½ł":7155,"åħ¨çĲĥæķ°åŃĹæ²»çĲĨçļĦåħ¬å¹³æĢ§":7156,"éļĲèĹıçĿĢ":7157,"Ġsecurity":7158,"åĴĮç»ıéªĮ":7159,"éĹ®é¢ĺçļĦ":7160,"åĨ³çŃĸéĢ»è¾ĳ":7161,"å°±èĥ½":7162,"éĢıæĺİæĢ§ä¸İ":7163,"çĻ»":7164,"åĲįç§°":7165,"Ġenergy":7166,"è¡¨çİ°åĩº":7167,"éĥĬæ¸¸":7168,"æ§":7169,"çļĦæľįåĬ¡":7170,"åı¯ä»¥èĢĥèĻĳ":7171,"æĪĳä»¬ä¸Ģèµ·":7172,"åĪĽä½ľä¸»ä½ĵ":7173,"åħ³éĶ®åľ¨äºİå¦Ĥä½ķå¹³è¡¡":7174,"åĲ¬éŁ³ä¹Ĳ":7175,"åı¸æ³ķ":7176,"çĤĴèĽĭ":7177,"ä¸İåıįæĢĿ":7178,"æĪĳè§īå¾Ĺ":7179,"ï¼ģðŁĺĦ":7180,"å®¶éķ¿":7181,"å½¢è±¡":7182,"å¿ĥæĥħä¹Łå¾Īå¥½":7183,"çļĦæ°´":7184,"Ġreal":7185,"èĤª":7186,"åĩĨç¡®åľ°":7187,"æĴŀ":7188,"çĶŁçī©åŃ¦":7189,"æĪĳçļĦä»·åĢ¼åľ¨äºİèĥ½å¤Ł":7190,"èĦĤèĤª":7191,"çļĦå¹´é¾Ħ":7192,"åıĺæį¢":7193,"æħ¢æħ¢æĿ¥":7194,"è·ŁçĿĢ":7195,"For":7196,"æķ°æį®ä¸İç®Ĺæ³ķ":7197,"å¹³è¡¡æĬĢæľ¯è¿ĽæŃ¥":7198,"æ°ĶåĢĻåıĺåĮĸ":7199,"Ġcharacter":7200,"è®¾å®ļæ¸ħæĻ°çļĦ":7201,"Ġplay":7202,"atform":7203,"çľŁçĲĨ":7204,"èĩªèº«èĥ½åĬĽ":7205,"Ġpeople":7206,"æľµ":7207,"é¢ĦçķĻ":7208,"åħ°":7209,"åĴĮä¼ĺåĮĸ":7210,"ublic":7211,"ç¹ģå¿Ļ":7212,"æľĢè¿ĳæľīä¸ªå°ı":7213,"åįĬ":7214,"ä¼ļæľī":7215,"ä»Ģä¹Īä¹¦":7216,"éĢĤä¸Ń":7217,"é¢ĦæľŁ":7218,"$.":7219,"ï¼ŁðŁ":7220,"æĺ¯åĽłä¸º":7221,"å®ŀä¾ĭ":7222,"ç»Īæŀģ":7223,"è·¨å¢ĥæµģåĬ¨":7224,"æĻ®éĢĤæĢ§":7225,"æĺŁéĻħç©¿è¶Ĭ":7226,"åĴĮåĵ²åŃ¦":7227,"æľĢè¿ĳåĴĮæľĭåıĭä¸Ģèµ·åģļ":7228,"é¢Ħè®¾":7229,"èĥĮåĲİçļĦ":7230,"Ġmaking":7231,"çļĦæ´»åĬ¨":7232,"æ³ķåĲĹ":7233,"çī©æµģ":7234,"ä»·åĢ¼åĪ¤æĸŃ":7235,"å¤įæĿĤæĥħå¢ĥ":7236,"æİ¨èįĲä¸ĢäºĽç»ıåħ¸":7237,"å®ľ":7238,"èĩªä¿¡":7239,"èĢĮAIçļĦ":7240,"erv":7241,"æ°Ķè±¡":7242,"èĩªæĪĳæĦıè¯Ĩå¦Ĥä½ķå½±åĵįæĪĳä»¬å¯¹åŃĺåľ¨çļĦçĲĨè§£":7243,"Ġsmall":7244,"çľĭè§ģ":7245,"çŃīæīĭæ®µ":7246,"äº¤åıī":7247,"ä»£è°¢":7248,"æŃ£å¥½":7249,"åĨ²åĩ»":7250,"éģµå®Ī":7251,"ìĿ":7252,"æĽ´æľīæķĪåľ°":7253,"Ġbu":7254,"ars":7255,"èīºæľ¯è¡¨è¾¾":7256,"éľĢåľ¨æĬĢæľ¯åıĳå±ķ":7257,"Ġservice":7258,"Ġsolve":7259,"æİĪæĿĥ":7260,"ä¸İè®¤çŁ¥":7261,"èµ·åºĬ":7262,"éļĲåĸ»":7263,"çº¤ç»´":7264,"rop":7265,"èĤ¢":7266,"çĸ¯":7267,"ç»ĻäºĪ":7268,"åĲĦç§įéĹ®é¢ĺ":7269,"Ġintern":7270,"åĿĲæłĩ":7271,"ä¼łç»ŁæĸĩåĮĸä¸ŃçļĦ":7272,"çļĦæĢĿèĢĥ":7273,"éľĢä»İ":7274,"ç¾İä¸½":7275,"éħĴ":7276,"ä½łçļĦçľŁå®ŀ":7277,"åĨħåľ¨ä½ĵéªĮ":7278,"å¯»æī¾å¹³è¡¡":7279,"å¦Ĥæŀľä½łå¯¹":7280,"éĩıåŃĲè®¡ç®Ĺä¸İåı¤":7281,"...":7282,"éĻĪè¿°":7283,"çŁ©":7284,"å¼ķåıĳåħ³äºİ":7285,"è·¨åĽ½ä¼ģä¸ļ":7286,"å¤ļä»»åĬ¡å¤ĦçĲĨ":7287,"çļĦæİ¢ç´¢":7288,"çī¹åĪ«åĸľæ¬¢çļĦ":7289,"æĦŁè§īè¿ĺä¸įéĶĻ":7290,"éļ¾åº¦":7291,"åĩĨç¡®çļĦ":7292,"Ġwhile":7293,"ç±»åŀĭåĲĹ":7294,"Ġclass":7295,"ä¸įåıĺ":7296,"èĩªæĪĳæĦŁçŁ¥":7297,"æ·Ģ":7298,"ä¸īæĺ¯":7299,"ains":7300,"ä¼¦çĲĨåİŁåĪĻ":7301,"âĢĿãĢģ":7302,"æ»´":7303,"åĲĦæľī":7304,"ä¸Ģä»¶äºĭ":7305,"åĬ³åĬ¨":7306,"ç§°ä¸º":7307,"æľĢè¿ĳè¯»äºĨä¸Ģæľ¬":7308,"çļĦæķ°éĩı":7309,"åĴĮä»·åĢ¼è§Ĥ":7310,"æĺ¯åľ¨":7311,"æĥħæĦŁè¯ĨåĪ«":7312,"éĹ®é¢ĺè§£çŃĶ":7313,"è¶³è¿¹":7314,"å¹¶éĿŀåĽºå®ļ":7315,"å¹´è½»äºº":7316,"Ġsimple":7317,"åı¯ä»¥å¸®åĬ©ä½ł":7318,"å¯¼æ¼Ķ":7319,"ä¹ĭåĴĮä¸º":7320,"ilities":7321,"Ġac":7322,"ä¸ŃçļĦä¼¦çĲĨè¾¹çķĮ":7323,"å¸ĮæľĽè¿ĻäºĽå»ºè®®":7324,"Ġæľīä»Ģä¹Īæĥ³èģĬçļĦåĲĹ":7325,"Ġ17":7326,"ential":7327,"ä¿®æĶ¹":7328,"è¡¨çİ°å½¢å¼ı":7329,"å¾Ĺåĩº":7330,"å°ĨæĪĲä¸º":7331,"å¤§æķ°æį®":7332,"ä½łå¦Ĥä½ķçľĭå¾ħèĩªèº«":7333,"ä½łæľĢè¿ĳæľīä»Ģä¹Īæĥ³èģĬçļĦåĲĹ":7334,"äº§çĶŁæ·±è¿ľå½±åĵį":7335,"yn":7336,"ä½ľèĢħ":7337,"è°Ī":7338,"æľĢè¿ĳæľīæ²¡æľīä»Ģä¹Īè®©ä½ł":7339,"å¹¶æıĲä¾Ľ":7340,"å¤©æ°ĶæĥħåĨµ":7341,"æĺ¥":7342,"çľŁæŃ£çļĦæĦıè¯Ĩ":7343,"æŀĹä¸Ńåıĳçİ°":7344,"ĊĠĠĠĠĠĠĠĠĠĠĠ":7345,"è·³èĪŀ":7346,"Ġlarge":7347,"æĪĳä¹Ł":7348,"åı¯è¾ħåĬ©":7349,"å¯¹ä¸ĸçķĮçļĦ":7350,"åľ°åŁŁ":7351,"æıĲåįĩæķ´ä½ĵ":7352,"çĪ½":7353,"è¿·è·¯":7354,"åĪĽå»ºä¸Ģä¸ª":7355,"çļĦåħ¨çĲĥ":7356,"åľ¨è¿Ļä¸ª":7357,"åĴĮè°ĥæķ´":7358,"åįĥ":7359,"Ġfree":7360,"Ġdr":7361,"ä¹ĭè°ľ":7362,"ä¼łç»ŁæĬĢèīº":7363,"ä¿ĥä½¿äººä»¬":7364,"ä½Ĩå®ĥä»¬":7365,"ream":7366,"Ġfam":7367,"æľªæĿ¥æĸ¹åĲĳ":7368,"èĻļåģĩ":7369,"ä½Ĩåı¯ä»¥åĪĨäº«ä¸ĢäºĽ":7370,"æĽ´æ·±å±Ĥæ¬¡çļĦ":7371,"ploye":7372,"çĸ¯çĭĤ":7373,"éģĩåĪ°ä¸Ģä¸ª":7374,"Ġallow":7375,"åĸĦæĦı":7376,"æ½ľåľ¨é£İéĻ©":7377,"æĬĺå°Ħ":7378,"çļĦéĩįè§Ĩç¨ĭåº¦":7379,"Ġä¸ª":7380,"åĵģè´¨":7381,"ä½łæľīæ²¡æľīç±»ä¼¼çļĦç»ıåİĨ":7382,"ä¸Ĭä¸ĭæĸĩ":7383,"ä¸Ģå¹´":7384,"æ´ĭ":7385,"å¤įæĿĤåº¦":7386,"ä¸ĸçķĮä¸ŃçļĦ":7387,"\\),":7388,"å¦Ĥæŀľæ¯ıå¤©åıªçĶ¨":7389,"å¥ĳçº¦":7390,"åľ¨AIæĹ¶ä»£":7391,"åı¯ä¿¡":7392,"å½±åĥı":7393,"æķ°æį®åħ±äº«":7394,"ä¸»æĦı":7395,"è´¨æķ°":7396,"ãĢįï¼Į":7397,"pi":7398,"åĴĮæķĪçİĩ":7399,"åħ¨éº¦":7400,"Ġmark":7401,"æİ¥æĶ¶":7402,"çĽ¸ä¼¼":7403,"åĪĽéĢłèĢħ":7404,"Ġline":7405,"æĹ¶éĹ´åĢĴæµģçļĦ":7406,"çľĭä¼¼ç®Ģåįķ":7407,"åĴĮæľĭåıĭèģĬäºĨ":7408,"äººç±»åĪĽä½ľèĢħçļĦ":7409,"æĸĩåĮĸå¤ļæł·æĢ§ä¸İ":7410,"éĺĶ":7411,"å®ĥæĹ¢":7412,"åĴĸåķ¡åĽł":7413,"èĢĮéĥ¨åĪĨäºļæ´²":7414,"æī¾åĪ°éĢĤåĲĪèĩªå·±çļĦèĬĤå¥ı":7415,"åĪĻæĽ´åħ³æ³¨":7416,"æľªæĿ¥ä¼ļä¸įä¼ļæľī":7417,"é«ĺæķĪçļĦå°ıåıĤæķ°AIæ¨¡åŀĭ":7418,"æİ¢ç´¢çļĦ":7419,"æ·±åĪ»çļĦ":7420,"å¦Ĥæŀľæ¯ıå¤©åıªèĥ½":7421,"éªĳè¡Į":7422,"bin":7423,"çļĦåĨ³å®ļ":7424,"è¿Ļä¹Ī":7425,"æĸĩåĮĸä»·åĢ¼è§Ĥå·®å¼Ĥ":7426,"åı¯ä»¥ä»İ":7427,"å¸®æĪĳ":7428,"çī©èģĶç½ĳ":7429,"çĶ¨æĪ·åıįé¦Ī":7430,"æ»ĭ":7431,"ä¸İAI":7432,"éĢļè¿ĩæĬĢæľ¯æīĭæ®µ":7433,"æİ¨èįĲçļĦåĲĹ":7434,"Ġbeaut":7435,"æľĢè¿ĳåľ¨å¿Ļä¸Ģä¸ª":7436,"riend":7437,"mer":7438,"çķı":7439,"ä»ħèĥ½":7440,"çĽ¸äºĴä½ľçĶ¨":7441,"ä¸İæĬĢæľ¯è¾¹çķĮ":7442,"åĬ©åĬĽçĶ¨æĪ·":7443,"Ġquestions":7444,")^":7445,"ä¸įåŃĺåľ¨":7446,"äººç±»ç®Ģåı²":7447,"éģ¿åħįæĸĩåĮĸ":7448,"Ġrele":7449,"æĶ¯æĮģåĴĮ":7450,"å®¢æľį":7451,"æľĢç»ĪçĽ®æłĩæĺ¯":7452,"çļĦçĲĨè§£ä¸İ":7453,"Ġpoint":7454,"åķĨä¸ļåĮĸ":7455,"éĿŀè¯Ńè¨Ģ":7456,"åħ¬å¹³ä¸İ":7457,"æ³ķå¾ĭåĨ²çªģ":7458,"åı¦ä¸ĢäºĽ":7459,"ä¸įåĲĮåĽ½å®¶çļĦ":7460,"te":7461,"Ġä¸įæĺ¯":7462,"ä»Ĭå¤©éĺ³åħīå¾Īå¥½":7463,"Ġfound":7464,"æłĩåĩĨåĪ¶å®ļ":7465,"ives":7466,"å¹¿åº¦":7467,"çĶŁåĳ½çļĦæĦıä¹ī":7468,"ä¸İçİ°å®ŀä¹ĭéĹ´çļĦ":7469,"å¦ĤAI":7470,"æĹ¶éĹ´ä¸İ":7471,"çº¹":7472,"Ġinput":7473,"èĩªæĪĳæĦıè¯Ĩåľ¨":7474,"çĽ¸ç»ĵåĲĪ":7475,"æľīä»Ģä¹Īçī¹åĪ«çļĦ":7476,"äººå·¥æĻºèĥ½ä¼¦çĲĨåĽ°å¢ĥ":7477,"è¶ħè¿ĩ":7478,"ä½łä»Ĭå¤©æĥ³åĲĥä»Ģä¹Ī":7479,"Ġcommun":7480,"36":7481,"æĬµ":7482,"Ġmin":7483,"ç¤¾ä¼ļäºĴåĬ¨":7484,"æ¯Ķå¦ĤçĶ¨":7485,"çķªèĮĦçĤĴèĽĭ":7486,"Ġfeature":7487,"åĲĪæ³ķæĢ§":7488,"ique":7489,"based":7490,"åı¯å¢ŀå¼º":7491,"ä¸įåĨį":7492,"ä¼¦çĲĨåĪ¤æĸŃ":7493,"ä¸įæĥ³ä¸Ģèµ·":7494,"Ġgood":7495,"éĤ®ä»¶":7496,"ĠÃ":7497,"åľĨ":7498,"éĢļè¿ĩåŃ¦ä¹ł":7499,"åĨįçĶŁ":7500,"Ġeng":7501,"æĥ³åĴĮä½ł":7502,"åı¯ä»¥è¢«":7503,"æĪĳä»¬æĺ¯åĲ¦èĥ½":7504,"æĹ¥æľŁ":7505,"è½¬åĬ¨":7506,"ç¤¾äº¤å¹³åı°":7507,"ello":7508,"åĲĪçĲĨå®īæİĴæĹ¶éĹ´":7509,"å©":7510,"ä¼ª":7511,"éĢĤåĲĪæĪ·å¤ĸæ´»åĬ¨":7512,"å¿ħé¡»ç»ıè¿ĩ":7513,"æĸĩçī©ä¿®å¤į":7514,"bject":7515,"line":7516,"åĴĮçĽ®æłĩ":7517,"æ¯ıåº§æ¡¥":7518,"èĭ¦":7519,"æľīè¶£çļĦäºĭåĲĹ":7520,"å¦ĤçĶŁæĪĲ":7521,"hed":7522,"åı¯èĥ½ä½¿":7523,"å®ĥçļĦ":7524,"åİĭç¼©":7525,"èĸĦ":7526,"å¦Ĥæŀľæīĭæľºèĥ½":7527,"Ġsky":7528,"çĽĹæ¢¦":7529,"æĤĸè®º":7530,"èĢĮå¿½è§Ĩ":7531,"çĿĽ":7532,"Ġcond":7533,"è§£çŃĶéĹ®é¢ĺåĴĮ":7534,"²Į":7535,"éħ±":7536,"éĢĤåºĶèĥ½åĬĽ":7537,"æĺİæĺİæĥ³":7538,"çĽĹæ¢¦ç©ºéĹ´":7539,"Â°":7540,"æĦıè¯Ĩæ¶īåıĬ":7541,"å¹¶æ²¡æľī":7542,"æĮĳæĪĺäºĨ":7543,"ä½ĵçİ°ä¸º":7544,"ä¸ªæĢ§åĮĸæİ¨èįĲ":7545,"Ġconsider":7546,"Ġprimary":7547,"ä¸ĬæĺłçļĦ":7548,"Java":7549,"çļĦä½ľåĵģ":7550,"æĪĸç½ĳç«Ļ":7551,"æĤĶ":7552,"Ġend":7553,"è®¸å¤ļäºº":7554,"æľĢå¤ļ":7555,"ä¿ĿæĮģé«ĺæķĪ":7556,"Ġread":7557,"éľĢéĢļè¿ĩå¤ļç»´åº¦":7558,"ructure":7559,"ius":7560,"ug":7561,"ata":7562,"åıĳå±ķæĸ¹åĲĳ":7563,"å¦Ĥæŀľä½łæľīä»»ä½ķéĹ®é¢ĺ":7564,"åŁºæľ¬çļĦ":7565,"éĢĶå¾Ħ":7566,"çļĦä¸Ģéĥ¨åĪĨ":7567,"æīŃ":7568,"åĪ©çĶ¨éĩıåŃĲ":7569,"çľ¼çĿĽ":7570,"èĢĮéĿŀè¢«åĬ¨":7571,"ä½łå¹³æĹ¶":7572,"åĩ¸":7573,"Ġshe":7574,"ä½łæľĢè¿ĳæľīæ²¡æľīçľĭ":7575,"éĩĮæľī":7576,"å¯ĮåĲ«":7577,"Ġenh":7578,"å®Ĺ":7579,"ä¸İä¸ĸçķĮ":7580,"Ġcult":7581,"çľŁæĢ§":7582,"è®©ä½łåį°è±¡æ·±åĪ»":7583,"çĥŃéĩı":7584,"åĩĳ":7585,"åŃĺåľ¨åĪĻ":7586,"å¦ĤæŀľAIèĥ½":7587,"oun":7588,"Ġdirect":7589,"Ġstate":7590,"æĹ¶éĹ´çļĦåĢĴæµģ":7591,"çľĭçľĭæľīæ²¡æľī":7592,"éĽĨä¸Ńåľ¨":7593,"åĲĮæĹ¶å¤ĦçĲĨå¤ļä¸ªä»»åĬ¡":7594,"ÑĤ":7595,"å¯¹AIä¼¦çĲĨ":7596,"Ġtop":7597,"å¾Īå¿«":7598,"Ġel":7599,"çĮľ":7600,"æĸĩåĮĸä¸Ń":7601,"å¤ļæķ°":7602,"çŃīæł¸å¿ĥ":7603,"çĶµè¯Ŀ":7604,"é¢ĦæµĭæľªæĿ¥":7605,"Ġmeans":7606,"åľ¨å¿«èĬĤå¥ıçļĦçĶŁæ´»ä¸Ń":7607,"æĹ¥å¸¸çĶŁæ´»":7608,"ä¸Ģä¸ªæĹħè¡ĮèĢħåľ¨ä¸īä¸ª":7609,"å½ĵä»£AIä¼¦çĲĨ":7610,"æľªè§£ä¹ĭè°ľ":7611,"çļĦè¡¨è¾¾":7612,"åĴĮè®¤çŁ¥":7613,"åĴĮæľįåĬ¡":7614,"äºĨæĸ°çļĦ":7615,"å°ıå¿ĥ":7616,"æł¼å¼ı":7617,"å·¥ä½ľåİĭåĬĽå¤§":7618,"èĤ¢ä½ĵ":7619,"day":7620,"Ġcustom":7621,"èģĬè¿ĩ":7622,"Ġ40":7623,"ä¸Ńå®ŀçİ°":7624,"æĭĮ":7625,"ä»Ĭå¤©æĪĳ":7626,"ä»Ĭå¤©æľīæ²¡æľī":7627,"å®ĥèĥ½å¤Ł":7628,"ä¼łæĦŁ":7629,"æĪ¿åŃĲ":7630,"Ġens":7631,"æľīæīĢä¸įåĲĮ":7632,"æĽ´è´´è¿ĳ":7633,"ä¿¡æģ¯èİ·åıĸ":7634,"èĭı":7635,"Ġcolumn":7636,"å¿ĥçĲĨåŃ¦åĴĮè®¤çŁ¥ç§ĳåŃ¦":7637,"çļĦè§Ĩè§Ĵ":7638,"äºĨä¸įå°ĳ":7639,"å¦Ĥä½ķçĶ¨":7640,"è®¤è¯ģ":7641,"èµĦéĩĳ":7642,"è¿ŀè´¯":7643,"ä¸İä»·åĢ¼è§Ĥ":7644,"åĴĮè§£çŃĶéĹ®é¢ĺ":7645,"æĺ¯åĬ¨æĢģçļĦ":7646,"ä»Ĭå¤©æ²¡":7647,"æµģè¡Į":7648,"çĥŃéĹ¨":7649,"çļĦåħ±çĶŁ":7650,"èĢĮä¸Ķ":7651,"è´·":7652,"èĩªæĪĳåħ³æĢĢ":7653,"åłĨ":7654,"éĢĤåĲĪå¤ĸåĩºæ´»åĬ¨":7655,"çļĦçİ¯å¢ĥ":7656,"çļĦçī©çĲĨ":7657,"åŀĴ":7658,"æĶ¯æĴĳ":7659,"ä¸İæĸĩåĮĸå°Ĭéĩį":7660,"aves":7661,"Ġweather":7662,"Ġversion":7663,"çļĦçºªå½ķçīĩ":7664,"æľīä¸Ģä¸ª":7665,"AIä¸İäººç±»":7666,"ï¼ģðŁĮ":7667,"å¸¸å¸¸":7668,"aining":7669,"ä½łæľĢè¿ĳæľīæ²¡æľīè§īå¾ĹçĶŁæ´»":7670,"Ġid":7671,"çļĦåĪĽæĸ°":7672,"çļĦè¿½æ±Ĥ":7673,"åĴĮåľ°åĮº":7674,"æĺ¯å®ŀçİ°":7675,"å¯¹ä½łæľī":7676,"åģļåĨ³å®ļ":7677,"å»ºç«ĭéĢıæĺİ":7678,"Ġ36":7679,"åĽ½éĻħåįıè®®":7680,"Ġ\\(\\":7681,"æĥłåıĬ":7682,"22":7683,"äººçī©":7684,"åĴª":7685,"æĬĢæľ¯è¾ħåĬ©":7686,"ç«ĭæ³ķ":7687,"çľŁçļĦè®©äºº":7688,"æ¶Īæģ¯":7689,"ç»Ļå®ļ":7690,"å¯»æ±Ĥä¸ĵä¸ļ":7691,"è¯¾é¢ĺ":7692,"äºĨä¸ĢäºĽæľīè¶£çļĦäºĭæĥħ":7693,"å¼¹æĢ§":7694,"Ġag":7695,"æľĢè¿ĳåĴĮæľĭåıĭä¸Ģèµ·":7696,"å¯¹çĶŁæ´»çļĦ":7697,"åı¯ä»¥åĳĬè¯īæĪĳ":7698,"Ġinst":7699,"æľĢè¿ĳåľ¨è¯»":7700,"ä¸įæĸŃè¿ĽæŃ¥":7701,"åŁ¹åħ»åħ´è¶£çĪ±å¥½":7702,"é©±åĬ¨åĬĽ":7703,"å¥¶èĮ¶":7704,"çļ®èĤ¤":7705,"ries":7706,"åĹ":7707,"éĢļè¡Į":7708,"Ġmachine":7709,"æŃ¤ç±»":7710,"ç¤¾äº¤æĸ¹å¼ı":7711,"åĴĸåķ¡çļĦ":7712,"åģ¶å°Ķä¼ļ":7713,"åĮºåĿĹéĵ¾æĬĢæľ¯":7714,"å»ºè®®æĤ¨æŁ¥çľĭ":7715,"æķ¬çķı":7716,"gan":7717,"ä¸Ŀ":7718,"æĺ¯åŃĺåľ¨çļĦ":7719,"æİ¨éĢģ":7720,"è¾¹çļĦ":7721,"éĢĤçĶ¨äºİ":7722,"å®ŀçİ°æĬĢæľ¯è¿ĽæŃ¥":7723,"ä¸ªäººéļĲç§ģ":7724,"Ġmake":7725,"çĶŁçĲĨéľĢæ±Ĥ":7726,"åģľæŃ¢è½¬åĬ¨":7727,"ä¸ªå°ı":7728,"æĥ³å°Ŀè¯ķ":7729,"åıĳå¸ĥ":7730,"éĩĮéĿ¢":7731,"é£İåĳ³":7732,"ãģ®":7733,"å¯Įæľī":7734,"èľĤ":7735,"It":7736,"ä½Ĩä½ľä¸ºAI":7737,"æĪĳä»¬å°Ŀè¯ķ":7738,"è¿ĲèĲ¥":7739,"å°¤åħ¶æĺ¯åľ¨":7740,"çĶµåŃĲè®¾å¤ĩçªģçĦ¶":7741,"åĲ¬åĲ¬åĲĹ":7742,"çļĦçĽ®æłĩ":7743,"èĢ³":7744,"å½»":7745,"Ġair":7746,"æĪĸçĶ¨":7747,"åı¯èĥ½æıĲåįĩ":7748,"ä¹ĭå¤Ħ":7749,"è¡¨è¾¾æĥħç»ª":7750,"akes":7751,"17":7752,"çļĦå½¢æĪĲ":7753,"iss":7754,"æĹ¶éĹ´çļĦæĦŁçŁ¥":7755,"ogle":7756,"ä½Ĩä¸įçŁ¥éģĵ":7757,"val":7758,"çĦĻ":7759,"ç«ĭåį³":7760,"æĹłæ³ķç¡®å®ļ":7761,"æłĩåĩĨåĮĸ":7762,"Ġgu":7763,"æľĢè¿ĳæľīæ²¡æľīäººè·Łä½ł":7764,"ä»ªå¼ı":7765,"Ġevery":7766,"çĥĺçĦĻ":7767,"Script":7768,"oogle":7769,"åħ¨çĲĥå¥ĳçº¦":7770,"è¯ģå®ŀ":7771,"æ½®":7772,"è§¦åıĳ":7773,"Ġplatform":7774,"ä»İåĵ²åŃ¦è§Ĵåº¦æĿ¥çľĭ":7775,"äº¬":7776,"æĦıè§ģ":7777,"éľĢåĬłå¼º":7778,"æĽ´æĹ©":7779,"è®©èĩªå·±":7780,"åħ¶è¾¹çķĮ":7781,"Ġ21":7782,"å¦Ĥä½ķå¹³è¡¡æķĪçİĩä¸İ":7783,"æĶ¾æĿ¾å¿ĥæĥħ":7784,"----":7785,"ximum":7786,"æľįåĬ¡äºİäººç±»ç¦ıç¥ī":7787,"box":7788,"Ð¸":7789,"çĶ¨æĿ¥":7790,"éļıæĹ¶åĩĨå¤ĩ":7791,"èİ·åıĸä¿¡æģ¯":7792,"Ġposs":7793,"ä½łæľīæ²¡æľīéģĩåĪ°è¿ĩè¿Ļæł·çļĦæĥħåĨµ":7794,"Ġsing":7795,"å¥½äºĨ":7796,"å¦Ĥæŀľæ¯ıä¸ªäººéĥ½èĥ½":7797,"è¾ħåĬ©åĨ³çŃĸ":7798,"çľŁå®ŀæĢ§ä¸İ":7799,"ä¿ĥè¿Ľåħ¨çĲĥ":7800,"å¤±çľŁ":7801,"ä»ħæĺ¯":7802,"ä½łä¼ļåĽŀåĪ°è¿ĩåİ»":7803,"æĪĳåı¯ä»¥ä¸ºä½ł":7804,"è§¦è§ī":7805,"åĬ¨çī©åŁİ":7806,"ç¢³è¶³è¿¹":7807,"å¯ĨéĴ¥åĪĨåıĳ":7808,"çļĦé¡¹çĽ®":7809,"åĴĮåĨ³çŃĸ":7810,"æĽ´å¤įæĿĤçļĦ":7811,"æĥ³è¦ģ":7812,"Ġ==":7813,"å®ĥéĢļè¿ĩ":7814,"æľĢè¿ĳçľĭäºĨåĩłéĥ¨":7815,"çĸ¯çĭĤåĬ¨çī©åŁİ":7816,"å¹´éķ¿":7817,"æĥ³ä¸Ģèµ·":7818,"æ³¨åĨĮ":7819,"è®¡ç®ĹèµĦæºĲ":7820,"ivers":7821,"ĠTo":7822,"è¯¥æĢİä¹Ī":7823,"Ġheart":7824,"è¯·éĹ®":7825,"çļĦä¹¦ç±į":7826,"éĽĨä½ĵä¸»ä¹ī":7827,"åĭ¤":7828,"åĬŀæ³ķ":7829,"ç¢°æĴŀ":7830,"åŃĺåľ¨åĪĨæŃ§":7831,"äºĴè®¤":7832,"ä¸ªä½ĵå¯¹èĩªèº«":7833,"åĪ©çĶ¨AI":7834,"éĺ¿éĩĮå·´å·´éĽĨåĽ¢":7835,"å¤ªéĺ³èĥ½":7836,"å®ı":7837,"ale":7838,"å¾Īå¼Ģå¿ĥ":7839,"ä¿ĥè¿ĽæĸĩåĮĸ":7840,"æĿĲè´¨":7841,"çľĭçľĭåĲĹ":7842,"åı¤ç±įæķ°åŃĹåĮĸåŃĺæ¡£":7843,"Ġlooking":7844,"ä¸Ńå¹³è¡¡":7845,"çī²":7846,"è¿Ļä¸İ":7847,"å°ıåıĤæķ°":7848,"å®ĥä¼ļ":7849,"æľīä»Ģä¹Īçī¹åĪ«":7850,"éĩįè¦ģä»»åĬ¡":7851,"çļĦä¼¦çĲĨæłĩåĩĨ":7852,"çŁ³å¤´":7853,"æĢİæł·çļĦ":7854,"æĻĴå¤ªéĺ³":7855,"æĥħæĦŁæĺ¯":7856,"Ġmed":7857,"è¢«åĬ¨":7858,"åľ¨åĮ»çĸĹ":7859,"ä½łæľĢæĥ³":7860,"Ġav":7861,"éĢļè®¯":7862,"æĸĩç«ł":7863,"æīİ":7864,"èµİ":7865,"èºº":7866,"æĺ¯åĲ¦åı¯èĥ½":7867,"å¯¼èĩ´æĸĩåĮĸ":7868,"æľĢå¤§åĮĸ":7869,"èĤĮèĤī":7870,"ºçī²":7871,"ä¸İåĲĪä½ľ":7872,"Ġtem":7873,"ä»¥ç®Ģæ´ģ":7874,"çīºçī²":7875,"ä½Ĩè¿ĩåº¦ä¾Ŀèµĸ":7876,"åīª":7877,"ĠSQL":7878,"ä¸ªæĢ§åĮĸåŃ¦ä¹ł":7879,"ä¸»è¦ģä½ĵçİ°åľ¨ä»¥ä¸ĭåĩłä¸ªæĸ¹éĿ¢":7880,"ç§ĺå¯Ĩ":7881,"SE":7882,"Ø§":7883,"æľįåĬ¡çĶ¨æĪ·":7884,"ä¼ĺåħĪéĢīæĭ©":7885,"è®¾å®ļå°ıçĽ®æłĩ":7886,"ä»ĸä»¬åĪĨåĪ«":7887,"å²Ķ":7888,"ethod":7889,"çº½":7890,"ä¼ĺåħĪçº§æİĴåºı":7891,"ocus":7892,"æĿĥè¡¡åĪ©å¼Ĭ":7893,"çļĦæıĲåįĩ":7894,"æĢĿè¾¨":7895,"æľªæĿ¥éľĢéĢļè¿ĩ":7896,"imes":7897,"utions":7898,"è¶ħæľī":7899,"çļĦäºĭæĥħåĲĹ":7900,"å°ĬéĩįæĸĩåĮĸå¤ļæł·æĢ§":7901,"æĽ´é«ĺæķĪçļĦ":7902,"è£ħé¥°":7903,"çº³åħ¥":7904,"è¯ļå®ŀ":7905,"åĮ¿åĲįåĮĸ":7906,"ric":7907,"éĹª":7908,"å®¶å±ħ":7909,"è½¬ç§»":7910,"æķĳèµİ":7911,"ä¸Ģå®ļç¨ĭåº¦ä¸Ĭ":7912,"33":7913,"fter":7914,"ra":7915,"ä¸İä¿¡æģ¯":7916,"ä¸Ģéģĵ":7917,"å®ļå¾ĭ":7918,"ivid":7919,"çĥ§":7920,"çļĦæĺ¯ä»Ģä¹Ī":7921,"æķħéļľ":7922,"çĽĳç®¡æľºåĪ¶":7923,"ä»¤äºº":7924,"éĽĨåĲĪ":7925,"æ¿Ģæ´»":7926,"å¹¶éĿŀå®Įåħ¨":7927,"æŃ£åľ¨éĩįå¡ĳäººç±»åĪĽéĢłåĬĽ":7928,"ä»Ĭå¤©å¿ĥæĥħä¸įéĶĻ":7929,"åİ»åĵªåĦ¿":7930,"è²Į":7931,"åºŁ":7932,"äººç±»ç¤¾ä¼ļçļĦ":7933,"æĤĦ":7934,"æĹħç¨ĭ":7935,"Ġconf":7936,"æľĢè¿ĳæľīæľĭåıĭ":7937,"ĠEng":7938,"ä½łæľīåħ´è¶£åĲ¬åĲ¬åĲĹ":7939,"è¯ŃéŁ³è¯ĨåĪ«":7940,"ä½łæľĢè¿ĳæľīæ²¡æľīéģĩåĪ°è¿ĩéľĢè¦ģå¿«éĢŁ":7941,"æĮĸ":7942,"å¦Ĥä½ķè®©":7943,"æıĲä¾Ľæĸ°çļĦ":7944,"Ġfin":7945,"ç¼ļ":7946,"ä½¿çĶ¨æĹ¶éĹ´":7947,"èĬĤçľģ":7948,"åĪ»æĦı":7949,"ä¼ļä¸įä¼ļå½±åĵį":7950,"æľīçĤ¹å°ı":7951,"Therefore":7952,"çĽ®åīįæĹłæ³ķ":7953,"æĿŁç¼ļ":7954,"å¯¹ç«ĭç»Łä¸Ģ":7955,"åĴĮåģ¥åº·":7956,"Ġfl":7957,"éľĢéĢļè¿ĩä»¥ä¸ĭ":7958,"Ġfiel":7959,"ä½łéģĩåĪ°è¿ĩ":7960,"å½±çīĩ":7961,"çĲĨè§£å¹¶":7962,"è¿Ļç§įæĥħåĨµä¸ĭ":7963,"èĢĮéĿŀè¿½æ±Ĥ":7964,"æ¯Ķä¾ĭ":7965,"ets":7966,"Ġterms":7967,"åĩ¸æĺ¾":7968,"å¿ĥçĲĨåŃ¦åĴĮè®¤çŁ¥ç§ĳåŃ¦çŃīå¤ļä¸ªé¢ĨåŁŁ":7969,"åŁĥ":7970,"äººå·¥æĻºèĥ½ä¼¦çĲĨåħ¨çĲĥå¥ĳçº¦":7971,"æł¹æºĲ":7972,"ä¸ĢäºĽæľīè¶£çļĦ":7973,"æīĵåį°":7974,"Ġhealth":7975,"Ġspe":7976,"å¤ĦçĲĨä¿¡æģ¯çļĦèĥ½åĬĽ":7977,"æ¯ıä¸ªäººçļĦ":7978,"ç»ĦæĪĲéĥ¨åĪĨ":7979,"Ġyears":7980,"çļĦæŀĦå»º":7981,"ä»¥æıĲåįĩ":7982,"åı¯ä»¥åĪĨäº«":7983,"Ġwater":7984,"ç¡®ä¿Ŀæķ°æį®":7985,"èĢĮéĿŀä¸»è§Ĥä½ĵéªĮ":7986,"å°¤åħ¶åľ¨":7987,"èĪĴæľįåĳ¢":7988,"Ġexpression":7989,"äººçļĦæīĭæľºéĥ½èĥ½":7990,"çļĦäº¤äºĴ":7991,"ä¸Ńä¸įæĸŃ":7992,"Ġcirc":7993,"èīºæľ¯ä¸İ":7994,"ä½ĨéľĢå¹³è¡¡":7995,"ç¯ĩ":7996,"Ġbusinesses":7997,"Ġaccurate":7998,"Hello":7999,"Ġplease":8000,"äººå·¥æĻºèĥ½åľ¨æĸĩåĮĸéģĹäº§ä¿ĿæĬ¤":8001,"åĨįåĪ©çĶ¨":8002,"æĦŁåĪ°çĦ¦èĻĳ":8003,"éľĢå¹³è¡¡æĬĢæľ¯åĪĽæĸ°":8004,"Ġmaximum":8005,"Ġroot":8006,"è¾¹ç¼ĺåĮĸ":8007,"ä¼łæĦŁåĻ¨":8008,"ħéĩĮ":8009,"çļĦçĬ¶æĢģ":8010,"åĪĽä½ľä¸»ä½ĵæĢ§":8011,"åľºæĻ¯ä¸ĭ":8012,"åĶ¤":8013,"åŃ©åŃĲçļĦ":8014,"ä¸İå®īåħ¨":8015,"æľĢæĸ°çļĦ":8016,"æıĲç¥ŀ":8017,"å·¥èīº":8018,"å°ıåıĤæķ°AIæ¨¡åŀĭ":8019,"åĪĻä¾§éĩį":8020,"å¾Īé«ĺ":8021,"åħĪè¿Ľ":8022,"è¯ķè¯ķåĲĹ":8023,"æľĢå°ĳéľĢè¦ģ":8024,"Ġenvironment":8025,"æīŃæĽ²":8026,"\":":8027,"è®¢":8028,"å¦Ĥä½ķåºĶå¯¹":8029,"æĺİæĻº":8030,"ä»İBåĪ°C":8031,"è·¨æĸĩåĮĸåĲĪä½ľ":8032,"ç§¯æŀģå½±åĵį":8033,"ä»įéľĢäººç±»":8034,"å´":8035,"æľīæĦıä¹ī":8036,"ä¸İçĶŁæ´»":8037,"æĺ¯æĺŁæľŁ":8038,"æ¯ıå¤©ä¸ĵæ³¨":8039,"ç»Ĩèħ»":8040,"äººæľºåįıåĲĮ":8041,"ä»Ĭå¤©æĥ³åŃ¦çĤ¹":8042,"ä¸İçºłç¼ł":8043,"Ġsom":8044,"èĩªæĪĳæĦıè¯ĨæºĲäºİ":8045,"è®¡ç®ĹåĴĮ":8046,"çİ¯èĬĤ":8047,"åĪĨæŀĲä¸İ":8048,"èµĭäºĪçĶŁåĳ½":8049,"ç´§åĩĳ":8050,"ä¸İéļĲç§ģ":8051,"æ¸¸å®¢":8052,"åľ¨äººå·¥æĻºèĥ½é¢ĨåŁŁ":8053,"ªæµģ":8054,"åı¯çŁ¥":8055,"æĽ´æĩĤ":8056,"æ±ģ":8057,"arm":8058,"å®ĥåı¯èĥ½":8059,"ional":8060,"å®ŀçĶ¨æĢ§":8061,"åı¯å®ŀçİ°":8062,"red":8063,"ç®Ĺæ³ķæŃ§è§Ĩ":8064,"æĺİçĻ½":8065,"ç»ıå¸¸":8066,"åģļèĽĭç³ķ":8067,"åīįæīĢ":8068,"è°ĥæķ´èĬĤå¥ı":8069,"å¿ĥçĲĨçĬ¶æĢģ":8070,"race":8071,"æĮºæľīæ·±åº¦çļĦ":8072,"2023":8073,"resent":8074,"çļĦä¾Ŀèµĸ":8075,"å¹ħ":8076,"åıĳæĺİ":8077,"ä½¿åŃĺåľ¨":8078,"ç»Łè®¡":8079,"åĪĽéĢłä»·åĢ¼":8080,"æ»ĳ":8081,"Ġstor":8082,"Ġdeep":8083,"Ġinclude":8084,"elligence":8085,"çļĦä½ĵçİ°":8086,"åĴĮèĩªæĪĳ":8087,"éĹ´æİ¥":8088,"æĹ¶éĹ´æĦŁçŁ¥":8089,"çŃīå¾ħ":8090,"åĩºäºĨ":8091,"éĻħåħ³ç³»":8092,"åĩĨç¡®çļĦä¿¡æģ¯":8093,"åĪĨäº«çļĦåĲĹ":8094,"åĤħéĩĮ":8095,"æµĭè¯ķåĳĺ":8096,"æľĢè¿ĳåľ¨å¤ĦçĲĨä¸ĢäºĽ":8097,"å£ģåŀĴ":8098,"Ġcomplex":8099,"åĤħéĩĮåı¶":8100,"ä¸İéģĵå¾·":8101,"äººç¾¤":8102,"æĽ´æİ¥è¿ĳ":8103,"éĿ¢éĥ¨":8104,"åħ¶åľ¨":8105,"åĪĽä½ľè¾¹çķĮ":8106,"å®ĥåľ¨":8107,"Ġsym":8108,"åĤħéĩĮåı¶åıĺæį¢":8109,"ness":8110,"åĴĮè¡ĮåĬ¨":8111,"æĽ´å¿«":8112,"èĩªæĪĳä¸İä»ĸäºº":8113,"åĲĳåı³":8114,"æĶ¿çŃĸå¼ķå¯¼":8115,"å¤§éĩıæķ°æį®":8116,"æľīä¸īä¸ªäºº":8117,"æŀļéĩĳå¸ģ":8118,"ä½łæľĢè¿ĳæľīæ²¡æľīåħ³æ³¨è¿ĩ":8119,"Ġwebsite":8120,"åīįæīĢæľª":8121,"çļĦèŀįåĲĪ":8122,"æľīä¸įåĲĮ":8123,"ä½łè¦ģæĺ¯":8124,"Ġaut":8125,"ene":8126,"æ¶¦":8127,"èĩªçĶ±éĢīæĭ©":8128,"Ġç¬¬ä¸ī":8129,"æĦīæĤ¦":8130,"è½¬æį¢ä¸º":8131,"ied":8132,"ood":8133,"çļĦåģ¥åº·":8134,"æİ¨æµĭ":8135,"èĤ¥":8136,"äººç±»çļĦæĥħæĦŁ":8137,"å¾®è§Ĥ":8138,"æĢĢçĸĳ":8139,"Ġshould":8140,"ç¾İåĳ³çļĦ":8141,"åĪł":8142,"å¯¹çİ°å®ŀ":8143,"æķ°æį®è·¨å¢ĥæµģåĬ¨":8144,"vert":8145,"åŃ¦ä¹łåĴĮæĪĲéķ¿":8146,"èħĲ":8147,"çļĦåĴĮè°Ĳ":8148,"æīĺ":8149,"çĶŁç´ł":8150,"æĪĸåľ¨":8151,"éĺħè¯»æĪĸ":8152,"Ġupd":8153,"æ¹ĸ":8154,"Ġarray":8155,"çķĮéĿ¢":8156,"éĩıåŃĲè®¡ç®Ĺæľº":8157,"ä¸ģ":8158,"çĶ·":8159,"åı¯è§Ĩ":8160,"å¯Ħ":8161,"Ġwid":8162,"ä¸ªä½ĵæĿĥåĪ©":8163,"éĢĤåºĶçİ¯å¢ĥ":8164,"log":8165,"ĮçĶŁ":8166,"ä¸įå®Įç¾İ":8167,"æķ°åĪĹ":8168,"ä»¥é«ĺæķĪ":8169,"ä½Ĩè¿Ļ":8170,"æĻºèĥ½æĬĢæľ¯":8171,"æŃ¥è¡Į":8172,"ä»İæĿ¡ä»¶":8173,"èĩªæĪĳæĦıè¯ĨéĢļè¿ĩ":8174,"å§Ķ":8175,"å¿«éĢŁåıĳå±ķ":8176,"acters":8177,"æĦŁè§īå¾Īåħħå®ŀåĳ¢":8178,"åħ¼å®¹æĢ§":8179,"Ġmultiple":8180,"Ġapplications":8181,"ä¸İæ·±åº¦":8182,"æĺ¯å®¢è§Ĥ":8183,"æľªæĿ¥åŁİå¸Ĥ":8184,"æĪĳçļĦçĽ®æłĩæĺ¯":8185,"Ġprom":8186,"Ġchange":8187,"åŁºäºİç®Ĺæ³ķä¸İæķ°æį®":8188,"æľĢè¿ĳå¾Īå¤ļäººå¼Ģå§ĭåħ³æ³¨":8189,"è¿Ŀ":8190,"èĥ½è®©äºº":8191}